{
  "version": "1.0",
  "truncation": null,
  "padding": null,
  "added_tokens": [
    {
      "id": 0,
      "content": "<|endoftext|>",
      "single_word": false,
      "lstrip": false,
      "rstrip": false,
      "normalized": false,
      "special": true
    }
  ],
  "normalizer": null,
  "pre_tokenizer": {
    "type": "ByteLevel",
    "add_prefix_space": true,
    "trim_offsets": true,
    "use_regex": true
  },
  "post_processor": {
    "type": "ByteLevel",
    "add_prefix_space": true,
    "trim_offsets": false,
    "use_regex": true
  },
  "decoder": {
    "type": "ByteLevel",
    "add_prefix_space": true,
    "trim_offsets": true,
    "use_regex": true
  },
  "model": {
    "type": "BPE",
    "dropout": null,
    "unk_token": null,
    "continuing_subword_prefix": null,
    "end_of_word_suffix": null,
    "fuse_unk": false,
    "byte_fallback": false,
    "ignore_merges": false,
    "vocab": {
      "<|endoftext|>": 0,
      "!": 1,
      "\"": 2,
      "#": 3,
      "$": 4,
      "%": 5,
      "&": 6,
      "'": 7,
      "(": 8,
      ")": 9,
      "*": 10,
      "+": 11,
      ",": 12,
      "-": 13,
      ".": 14,
      "/": 15,
      "0": 16,
      "1": 17,
      "2": 18,
      "3": 19,
      "4": 20,
      "5": 21,
      "6": 22,
      "7": 23,
      "8": 24,
      "9": 25,
      ":": 26,
      ";": 27,
      "<": 28,
      "=": 29,
      ">": 30,
      "?": 31,
      "@": 32,
      "A": 33,
      "B": 34,
      "C": 35,
      "D": 36,
      "E": 37,
      "F": 38,
      "G": 39,
      "H": 40,
      "I": 41,
      "J": 42,
      "K": 43,
      "L": 44,
      "M": 45,
      "N": 46,
      "O": 47,
      "P": 48,
      "Q": 49,
      "R": 50,
      "S": 51,
      "T": 52,
      "U": 53,
      "V": 54,
      "W": 55,
      "X": 56,
      "Y": 57,
      "Z": 58,
      "[": 59,
      "\\": 60,
      "]": 61,
      "^": 62,
      "_": 63,
      "`": 64,
      "a": 65,
      "b": 66,
      "c": 67,
      "d": 68,
      "e": 69,
      "f": 70,
      "g": 71,
      "h": 72,
      "i": 73,
      "j": 74,
      "k": 75,
      "l": 76,
      "m": 77,
      "n": 78,
      "o": 79,
      "p": 80,
      "q": 81,
      "r": 82,
      "s": 83,
      "t": 84,
      "u": 85,
      "v": 86,
      "w": 87,
      "x": 88,
      "y": 89,
      "z": 90,
      "{": 91,
      "|": 92,
      "}": 93,
      "~": 94,
      "¡": 95,
      "¢": 96,
      "£": 97,
      "¤": 98,
      "¥": 99,
      "¦": 100,
      "§": 101,
      "¨": 102,
      "©": 103,
      "ª": 104,
      "«": 105,
      "¬": 106,
      "®": 107,
      "¯": 108,
      "°": 109,
      "±": 110,
      "²": 111,
      "³": 112,
      "´": 113,
      "µ": 114,
      "¶": 115,
      "·": 116,
      "¸": 117,
      "¹": 118,
      "º": 119,
      "»": 120,
      "¼": 121,
      "½": 122,
      "¾": 123,
      "¿": 124,
      "À": 125,
      "Á": 126,
      "Â": 127,
      "Ã": 128,
      "Ä": 129,
      "Å": 130,
      "Æ": 131,
      "Ç": 132,
      "È": 133,
      "É": 134,
      "Ê": 135,
      "Ë": 136,
      "Ì": 137,
      "Í": 138,
      "Î": 139,
      "Ï": 140,
      "Ð": 141,
      "Ñ": 142,
      "Ò": 143,
      "Ó": 144,
      "Ô": 145,
      "Õ": 146,
      "Ö": 147,
      "×": 148,
      "Ø": 149,
      "Ù": 150,
      "Ú": 151,
      "Û": 152,
      "Ü": 153,
      "Ý": 154,
      "Þ": 155,
      "ß": 156,
      "à": 157,
      "á": 158,
      "â": 159,
      "ã": 160,
      "ä": 161,
      "å": 162,
      "æ": 163,
      "ç": 164,
      "è": 165,
      "é": 166,
      "ê": 167,
      "ë": 168,
      "ì": 169,
      "í": 170,
      "î": 171,
      "ï": 172,
      "ð": 173,
      "ñ": 174,
      "ò": 175,
      "ó": 176,
      "ô": 177,
      "õ": 178,
      "ö": 179,
      "÷": 180,
      "ø": 181,
      "ù": 182,
      "ú": 183,
      "û": 184,
      "ü": 185,
      "ý": 186,
      "þ": 187,
      "ÿ": 188,
      "Ā": 189,
      "ā": 190,
      "Ă": 191,
      "ă": 192,
      "Ą": 193,
      "ą": 194,
      "Ć": 195,
      "ć": 196,
      "Ĉ": 197,
      "ĉ": 198,
      "Ċ": 199,
      "ċ": 200,
      "Č": 201,
      "č": 202,
      "Ď": 203,
      "ď": 204,
      "Đ": 205,
      "đ": 206,
      "Ē": 207,
      "ē": 208,
      "Ĕ": 209,
      "ĕ": 210,
      "Ė": 211,
      "ė": 212,
      "Ę": 213,
      "ę": 214,
      "Ě": 215,
      "ě": 216,
      "Ĝ": 217,
      "ĝ": 218,
      "Ğ": 219,
      "ğ": 220,
      "Ġ": 221,
      "ġ": 222,
      "Ģ": 223,
      "ģ": 224,
      "Ĥ": 225,
      "ĥ": 226,
      "Ħ": 227,
      "ħ": 228,
      "Ĩ": 229,
      "ĩ": 230,
      "Ī": 231,
      "ī": 232,
      "Ĭ": 233,
      "ĭ": 234,
      "Į": 235,
      "į": 236,
      "İ": 237,
      "ı": 238,
      "Ĳ": 239,
      "ĳ": 240,
      "Ĵ": 241,
      "ĵ": 242,
      "Ķ": 243,
      "ķ": 244,
      "ĸ": 245,
      "Ĺ": 246,
      "ĺ": 247,
      "Ļ": 248,
      "ļ": 249,
      "Ľ": 250,
      "ľ": 251,
      "Ŀ": 252,
      "ŀ": 253,
      "Ł": 254,
      "ł": 255,
      "Ń": 256,
      "Ġt": 257,
      "he": 258,
      "Ġa": 259,
      "in": 260,
      "Ġo": 261,
      "Ġthe": 262,
      "Ġs": 263,
      "er": 264,
      "nd": 265,
      "Ġw": 266,
      "Ġb": 267,
      "re": 268,
      "ou": 269,
      "Ġh": 270,
      "is": 271,
      "Ġf": 272,
      "ll": 273,
      "Ġm": 274,
      "Ġand": 275,
      "es": 276,
      "Ġof": 277,
      "at": 278,
      "it": 279,
      "ing": 280,
      "or": 281,
      "Ġp": 282,
      "Ġc": 283,
      "on": 284,
      "ar": 285,
      "an": 286,
      "en": 287,
      "ed": 288,
      "Ġl": 289,
      "Ġd": 290,
      "Ġto": 291,
      "as": 292,
      "Ġin": 293,
      "Ġhe": 294,
      "le": 295,
      "Ġth": 296,
      "ro": 297,
      "Ġn": 298,
      "Ġg": 299,
      "ĠĊ": 300,
      "Ġy": 301,
      "ic": 302,
      "ow": 303,
      "al": 304,
      "et": 305,
      "st": 306,
      "el": 307,
      "Ġhis": 308,
      "ĠI": 309,
      "im": 310,
      "ut": 311,
      "ur": 312,
      "ĠA": 313,
      "Ġyou": 314,
      "'s": 315,
      "ir": 316,
      "om": 317,
      "ot": 318,
      "Ġe": 319,
      "ĠT": 320,
      "ay": 321,
      "Ġfor": 322,
      "Ġon": 323,
      "ad": 324,
      "ac": 325,
      "gh": 326,
      "am": 327,
      "Ġbe": 328,
      "ĠS": 329,
      "Ġu": 330,
      "ith": 331,
      "ld": 332,
      "Ġwh": 333,
      "id": 334,
      "oo": 335,
      "Ġwith": 336,
      "ver": 337,
      "ĠM": 338,
      "se": 339,
      "um": 340,
      "ter": 341,
      "ly": 342,
      "ve": 343,
      "ĠH": 344,
      "Ġas": 345,
      "Ġr": 346,
      "ill": 347,
      "ch": 348,
      "ĠB": 349,
      "Ġthat": 350,
      "ke": 351,
      "ĠW": 352,
      "Ġst": 353,
      "us": 354,
      "un": 355,
      "il": 356,
      "Ġis": 357,
      "ent": 358,
      "Ġall": 359,
      "all": 360,
      "Ġit": 361,
      "ion": 362,
      "Ġre": 363,
      "Ġwas": 364,
      "her": 365,
      "and": 366,
      "ĠC": 367,
      "ght": 368,
      "ri": 369,
      "ap": 370,
      "ell": 371,
      "ers": 372,
      "ag": 373,
      "Ġ(": 374,
      "Ġher": 375,
      "Ġli": 376,
      "ĠP": 377,
      "rom": 378,
      "ck": 379,
      "Ġme": 380,
      "Ġmy": 381,
      "ab": 382,
      "ĠO": 383,
      "Ġso": 384,
      "ce": 385,
      "Ġby": 386,
      "th": 387,
      "ul": 388,
      "Ġsh": 389,
      "ĠL": 390,
      "ĠF": 391,
      "Ġan": 392,
      "Ġk": 393,
      "Ġor": 394,
      "ore": 395,
      "ol": 396,
      "ĠD": 397,
      "os": 398,
      "Ġwhe": 399,
      "Ġfrom": 400,
      "Ġat": 401,
      "qu": 402,
      "if": 403,
      "ee": 404,
      "est": 405,
      "op": 406,
      "ig": 407,
      "Ġhim": 408,
      "ain": 409,
      "Ġv": 410,
      "Ġyour": 411,
      "ĠThe": 412,
      "ĠAnd": 413,
      "Ġj": 414,
      "our": 415,
      "Ġch": 416,
      "ess": 417,
      "ĠN": 418,
      "ĠG": 419,
      "ick": 420,
      "Ġup": 421,
      "Ġâ": 422,
      "Ġha": 423,
      "ant": 424,
      "ight": 425,
      "ĠâĢ": 426,
      "ĠâĢĶ": 427,
      "ous": 428,
      "ies": 429,
      "Ġtheir": 430,
      "Ġwe": 431,
      "em": 432,
      "ip": 433,
      "ak": 434,
      "ome": 435,
      "ct": 436,
      "Ġsp": 437,
      "ong": 438,
      "ould": 439,
      "ast": 440,
      "aw": 441,
      "od": 442,
      "Ġnot": 443,
      "ear": 444,
      "ack": 445,
      "ĠE": 446,
      "ard": 447,
      "ind": 448,
      "ist": 449,
      "Ġour": 450,
      "Ġbut": 451,
      "ud": 452,
      "ere": 453,
      "Ġshe": 454,
      "Ġbl": 455,
      "av": 456,
      "ry": 457,
      "Ġsu": 458,
      "out": 459,
      "Ġpl": 460,
      "one": 461,
      "ood": 462,
      "ĠR": 463,
      "Ġout": 464,
      "Ġwho": 465,
      "ost": 466,
      "art": 467,
      "Ġle": 468,
      "Ġthey": 469,
      "res": 470,
      "ust": 471,
      "Ġde": 472,
      "Ġdo": 473,
      "ull": 474,
      "Ġse": 475,
      "Ġone": 476,
      "ine": 477,
      "Ġwhen": 478,
      "ie": 479,
      "ound": 480,
      "ff": 481,
      "Ġne": 482,
      "ass": 483,
      "ang": 484,
      "iv": 485,
      "ish": 486,
      "au": 487,
      "ne": 488,
      "ough": 489,
      "ation": 490,
      "Ġtw": 491,
      "Ġal": 492,
      "bl": 493,
      "Ġtr": 494,
      "own": 495,
      "are": 496,
      "Ġlike": 497,
      "ake": 498,
      "nder": 499,
      "ĠTh": 500,
      "Ġro": 501,
      "ty": 502,
      "ĠY": 503,
      "ame": 504,
      "Ġfl": 505,
      "Ġcon": 506,
      "ĠJ": 507,
      "ink": 508,
      "ich": 509,
      "Ġqu": 510,
      "Ġold": 511,
      "ace": 512,
      "Ġthis": 513,
      "Ġab": 514,
      "Ġhave": 515,
      "Ġare": 516,
      "ate": 517,
      "Ġlo": 518,
      "ue": 519,
      "!)": 520,
      "pp": 521,
      "ure": 522,
      "oy": 523,
      "ings": 524,
      "Ġam": 525,
      "ree": 526,
      "ĠWh": 527,
      "ts": 528,
      "Ġun": 529,
      "og": 530,
      "Ġever": 531,
      "ook": 532,
      "Ġman": 533,
      "ile": 534,
      "Ġar": 535,
      "Ġcl": 536,
      "Ġno": 537,
      "Ġbr": 538,
      "ib": 539,
      "ide": 540,
      "Ġaf": 541,
      "row": 542,
      "Ġgr": 543,
      "Ġthere": 544,
      "sel": 545,
      "ime": 546,
      "uck": 547,
      "iss": 548,
      "ge": 549,
      "to": 550,
      "Ġco": 551,
      "Ġwill": 552,
      "Ġhow": 553,
      "Ġus": 554,
      ".'": 555,
      "ub": 556,
      "ord": 557,
      "Ġex": 558,
      "Ġsc": 559,
      "ays": 560,
      "ĠK": 561,
      "per": 562,
      "Ġpr": 563,
      "itt": 564,
      "Ġwhat": 565,
      "Ġpro": 566,
      "Ġkn": 567,
      "Ġsw": 568,
      "Ġcom": 569,
      "Ġgo": 570,
      "Ġwere": 571,
      "ive": 572,
      "ite": 573,
      "Ġif": 574,
      "Ġnow": 575,
      "Ġafter": 576,
      "Ġpo": 577,
      "les": 578,
      "ther": 579,
      "ug": 580,
      "Ġhad": 581,
      "ĠHe": 582,
      "ire": 583,
      "up": 584,
      "Ġwould": 585,
      "ark": 586,
      "man": 587,
      "Ġthem": 588,
      "ens": 589,
      "Ġwhere": 590,
      "pe": 591,
      "te": 592,
      "Ġover": 593,
      "ump": 594,
      "Ġag": 595,
      "ock": 596,
      "ally": 597,
      "che": 598,
      "ber": 599,
      "ian": 600,
      "Ġ^": 601,
      "ice": 602,
      "Ġfe": 603,
      "ose": 604,
      "ia": 605,
      "oll": 606,
      "Ġsee": 607,
      "able": 608,
      "ath": 609,
      "ity": 610,
      "Ġoff": 611,
      "air": 612,
      "ah": 613,
      "inn": 614,
      "Ġwhich": 615,
      "self": 616,
      ".'^": 617,
      "orn": 618,
      "ave": 619,
      "sh": 620,
      "ven": 621,
      "oun": 622,
      "ank": 623,
      "ail": 624,
      "Ġpe": 625,
      "oot": 626,
      "ely": 627,
      "ort": 628,
      "Ġcan": 629,
      "ft": 630,
      "Ġthr": 631,
      "ious": 632,
      "ob": 633,
      "old": 634,
      "ons": 635,
      "'t": 636,
      "ep": 637,
      "ling": 638,
      "Ġhas": 639,
      "Ġsl": 640,
      "'ll": 641,
      "ĠV": 642,
      "Ġsay": 643,
      "urn": 644,
      "ĠBut": 645,
      "age": 646,
      "ond": 647,
      "ach": 648,
      "Ġunder": 649,
      "Ġen": 650,
      "ans": 651,
      "ĠU": 652,
      "ins": 653,
      "ok": 654,
      "Ġdown": 655,
      "irst": 656,
      "aid": 657,
      "fe": 658,
      "Ġmay": 659,
      "Ġmore": 660,
      "Ġtwo": 661,
      "red": 662,
      "ise": 663,
      "pl": 664,
      "Ġabout": 665,
      "the": 666,
      "igh": 667,
      "ars": 668,
      "ade": 669,
      "ence": 670,
      "Ġtime": 671,
      "cc": 672,
      "ase": 673,
      "Ġgre": 674,
      "fore": 675,
      "Ġper": 676,
      "ĠSh": 677,
      "Ġgood": 678,
      "ters": 679,
      "ild": 680,
      "Ġtill": 681,
      "ary": 682,
      "Ġwor": 683,
      "Ġdr": 684,
      "Ġthrough": 685,
      "ance": 686,
      "Ġcr": 687,
      "ĠAn": 688,
      "Ġlet": 689,
      "int": 690,
      "Ġ'": 691,
      "Ġsome": 692,
      "ĠIt": 693,
      "ves": 694,
      "Ġstr": 695,
      "oss": 696,
      "Ġ,": 697,
      "ale": 698,
      "we": 699,
      "Ġwhile": 700,
      "ĠYou": 701,
      "pt": 702,
      "Ġad": 703,
      "hed": 704,
      "Ġknow": 705,
      "be": 706,
      "Ġsm": 707,
      "ery": 708,
      "Ġgl": 709,
      "Ġfirst": 710,
      "Ġpre": 711,
      "app": 712,
      "ss": 713,
      "und": 714,
      "ix": 715,
      "amp": 716,
      "Ġany": 717,
      ".^": 718,
      "Ġver": 719,
      "Ġhand": 720,
      "Ġtoo": 721,
      "Ġthen": 722,
      "ĠSo": 723,
      "ble": 724,
      "led": 725,
      "ting": 726,
      "Ġbefore": 727,
      "ign": 728,
      "Ġevery": 729,
      "wn": 730,
      "Ġbet": 731,
      "ful": 732,
      "af": 733,
      "me": 734,
      "ool": 735,
      "cl": 736,
      "gg": 737,
      "ated": 738,
      "ĠSt": 739,
      "az": 740,
      "ial": 741,
      "ory": 742,
      "oth": 743,
      "ph": 744,
      "Ġwell": 745,
      "ung": 746,
      "dy": 747,
      "ouse": 748,
      "ather": 749,
      "ittle": 750,
      "ann": 751,
      "ush": 752,
      "Ġim": 753,
      "Ġdid": 754,
      "ily": 755,
      "ater": 756,
      "ress": 757,
      "Ġhere": 758,
      "ott": 759,
      "ye": 760,
      "Ġcould": 761,
      "Ġinto": 762,
      "ĠFor": 763,
      "Ġway": 764,
      "ash": 765,
      "Ġi": 766,
      "eth": 767,
      "Ġagain": 768,
      "ys": 769,
      "Ġfr": 770,
      "ness": 771,
      "Ġho": 772,
      "aun": 773,
      "ied": 774,
      "Ġback": 775,
      "ought": 776,
      "att": 777,
      "anc": 778,
      "uff": 779,
      "eep": 780,
      "ors": 781,
      "alk": 782,
      "wh": 783,
      "Ġbeen": 784,
      "Ġtell": 785,
      "Ġother": 786,
      "Ġnight": 787,
      "uch": 788,
      "Ġlong": 789,
      "ĠIn": 790,
      "mer": 791,
      "ving": 792,
      "Ġ.": 793,
      "Ġ1": 794,
      "der": 795,
      "uc": 796,
      "ment": 797,
      "oon": 798,
      "Ġbro": 799,
      "Ġye": 800,
      "oh": 801,
      "other": 802,
      "ks": 803,
      "oc": 804,
      "ats": 805,
      "ĠWhe": 806,
      "aking": 807,
      "Ġnever": 808,
      "for": 809,
      "way": 810,
      "Ġlook": 811,
      "act": 812,
      "ĠBe": 813,
      "ĠWe": 814,
      "iz": 815,
      "ets": 816,
      "br": 817,
      "ny": 818,
      "Ġear": 819,
      "Ġupon": 820,
      "Ġcome": 821,
      "Ġer": 822,
      "Ġte": 823,
      "Ġfour": 824,
      "ike": 825,
      "Ġche": 826,
      "ĠCh": 827,
      "ik": 828,
      "ane": 829,
      "ĠAr": 830,
      "Ġthree": 831,
      "Ġke": 832,
      "Ġbre": 833,
      "ier": 834,
      "ng": 835,
      "Ġits": 836,
      "ount": 837,
      "land": 838,
      "ps": 839,
      "atter": 840,
      "ions": 841,
      "Ġple": 842,
      "ole": 843,
      "Ġmar": 844,
      "umb": 845,
      "Ġround": 846,
      "ax": 847,
      "oe": 848,
      "Ġbel": 849,
      "ĠAll": 850,
      "^^": 851,
      "ox": 852,
      "Ġel": 853,
      "Ġcur": 854,
      "'re": 855,
      "Ġpart": 856,
      "agg": 857,
      "Ġlittle": 858,
      "ĠWhat": 859,
      "oul": 860,
      "its": 861,
      "als": 862,
      "ey": 863,
      "Ġsn": 864,
      "ont": 865,
      "Ġstill": 866,
      "Ġ2": 867,
      "Ġown": 868,
      "Ġwr": 869,
      "ĠAs": 870,
      "umm": 871,
      "'d": 872,
      "ict": 873,
      "els": 874,
      "rie": 875,
      "uss": 876,
      "ards": 877,
      "ett": 878,
      "ra": 879,
      "Ġhear": 880,
      "ows": 881,
      "),": 882,
      "ds": 883,
      "ĠThat": 884,
      "Ġdis": 885,
      "ĠMr": 886,
      "ĠHow": 887,
      "Ġsuch": 888,
      "de": 889,
      "men": 890,
      "Ġapp": 891,
      "Ġcall": 892,
      "Ġjust": 893,
      "ince": 894,
      "Ġonly": 895,
      "Ġsk": 896,
      "Ġmost": 897,
      "Ġmade": 898,
      "Ġhimself": 899,
      "ways": 900,
      "Ġthose": 901,
      "Ġbeh": 902,
      "ĠBr": 903,
      "Ġrem": 904,
      "Ġshall": 905,
      "ms": 906,
      "ov": 907,
      "ple": 908,
      "ream": 909,
      "ĠShe": 910,
      "Ġfar": 911,
      "atch": 912,
      "Ġend": 913,
      "Ġfore": 914,
      "ley": 915,
      "Ġthink": 916,
      "idd": 917,
      "aint": 918,
      "Ġtri": 919,
      "Ġpar": 920,
      "Ġday": 921,
      "ents": 922,
      "ears": 923,
      "king": 924,
      "Ġlad": 925,
      "ĠWith": 926,
      "iel": 927,
      "Ġfull": 928,
      "imes": 929,
      "Ġbeing": 930,
      "by": 931,
      "iver": 932,
      "ower": 933,
      "ym": 934,
      "Ġhal": 935,
      "Ġbec": 936,
      "Ġlast": 937,
      "rown": 938,
      "hes": 939,
      "Ġmake": 940,
      "Ġwhole": 941,
      "of": 942,
      "Ġz": 943,
      "Ġwar": 944,
      "Ġem": 945,
      "ipp": 946,
      "augh": 947,
      "ius": 948,
      "Ġword": 949,
      "Ġbar": 950,
      "tr": 951,
      "Ġsame": 952,
      "Ġmight": 953,
      "Ġmust": 954,
      "ect": 955,
      "ren": 956,
      "iff": 957,
      "ove": 958,
      "sc": 959,
      "Ġbo": 960,
      "ĠTo": 961,
      "udd": 962,
      "Ġph": 963,
      "onn": 964,
      "Ġthan": 965,
      "oman": 966,
      "ĠThis": 967,
      "ugg": 968,
      "Ġvery": 969,
      "ls": 970,
      "less": 971,
      "ates": 972,
      "Ġpass": 973,
      "Ġlight": 974,
      "get": 975,
      "Ġsal": 976,
      "outh": 977,
      "ical": 978,
      "Ġeven": 979,
      "Ġlove": 980,
      "Ġhop": 981,
      "ster": 982,
      "ours": 983,
      "ause": 984,
      "ning": 985,
      "ret": 986,
      "Ġfell": 987,
      "Ġcar": 988,
      "aps": 989,
      "ween": 990,
      "mon": 991,
      "ating": 992,
      "ully": 993,
      "Ġturn": 994,
      "Ġsaid": 995,
      "Ġwind": 996,
      "Ġboy": 997,
      "Ġfall": 998,
      "ĠMe": 999,
      "Ġright": 1000,
      "akes": 1001,
      "Ġ3": 1002,
      "ĠNo": 1003,
      "Ġworld": 1004,
      "Ġgu": 1005,
      "Ġrec": 1006,
      "Ġres": 1007,
      "ker": 1008,
      "Ġacc": 1009,
      "Ġbeg": 1010,
      "pect": 1011,
      "ait": 1012,
      "Ġ4": 1013,
      "ert": 1014,
      "Ġdear": 1015,
      "ots": 1016,
      "Ġlife": 1017,
      "ĠGr": 1018,
      "cher": 1019,
      "inc": 1020,
      "Ġnor": 1021,
      "Ġalways": 1022,
      "Ġpoor": 1023,
      "ler": 1024,
      "ubl": 1025,
      "Ġac": 1026,
      "Ġser": 1027,
      "igg": 1028,
      "ĠNe": 1029,
      "fl": 1030,
      "ias": 1031,
      "Ġtake": 1032,
      "Ġhead": 1033,
      "ĠNow": 1034,
      "ĠQ": 1035,
      "ised": 1036,
      "ither": 1037,
      "ener": 1038,
      "Ġfeel": 1039,
      "pen": 1040,
      "ton": 1041,
      "ues": 1042,
      "oud": 1043,
      "Ġhigh": 1044,
      "ĠMac": 1045,
      "ĠOr": 1046,
      "Ġspe": 1047,
      "yn": 1048,
      "Ġfair": 1049,
      "ĠBl": 1050,
      "ium": 1051,
      "Ġbu": 1052,
      "ene": 1053,
      "Ġthough": 1054,
      "Ġyet": 1055,
      "ĠMy": 1056,
      "unt": 1057,
      "Ġshow": 1058,
      "que": 1059,
      "Ġmuch": 1060,
      "Ġcor": 1061,
      "Ġcour": 1062,
      "Ġname": 1063,
      "ĠIs": 1064,
      "Ġey": 1065,
      "Ġred": 1066,
      "pr": 1067,
      "ved": 1068,
      "Ġ5": 1069,
      "Ġsle": 1070,
      "aster": 1071,
      "ĠIf": 1072,
      "unk": 1073,
      "ular": 1074,
      "aff": 1075,
      "bs": 1076,
      "Ġput": 1077,
      "ult": 1078,
      "ants": 1079,
      "Ġsure": 1080,
      "Ġswe": 1081,
      "ered": 1082,
      "Ġmon": 1083,
      "Ġwhy": 1084,
      "ction": 1085,
      "Ġsec": 1086,
      "aut": 1087,
      "Ġes": 1088,
      "here": 1089,
      "Ġbed": 1090,
      "itch": 1091,
      "Ġpur": 1092,
      "enc": 1093,
      "let": 1094,
      "ross": 1095,
      "ĠOn": 1096,
      "Ġplay": 1097,
      "Ġgreat": 1098,
      "ĠWhen": 1099,
      "ky": 1100,
      "Ġbur": 1101,
      "Ġbig": 1102,
      "irt": 1103,
      "illy": 1104,
      "ĠCl": 1105,
      "'m": 1106,
      "gr": 1107,
      "ns": 1108,
      "Ġtre": 1109,
      "Ġdon": 1110,
      "Ġheart": 1111,
      "ines": 1112,
      "Ġpri": 1113,
      "Ġhel": 1114,
      "Ġgir": 1115,
      "ute": 1116,
      "amm": 1117,
      "right": 1118,
      "Ġbetween": 1119,
      "Ġimp": 1120,
      "gl": 1121,
      "Ġsil": 1122,
      "Ġmer": 1123,
      "ames": 1124,
      "ands": 1125,
      "Ġshould": 1126,
      "ĠLet": 1127,
      "ouch": 1128,
      "ĠSe": 1129,
      "Ġplace": 1130,
      "ible": 1131,
      "Ġsince": 1132,
      "Ġmiss": 1133,
      "Ġpost": 1134,
      "Ġla": 1135,
      "ĠThere": 1136,
      "Ġcont": 1137,
      "Ġmany": 1138,
      "uk": 1139,
      "Ġthese": 1140,
      "Ġsch": 1141,
      "irc": 1142,
      "Ġbell": 1143,
      "Ġass": 1144,
      "ape": 1145,
      "oor": 1146,
      "Ġsing": 1147,
      "Ġnat": 1148,
      "Ġget": 1149,
      "ations": 1150,
      "ual": 1151,
      "xt": 1152,
      "Ġap": 1153,
      "ister": 1154,
      "Ġmind": 1155,
      "Ġpers": 1156,
      "Ġdes": 1157,
      "opp": 1158,
      "ring": 1159,
      "sw": 1160,
      "Ġwater": 1161,
      "Ġbest": 1162,
      "Ġthing": 1163,
      "ads": 1164,
      "oose": 1165,
      "Ġmean": 1166,
      "Ġhaving": 1167,
      "ted": 1168,
      "Ġhouse": 1169,
      "Ġheav": 1170,
      "rop": 1171,
      "utter": 1172,
      "Ġonce": 1173,
      "add": 1174,
      "ĠLe": 1175,
      "icks": 1176,
      "Ġhair": 1177,
      "Ġet": 1178,
      "ism": 1179,
      "Ġpres": 1180,
      "Ġdel": 1181,
      "ĠTr": 1182,
      "ums": 1183,
      "ĠWell": 1184,
      "Ġchar": 1185,
      "Ġcons": 1186,
      "Ġhar": 1187,
      "ones": 1188,
      "Ġev": 1189,
      "ides": 1190,
      "oos": 1191,
      "awn": 1192,
      "aves": 1193,
      "Ġamong": 1194,
      "over": 1195,
      "zz": 1196,
      "ern": 1197,
      "ering": 1198,
      "Ġwent": 1199,
      "Ġma": 1200,
      "Ġmin": 1201,
      "Ġwhite": 1202,
      "ĠMar": 1203,
      "ĠHis": 1204,
      "Ġret": 1205,
      "ĠDe": 1206,
      "ips": 1207,
      "ody": 1208,
      "ches": 1209,
      "gs": 1210,
      "iet": 1211,
      "ze": 1212,
      "Ġthee": 1213,
      "Ġfin": 1214,
      "Ġmen": 1215,
      "ition": 1216,
      "Ġlay": 1217,
      "omb": 1218,
      "oney": 1219,
      "ange": 1220,
      "Ġbehind": 1221,
      "Ġhalf": 1222,
      "under": 1223,
      "Ġsur": 1224,
      "Ġbit": 1225,
      "Ġhum": 1226,
      "ald": 1227,
      "uth": 1228,
      "ĠFl": 1229,
      "Ġblack": 1230,
      "Ġnew": 1231,
      "wor": 1232,
      "elf": 1233,
      "Ġyoung": 1234,
      "unn": 1235,
      "alls": 1236,
      "ife": 1237,
      "ĠQu": 1238,
      "day": 1239,
      "Ġtur": 1240,
      "Ġfoll": 1241,
      "Ġdou": 1242,
      "Ġins": 1243,
      "imm": 1244,
      "ru": 1245,
      "Ġtimes": 1246,
      "Ġaway": 1247,
      "Ġob": 1248,
      "Ġhold": 1249,
      "enn": 1250,
      "Ġeye": 1251,
      "ĠWill": 1252,
      "ĠThey": 1253,
      ".'*": 1254,
      "ched": 1255,
      "Ġfire": 1256,
      "eng": 1257,
      "Ġthought": 1258,
      "imp": 1259,
      "amb": 1260,
      "Ġsol": 1261,
      "Ġtrue": 1262,
      "anks": 1263,
      "iest": 1264,
      "Ġwant": 1265,
      "Ġfam": 1266,
      "Ġmet": 1267,
      "Ġmil": 1268,
      "Ġcap": 1269,
      "ĠAl": 1270,
      "ady": 1271,
      "Ġste": 1272,
      "Ġking": 1273,
      "ives": 1274,
      "Ġaround": 1275,
      "onder": 1276,
      "yl": 1277,
      "Ġve": 1278,
      "Ġent": 1279,
      "Ġou": 1280,
      "Ġsign": 1281,
      "Ġfre": 1282,
      "Ġcle": 1283,
      "utt": 1284,
      "ĠAm": 1285,
      "ĠRe": 1286,
      "na": 1287,
      "oom": 1288,
      "tt": 1289,
      "head": 1290,
      "Ġgive": 1291,
      "Ġum": 1292,
      "Ġreg": 1293,
      "Ġeyes": 1294,
      "Ġsweet": 1295,
      "ric": 1296,
      "so": 1297,
      "Ġaw": 1298,
      "Ġair": 1299,
      "Ġson": 1300,
      "nds": 1301,
      "ams": 1302,
      "oop": 1303,
      "ĠHere": 1304,
      "ĠBy": 1305,
      "ilt": 1306,
      "ared": 1307,
      "Ġhands": 1308,
      "ked": 1309,
      "ures": 1310,
      "Ġod": 1311,
      "Ġfa": 1312,
      "lly": 1313,
      "ened": 1314,
      "alt": 1315,
      "ird": 1316,
      "umber": 1317,
      "uns": 1318,
      "Ġrep": 1319,
      "thing": 1320,
      "aught": 1321,
      "lin": 1322,
      "pan": 1323,
      "Ġter": 1324,
      "Ġpick": 1325,
      "Ġint": 1326,
      "urs": 1327,
      "ĠHo": 1328,
      "ries": 1329,
      "ĠGre": 1330,
      "ude": 1331,
      "ief": 1332,
      "bles": 1333,
      "Ġcomm": 1334,
      "io": 1335,
      "med": 1336,
      "uv": 1337,
      "yb": 1338,
      "Ġir": 1339,
      "Ġsom": 1340,
      "Ġbes": 1341,
      "ising": 1342,
      "Ġpor": 1343,
      "Ġcol": 1344,
      "Ġland": 1345,
      "Ġtom": 1346,
      "Ġgot": 1347,
      "elt": 1348,
      "Ġchild": 1349,
      "ĠNot": 1350,
      "Ġcoll": 1351,
      "ĠZ": 1352,
      "Ġbad": 1353,
      "rew": 1354,
      "Ġhat": 1355,
      "Ġmur": 1356,
      "aring": 1357,
      "Ġwithout": 1358,
      "Ġsub": 1359,
      "Ġkeep": 1360,
      ").": 1361,
      "aus": 1362,
      "upp": 1363,
      "Ġwoman": 1364,
      "Ġbuck": 1365,
      "Ġhome": 1366,
      "Ġfree": 1367,
      "Ġmor": 1368,
      "Ġmaking": 1369,
      "ited": 1370,
      "Ġpal": 1371,
      "arn": 1372,
      "Ġwhom": 1373,
      "vers": 1374,
      "Ġdev": 1375,
      "Ġconf": 1376,
      "Ġgrand": 1377,
      "ĠWhere": 1378,
      "fully": 1379,
      "ma": 1380,
      "Ġed": 1381,
      "Ġset": 1382,
      "Ġhor": 1383,
      "Ġhom": 1384,
      "Ġfun": 1385,
      "esh": 1386,
      "ĠAh": 1387,
      "rip": 1388,
      "ths": 1389,
      "ope": 1390,
      "yr": 1391,
      "Ġill": 1392,
      "Ġside": 1393,
      "Ġface": 1394,
      "Ġind": 1395,
      "ĠIr": 1396,
      "Ġrun": 1397,
      "ried": 1398,
      "Ġque": 1399,
      "Ġplease": 1400,
      "!!": 1401,
      "ges": 1402,
      "oke": 1403,
      "Ġact": 1404,
      "Ġwee": 1405,
      "Ġhapp": 1406,
      "Ġmis": 1407,
      "Ġpig": 1408,
      "Ġdark": 1409,
      "Ġinc": 1410,
      "Ġleft": 1411,
      "Ġused": 1412,
      "Ġgoing": 1413,
      "ield": 1414,
      "'ve": 1415,
      "Ġsor": 1416,
      "Ġmag": 1417,
      "Ġmouth": 1418,
      "Ġinter": 1419,
      "imb": 1420,
      "Ġeach": 1421,
      "Ġread": 1422,
      "Ġmeet": 1423,
      "ĠOne": 1424,
      "Ġant": 1425,
      "ights": 1426,
      "new": 1427,
      "ĠWhy": 1428,
      "selves": 1429,
      "co": 1430,
      "wards": 1431,
      "Ġwall": 1432,
      "Ġwild": 1433,
      "ished": 1434,
      "Ġfro": 1435,
      "Ġmo": 1436,
      "Ġmus": 1437,
      "Ġpol": 1438,
      "Ġdeep": 1439,
      "ics": 1440,
      "ĠAd": 1441,
      "rib": 1442,
      "abb": 1443,
      "Ġang": 1444,
      "Ġanother": 1445,
      "Ġkind": 1446,
      "ains": 1447,
      "Ġalong": 1448,
      "hing": 1449,
      "kn": 1450,
      "rist": 1451,
      "ying": 1452,
      "Ġtry": 1453,
      "ina": 1454,
      "Ġsa": 1455,
      "Ġbow": 1456,
      "Ġboth": 1457,
      "Ġmom": 1458,
      "ities": 1459,
      "Ġcirc": 1460,
      "Ġgent": 1461,
      "Ġund": 1462,
      "ĠHer": 1463,
      "une": 1464,
      "rig": 1465,
      "elly": 1466,
      "ags": 1467,
      "Ġsoon": 1468,
      "ĠNor": 1469,
      "ĠWho": 1470,
      "olly": 1471,
      "Ġcourse": 1472,
      "lo": 1473,
      "ux": 1474,
      "yd": 1475,
      "Ġ*": 1476,
      "Ġtro": 1477,
      "Ġhon": 1478,
      "Ġfur": 1479,
      "Ġfind": 1480,
      "Ġmorn": 1481,
      "Ġpen": 1482,
      "Ġlow": 1483,
      "Ġdone": 1484,
      "Ġthou": 1485,
      "Ġyears": 1486,
      "str": 1487,
      "uts": 1488,
      "ĠSp": 1489,
      "ĠFrom": 1490,
      "Ġvo": 1491,
      "==": 1492,
      "ient": 1493,
      "kin": 1494,
      "vel": 1495,
      "Ġ-": 1496,
      "Ġhur": 1497,
      "Ġhour": 1498,
      "ites": 1499,
      "Ġpat": 1500,
      "Ġlist": 1501,
      "Ġheard": 1502,
      "Ġnear": 1503,
      "Ġgiv": 1504,
      "ural": 1505,
      "ils": 1506,
      "iled": 1507,
      "aken": 1508,
      "Ġwhose": 1509,
      "Ġbecause": 1510,
      ",^": 1511,
      "ron": 1512,
      "Ġere": 1513,
      "ined": 1514,
      "Ġsays": 1515,
      "Ġwalk": 1516,
      "Ġhard": 1517,
      "Ġlar": 1518,
      "Ġdi": 1519,
      "Ġdiv": 1520,
      "ically": 1521,
      "ette": 1522,
      "Ġele": 1523,
      "ĠPl": 1524,
      "Ġann": 1525,
      "odd": 1526,
      "ired": 1527,
      "Ġadd": 1528,
      "Ġbetter": 1529,
      "Ġagainst": 1530,
      "Ġhelp": 1531,
      "ged": 1532,
      "use": 1533,
      "hen": 1534,
      "Ġah": 1535,
      "Ġpast": 1536,
      "Ġcre": 1537,
      "Ġcame": 1538,
      "ense": 1539,
      "Ġlost": 1540,
      "aces": 1541,
      "cks": 1542,
      "ift": 1543,
      "aws": 1544,
      "iew": 1545,
      "Ġscr": 1546,
      "ming": 1547,
      "Ġfrie": 1548,
      "Ġpet": 1549,
      "Ġdu": 1550,
      "Ġinn": 1551,
      "Ġgro": 1552,
      "Ġgone": 1553,
      "key": 1554,
      "aph": 1555,
      "ĠPe": 1556,
      "ĠOf": 1557,
      "Ġdoes": 1558,
      "Ġseen": 1559,
      "bling": 1560,
      "Ġpray": 1561,
      "Ġpoint": 1562,
      "Ġperson": 1563,
      "bro": 1564,
      "fer": 1565,
      "go": 1566,
      "vent": 1567,
      "Ġ!": 1568,
      "Ġing": 1569,
      "iness": 1570,
      "Ġwat": 1571,
      "Ġwon": 1572,
      "Ġble": 1573,
      "Ġbull": 1574,
      "reet": 1575,
      "Ġfine": 1576,
      "Ġmad": 1577,
      "Ġpot": 1578,
      "Ġpay": 1579,
      "Ġdays": 1580,
      "Ġgar": 1581,
      "stand": 1582,
      "Ġlie": 1583,
      "ably": 1584,
      "ores": 1585,
      "ific": 1586,
      "oots": 1587,
      "Ġsleep": 1588,
      "ew": 1589,
      "ger": 1590,
      "tw": 1591,
      "yp": 1592,
      "you": 1593,
      "Ġsqu": 1594,
      "isk": 1595,
      "Ġpull": 1596,
      "Ġtook": 1597,
      "ĠSaint": 1598,
      "ĠMan": 1599,
      "ills": 1600,
      "icker": 1601,
      "ember": 1602,
      "Ġexp": 1603,
      "ĠUn": 1604,
      "Ġgreen": 1605,
      "cr": 1606,
      "ced": 1607,
      "end": 1608,
      "ho": 1609,
      "most": 1610,
      "well": 1611,
      "Ġbott": 1612,
      "Ġpap": 1613,
      "Ġpair": 1614,
      "Ġcal": 1615,
      "Ġdro": 1616,
      "Ġdream": 1617,
      "Ġgener": 1618,
      "owing": 1619,
      "Ġforget": 1620,
      "Ġrel": 1621,
      "ĠDo": 1622,
      "ops": 1623,
      "ney": 1624,
      "bur": 1625,
      "boy": 1626,
      "cy": 1627,
      "com": 1628,
      "ned": 1629,
      "hem": 1630,
      "Ġsir": 1631,
      "Ġmed": 1632,
      "Ġmid": 1633,
      "orm": 1634,
      "Ġpure": 1635,
      "Ġlit": 1636,
      "ales": 1637,
      "illed": 1638,
      "iles": 1639,
      "ĠOur": 1640,
      "ĠDr": 1641,
      "Ġvol": 1642,
      "bar": 1643,
      "Ġ{": 1644,
      "Ġtem": 1645,
      "Ġay": 1646,
      "iny": 1647,
      "Ġopen": 1648,
      "Ġsix": 1649,
      "Ġbare": 1650,
      "read": 1651,
      "Ġmine": 1652,
      "ester": 1653,
      "Ġcro": 1654,
      "arch": 1655,
      "Ġlaugh": 1656,
      "Ġdur": 1657,
      "Ġinf": 1658,
      "eter": 1659,
      "ĠTw": 1660,
      "ĠCom": 1661,
      "oph": 1662,
      "aved": 1663,
      "Ġnext": 1664,
      "Ġpleas": 1665,
      "Ġhope": 1666,
      "ek": 1667,
      "ever": 1668,
      "ien": 1669,
      "ios": 1670,
      "ken": 1671,
      "Ġ|": 1672,
      "Ġsaw": 1673,
      "Ġsound": 1674,
      "isp": 1675,
      "Ġfle": 1676,
      "Ġfound": 1677,
      "Ġprom": 1678,
      "eds": 1679,
      "Ġgave": 1680,
      "irty": 1681,
      "ider": 1682,
      "ĠMay": 1683,
      "Ġrain": 1684,
      "outs": 1685,
      "!),": 1686,
      "Ġfew": 1687,
      "Ġfriend": 1688,
      "not": 1689,
      "Ġaff": 1690,
      "Ġow": 1691,
      "erry": 1692,
      "rel": 1693,
      "oup": 1694,
      "Ġfear": 1695,
      "Ġmark": 1696,
      "Ġcat": 1697,
      "Ġgh": 1698,
      "idge": 1699,
      "enty": 1700,
      "Ġmyself": 1701,
      "Ġsupp": 1702,
      "Ġleave": 1703,
      "Ġdead": 1704,
      "Ġquite": 1705,
      "Ġknows": 1706,
      "Ġholy": 1707,
      "Ġsecond": 1708,
      "oint": 1709,
      "tis": 1710,
      "ued": 1711,
      "ule": 1712,
      "Ġtail": 1713,
      "Ġtalk": 1714,
      "hel": 1715,
      "Ġsun": 1716,
      "Ġhund": 1717,
      "Ġmaid": 1718,
      "inger": 1719,
      "Ġpan": 1720,
      "Ġda": 1721,
      "Ġdist": 1722,
      "ĠAt": 1723,
      "Ġegg": 1724,
      "Ġones": 1725,
      "ĠMag": 1726,
      "ĠPr": 1727,
      "olog": 1728,
      "osh": 1729,
      "Ġatt": 1730,
      "ĠEx": 1731,
      "Ġblood": 1732,
      "Ġblue": 1733,
      "Ġleg": 1734,
      "Ġdec": 1735,
      "Ġroll": 1736,
      "Ġgold": 1737,
      "ocks": 1738,
      "iously": 1739,
      "ĠShaun": 1740,
      "ohn": 1741,
      "min": 1742,
      "por": 1743,
      "uit": 1744,
      "yg": 1745,
      "Ġid": 1746,
      "Ġocc": 1747,
      "Ġself": 1748,
      "Ġwish": 1749,
      "Ġwait": 1750,
      "rey": 1751,
      "ison": 1752,
      "Ġfo": 1753,
      "Ġfoot": 1754,
      "Ġposs": 1755,
      "ening": 1756,
      "Ġtold": 1757,
      "Ġgod": 1758,
      "ste": 1759,
      "Ġstand": 1760,
      "osed": 1761,
      "Ġchap": 1762,
      "aker": 1763,
      "Ġnothing": 1764,
      "aving": 1765,
      "Ġlead": 1766,
      "Ġsea": 1767,
      "ĠYour": 1768,
      "izz": 1769,
      "Ġpresent": 1770,
      "bed": 1771,
      "ior": 1772,
      "my": 1773,
      "ten": 1774,
      "where": 1775,
      "Ġtouch": 1776,
      "Ġol": 1777,
      "Ġsim": 1778,
      "Ġfact": 1779,
      "Ġmass": 1780,
      "ative": 1781,
      "Ġce": 1782,
      "Ġcast": 1783,
      "Ġlang": 1784,
      "Ġdem": 1785,
      "Ġtop": 1786,
      "ĠBar": 1787,
      "ables": 1788,
      "ĠFinn": 1789,
      "ĠThen": 1790,
      "Ġcold": 1791,
      "Ġexc": 1792,
      "ians": 1793,
      "Ġpeace": 1794,
      "Ġwords": 1795,
      "house": 1796,
      "pro": 1797,
      "uct": 1798,
      "Ġ6": 1799,
      "Ġtong": 1800,
      "Ġwood": 1801,
      "Ġwonder": 1802,
      "Ġbook": 1803,
      "Ġmist": 1804,
      "Ġpubl": 1805,
      "ara": 1806,
      "Ġhen": 1807,
      "Ġthy": 1808,
      "Ġnumber": 1809,
      "irs": 1810,
      "amed": 1811,
      "ĠSc": 1812,
      "ĠPh": 1813,
      "Ġmem": 1814,
      "ĠGl": 1815,
      "Ġquick": 1816,
      "Ġlov": 1817,
      "Ġcock": 1818,
      "Ġwrong": 1819,
      "Ġrespect": 1820,
      "TI": 1821,
      "aul": 1822,
      "how": 1823,
      "ner": 1824,
      "Ġage": 1825,
      "Ġom": 1826,
      "Ġwit": 1827,
      "Ġbir": 1828,
      "Ġbab": 1829,
      "Ġmatter": 1830,
      "Ġcry": 1831,
      "Ġcount": 1832,
      "arr": 1833,
      "ask": 1834,
      "Ġnice": 1835,
      "oms": 1836,
      "ĠSl": 1837,
      "ells": 1838,
      "ĠOld": 1839,
      "Ġvis": 1840,
      "inks": 1841,
      "Ġgoes": 1842,
      "iddle": 1843,
      "Ġmoment": 1844,
      "Ġmorning": 1845,
      "agh": 1846,
      "aud": 1847,
      "body": 1848,
      "ev": 1849,
      "gar": 1850,
      "hor": 1851,
      "ward": 1852,
      "yc": 1853,
      "Ġ\"": 1854,
      "Ġsem": 1855,
      "Ġbound": 1856,
      "Ġmakes": 1857,
      "ator": 1858,
      "ature": 1859,
      "Ġpop": 1860,
      "Ġcert": 1861,
      "Ġthings": 1862,
      "urch": 1863,
      "Ġeff": 1864,
      "ids": 1865,
      "Ġask": 1866,
      "Ġstop": 1867,
      "Ġstone": 1868,
      "Ġrest": 1869,
      "Ġsoft": 1870,
      "Ġorder": 1871,
      "Ġyourself": 1872,
      "ĠYet": 1873,
      "Ġproper": 1874,
      "tend": 1875,
      "fect": 1876,
      "ancy": 1877,
      "down": 1878,
      "ha": 1879,
      "ires": 1880,
      "ience": 1881,
      "lers": 1882,
      "lings": 1883,
      "Ġ0": 1884,
      "Ġten": 1885,
      "Ġtum": 1886,
      "Ġsoul": 1887,
      "Ġwid": 1888,
      "Ġham": 1889,
      "Ġpip": 1890,
      "Ġcare": 1891,
      "ony": 1892,
      "asy": 1893,
      "Ġinv": 1894,
      "Ġyear": 1895,
      "Ġbeaut": 1896,
      "ĠMiss": 1897,
      "usk": 1898,
      "ĠLike": 1899,
      "Ġknew": 1900,
      "Ġplain": 1901,
      "Ġseven": 1902,
      "Ġbring": 1903,
      "Ġext": 1904,
      "itting": 1905,
      "Ġprop": 1906,
      "Ġthemselves": 1907,
      "Ġstrong": 1908,
      "ĠMrs": 1909,
      "Ġhundred": 1910,
      ".,": 1911,
      "bo": 1912,
      "eal": 1913,
      "kins": 1914,
      "oes": 1915,
      "off": 1916,
      "uf": 1917,
      "ws": 1918,
      "Ġwa": 1919,
      "oured": 1920,
      "Ġhot": 1921,
      "ises": 1922,
      "owed": 1923,
      "elve": 1924,
      "Ġeither": 1925,
      "addy": 1926,
      "sey": 1927,
      "Ġra": 1928,
      "Ġref": 1929,
      "hers": 1930,
      "ander": 1931,
      "elle": 1932,
      "ĠPer": 1933,
      "Ġshort": 1934,
      "Ġkiss": 1935,
      "ĠGu": 1936,
      "acks": 1937,
      "ĠEr": 1938,
      "aven": 1939,
      "anger": 1940,
      "ively": 1941,
      "bled": 1942,
      "Ġtru": 1943,
      "Ġart": 1944,
      "Ġcomp": 1945,
      "ooth": 1946,
      "Ġenough": 1947,
      "Ġboys": 1948,
      "bb": 1949,
      "con": 1950,
      "ec": 1951,
      "nt": 1952,
      "ror": 1953,
      "Ġur": 1954,
      "Ġast": 1955,
      "Ġball": 1956,
      "Ġmoon": 1957,
      "Ġluck": 1958,
      "Ġdri": 1959,
      "Ġinde": 1960,
      "ims": 1961,
      "ĠSee": 1962,
      "Ġring": 1963,
      "ages": 1964,
      "ĠDan": 1965,
      "ement": 1966,
      "Ġspr": 1967,
      "aste": 1968,
      "Ġbless": 1969,
      "iece": 1970,
      "ogg": 1971,
      "aze": 1972,
      "Ġlooking": 1973,
      "Ġbelie": 1974,
      "Ġcalled": 1975,
      "Ġcontin": 1976,
      "swer": 1977,
      "Ġfamily": 1978,
      "back": 1979,
      "gu": 1980,
      "him": 1981,
      "kes": 1982,
      "rum": 1983,
      "vy": 1984,
      "Ġ/": 1985,
      "Ġsat": 1986,
      "rem": 1987,
      "Ġmess": 1988,
      "Ġmother": 1989,
      "orrow": 1990,
      "arl": 1991,
      "arry": 1992,
      "Ġly": 1993,
      "Ġgame": 1994,
      "alth": 1995,
      "Ġbey": 1996,
      "Ġrh": 1997,
      "Ġrub": 1998,
      "ĠWas": 1999,
      "Ġstri": 2000,
      "Ġvar": 2001,
      "Ġspl": 2002,
      "uddy": 2003,
      "Ġneed": 2004,
      "Ġconc": 2005,
      "Ġcoming": 2006,
      "ship": 2007,
      "ĠAnn": 2008,
      "Ġlady": 2009,
      "Ġfellow": 2010,
      "aver": 2011,
      "cess": 2012,
      "iar": 2013,
      "lt": 2014,
      "more": 2015,
      "sp": 2016,
      "Ġrom": 2017,
      "Ġest": 2018,
      "Ġav": 2019,
      "Ġsin": 2020,
      "Ġbus": 2021,
      "Ġbul": 2022,
      "Ġhol": 2023,
      "Ġfish": 2024,
      "Ġfather": 2025,
      "Ġmal": 2026,
      "Ġmill": 2027,
      "iter": 2028,
      "Ġcup": 2029,
      "Ġcorn": 2030,
      "Ġlim": 2031,
      "Ġtown": 2032,
      "Ġge": 2033,
      "stone": 2034,
      "ades": 2035,
      "tered": 2036,
      "ĠHump": 2037,
      "ille": 2038,
      "Ġstory": 2039,
      "unch": 2040,
      "alled": 2041,
      "apt": 2042,
      "ĠPro": 2043,
      "ulp": 2044,
      "ode": 2045,
      "Ġdep": 2046,
      "Ġdoor": 2047,
      "Ġroy": 2048,
      "ĠKing": 2049,
      "ments": 2050,
      "Ġbrother": 2051,
      "Ġgirl": 2052,
      "Ġheaven": 2053,
      "ĠIrish": 2054,
      "?)": 2055,
      "ael": 2056,
      "iam": 2057,
      "ject": 2058,
      "like": 2059,
      "uh": 2060,
      "with": 2061,
      "Ġtit": 2062,
      "Ġtree": 2063,
      "Ġop": 2064,
      "Ġwet": 2065,
      "org": 2066,
      "Ġpark": 2067,
      "Ġcut": 2068,
      "edd": 2069,
      "Ġlear": 2070,
      "Ġdom": 2071,
      "Ġnon": 2072,
      "ices": 2073,
      "ache": 2074,
      "ident": 2075,
      "very": 2076,
      "ĠMa": 2077,
      "illa": 2078,
      "unc": 2079,
      "ella": 2080,
      "Ġliv": 2081,
      "Ġlive": 2082,
      "Ġview": 2083,
      "ously": 2084,
      "Ġdoing": 2085,
      "Ġtwelve": 2086,
      "pping": 2087,
      "ured": 2088,
      "Ġunt": 2089,
      "ething": 2090,
      "Ġearth": 2091,
      "Ġremember": 2092,
      "ivers": 2093,
      "Ġwaters": 2094,
      "bel": 2095,
      "pet": 2096,
      "ses": 2097,
      "inal": 2098,
      "Ġways": 2099,
      "Ġfond": 2100,
      "Ġmel": 2101,
      "athe": 2102,
      "itz": 2103,
      "asc": 2104,
      "Ġhem": 2105,
      "Ġhell": 2106,
      "Ġnation": 2107,
      "Ġgard": 2108,
      "omen": 2109,
      "ĠTell": 2110,
      "Ġfort": 2111,
      "sem": 2112,
      "ume": 2113,
      "Ġstay": 2114,
      "Ġvir": 2115,
      "Ġjoy": 2116,
      "icking": 2117,
      "awl": 2118,
      "Ġtrou": 2119,
      "inking": 2120,
      "Ġquest": 2121,
      "Ġabove": 2122,
      "ĠWhile": 2123,
      "Ġunto": 2124,
      "Ġarr": 2125,
      "Ġgrace": 2126,
      "Ġcomes": 2127,
      "Ġsayd": 2128,
      "ĠUp": 2129,
      "what": 2130,
      "Ġspeak": 2131,
      "Ġreturn": 2132,
      "Ġought": 2133,
      "den": 2134,
      "ih": 2135,
      "tty": 2136,
      "wise": 2137,
      "Ġsy": 2138,
      "Ġbog": 2139,
      "Ġborn": 2140,
      "rest": 2141,
      "Ġfres": 2142,
      "Ġport": 2143,
      "Ġcoun": 2144,
      "Ġdam": 2145,
      "lem": 2146,
      "Ġthank": 2147,
      "Ġgall": 2148,
      "Ġgrow": 2149,
      "owl": 2150,
      "ether": 2151,
      "ĠTill": 2152,
      "iding": 2153,
      "tern": 2154,
      "Ġash": 2155,
      "ĠBur": 2156,
      "Ġstart": 2157,
      "ĠCo": 2158,
      "ĠPat": 2159,
      "Ġanc": 2160,
      "ĠDon": 2161,
      "icked": 2162,
      "ĠEn": 2163,
      "Ġknown": 2164,
      "ails": 2165,
      "Ġsaying": 2166,
      "Ġpriv": 2167,
      "Ġpublic": 2168,
      "ER": 2169,
      "fter": 2170,
      "joy": 2171,
      "och": 2172,
      "Ġty": 2173,
      "Ġtub": 2174,
      "Ġtaking": 2175,
      "erg": 2176,
      "Ġwake": 2177,
      "rees": 2178,
      "Ġhoo": 2179,
      "Ġhus": 2180,
      "Ġhun": 2181,
      "isc": 2182,
      "Ġfir": 2183,
      "Ġfol": 2184,
      "ese": 2185,
      "ork": 2186,
      "Ġcop": 2187,
      "Ġcase": 2188,
      "Ġless": 2189,
      "Ġlaw": 2190,
      "Ġlord": 2191,
      "Ġdie": 2192,
      "Ġdiff": 2193,
      "Ġthous": 2194,
      "Ġgen": 2195,
      "ĠAre": 2196,
      "Ġep": 2197,
      "Ġequ": 2198,
      "ĠTH": 2199,
      "aced": 2200,
      "ĠCan": 2201,
      "ĠCome": 2202,
      "aged": 2203,
      "Ġherself": 2204,
      "ĠDid": 2205,
      "ĠGod": 2206,
      "ickle": 2207,
      "Ġalt": 2208,
      "ĠYes": 2209,
      "ĠWhich": 2210,
      "Ġcond": 2211,
      "Ġexpl": 2212,
      "Ġprov": 2213,
      "Ġcomple": 2214,
      "Ġletter": 2215,
      "Ġadv": 2216,
      "oved": 2217,
      "Ġcertain": 2218,
      "dom": 2219,
      "ex": 2220,
      "een": 2221,
      "pot": 2222,
      "rick": 2223,
      "uld": 2224,
      "word": 2225,
      "Ġnd": 2226,
      "eries": 2227,
      "Ġhorn": 2228,
      "Ġfield": 2229,
      "Ġmut": 2230,
      "iting": 2231,
      "Ġcow": 2232,
      "Ġcoo": 2233,
      "Ġcross": 2234,
      "Ġlot": 2235,
      "Ġlamp": 2236,
      "Ġdaugh": 2237,
      "asp": 2238,
      "lect": 2239,
      "alm": 2240,
      "ĠIre": 2241,
      "Ġform": 2242,
      "Ġuse": 2243,
      "andy": 2244,
      "ĠCon": 2245,
      "ript": 2246,
      "Ġlif": 2247,
      "Ġsoc": 2248,
      "ĠFin": 2249,
      "Ġjo": 2250,
      "Ġsuck": 2251,
      "Ġdeath": 2252,
      "ibb": 2253,
      "Ġprof": 2254,
      "umps": 2255,
      "attle": 2256,
      "Ġgiven": 2257,
      "ON": 2258,
      "but": 2259,
      "bour": 2260,
      "hold": 2261,
      "iol": 2262,
      "oil": 2263,
      "ris": 2264,
      "side": 2265,
      "Ġsit": 2266,
      "Ġsag": 2267,
      "Ġsave": 2268,
      "Ġwatch": 2269,
      "Ġbag": 2270,
      "oug": 2271,
      "Ġhost": 2272,
      "Ġhang": 2273,
      "Ġmir": 2274,
      "Ġmot": 2275,
      "ingly": 2276,
      "Ġpin": 2277,
      "Ġpos": 2278,
      "Ġcam": 2279,
      "aling": 2280,
      "ĠTe": 2281,
      "used": 2282,
      "ention": 2283,
      "ĠPar": 2284,
      "Ġsod": 2285,
      "eech": 2286,
      "ĠEl": 2287,
      "Ġbutt": 2288,
      "oster": 2289,
      "Ġrock": 2290,
      "Ġarch": 2291,
      "ĠKn": 2292,
      "Ġprim": 2293,
      "arks": 2294,
      "airs": 2295,
      "inny": 2296,
      "inning": 2297,
      "form": 2298,
      "Ġbreath": 2299,
      "rief": 2300,
      "ublin": 2301,
      "ĠNever": 2302,
      "ĠOnly": 2303,
      "Ġclean": 2304,
      "Ġodd": 2305,
      "Ġgentle": 2306,
      "gin": 2307,
      "ging": 2308,
      "li": 2309,
      "sy": 2310,
      "wed": 2311,
      "zen": 2312,
      "Ġ\\": 2313,
      "Ġtim": 2314,
      "Ġtall": 2315,
      "Ġtaken": 2316,
      "Ġsac": 2317,
      "Ġsake": 2318,
      "Ġsort": 2319,
      "erv": 2320,
      "Ġwin": 2321,
      "Ġwoo": 2322,
      "Ġweep": 2323,
      "Ġfut": 2324,
      "Ġfem": 2325,
      "Ġpink": 2326,
      "Ġcity": 2327,
      "eness": 2328,
      "Ġdar": 2329,
      "ason": 2330,
      "leep": 2331,
      "eling": 2332,
      "oming": 2333,
      "ĠSm": 2334,
      "Ġwithin": 2335,
      "ĠHave": 2336,
      "Ġru": 2337,
      "Ġrever": 2338,
      "Ġlift": 2339,
      "thy": 2340,
      "Ġvan": 2341,
      "Ġchang": 2342,
      "Ġchange": 2343,
      "ĠGo": 2344,
      "ĠGood": 2345,
      "aks": 2346,
      "aked": 2347,
      "Ġrose": 2348,
      "ĠJohn": 2349,
      "Ġunc": 2350,
      "Ġnose": 2351,
      "Ġages": 2352,
      "Ġfeet": 2353,
      "ances": 2354,
      "Ġbroad": 2355,
      "gether": 2356,
      "ency": 2357,
      "ares": 2358,
      "fell": 2359,
      "gn": 2360,
      "uy": 2361,
      "Ġsong": 2362,
      "Ġbon": 2363,
      "Ġhung": 2364,
      "Ġfat": 2365,
      "Ġmod": 2366,
      "Ġoften": 2367,
      "itter": 2368,
      "ingd": 2369,
      "Ġpress": 2370,
      "arp": 2371,
      "eny": 2372,
      "Ġduck": 2373,
      "Ġdire": 2374,
      "Ġtot": 2375,
      "ased": 2376,
      "Ġinst": 2377,
      "lee": 2378,
      "roll": 2379,
      "Ġnames": 2380,
      "aly": 2381,
      "ĠAy": 2382,
      "Ġforty": 2383,
      "ament": 2384,
      "ĠMich": 2385,
      "Ġriver": 2386,
      "Ġstep": 2387,
      "Ġreally": 2388,
      "aper": 2389,
      "ĠLook": 2390,
      "ĠLord": 2391,
      "ained": 2392,
      "ipper": 2393,
      "Ġspir": 2394,
      "ists": 2395,
      "uds": 2396,
      "Ġblank": 2397,
      "Ġsever": 2398,
      "asses": 2399,
      "Ġalso": 2400,
      "ĠJust": 2401,
      "ibly": 2402,
      "^^^": 2403,
      "Ġplaying": 2404,
      "Ġvoice": 2405,
      "Ġgeneral": 2406,
      "Ġlangu": 2407,
      "Ġtongue": 2408,
      "Ġbelieve": 2409,
      "Ġbeyond": 2410,
      "Ġthousand": 2411,
      ".)": 2412,
      "aim": 2413,
      "bt": 2414,
      "bre": 2415,
      "fall": 2416,
      "iant": 2417,
      "mas": 2418,
      "Ġll": 2419,
      "Ġiv": 2420,
      "hee": 2421,
      "Ġsou": 2422,
      "Ġsight": 2423,
      "Ġwife": 2424,
      "Ġbrown": 2425,
      "Ġbright": 2426,
      "Ġhill": 2427,
      "Ġfive": 2428,
      "Ġpu": 2429,
      "Ġpun": 2430,
      "Ġcent": 2431,
      "anes": 2432,
      "anch": 2433,
      "ench": 2434,
      "enny": 2435,
      "Ġlate": 2436,
      "Ġdut": 2437,
      "Ġdust": 2438,
      "Ġdare": 2439,
      "Ġng": 2440,
      "stown": 2441,
      "eless": 2442,
      "ĠIm": 2443,
      "ution": 2444,
      "omp": 2445,
      "Ġears": 2446,
      "ĠTom": 2447,
      "ĠSome": 2448,
      "ĠMor": 2449,
      "ĠMon": 2450,
      "see": 2451,
      "illing": 2452,
      "ently": 2453,
      "Ġreal": 2454,
      "ĠCr": 2455,
      "elled": 2456,
      "Ġlip": 2457,
      "abl": 2458,
      "abit": 2459,
      "Ġyours": 2460,
      "Ġjack": 2461,
      "ipe": 2462,
      "ctor": 2463,
      "Ġours": 2464,
      "Ġblow": 2465,
      "Ġdog": 2466,
      "Ġcontr": 2467,
      "Ġeng": 2468,
      "Ġletters": 2469,
      "Ġprec": 2470,
      "ields": 2471,
      "Ġcarry": 2472,
      "chers": 2473,
      "Ġfeeling": 2474,
      "Ġnatural": 2475,
      "Ġhuman": 2476,
      "Ġduring": 2477,
      "Ġlovely": 2478,
      "00": 2479,
      "hr": 2480,
      "hand": 2481,
      "kers": 2482,
      "pers": 2483,
      "uke": 2484,
      "Ġtip": 2485,
      "Ġsum": 2486,
      "Ġsus": 2487,
      "Ġsumm": 2488,
      "eral": 2489,
      "Ġwise": 2490,
      "Ġbas": 2491,
      "Ġbrow": 2492,
      "Ġburn": 2493,
      "Ġhay": 2494,
      "Ġhind": 2495,
      "Ġfly": 2496,
      "lls": 2497,
      "Ġmat": 2498,
      "Ġmix": 2499,
      "Ġmount": 2500,
      "Ġcou": 2501,
      "Ġcool": 2502,
      "oned": 2503,
      "Ġdim": 2504,
      "Ġthick": 2505,
      "Ġnone": 2506,
      "Ġgay": 2507,
      "eld": 2508,
      "urt": 2509,
      "ote": 2510,
      "otch": 2511,
      "ĠTip": 2512,
      "ĠSch": 2513,
      "iddy": 2514,
      "ĠHar": 2515,
      "iling": 2516,
      "ĠCar": 2517,
      "elling": 2518,
      "uls": 2519,
      "ĠLa": 2520,
      "ĠLiv": 2521,
      "ĠFather": 2522,
      "Ġanswer": 2523,
      "Ġord": 2524,
      "ored": 2525,
      "oles": 2526,
      "Ġate": 2527,
      "ified": 2528,
      "igs": 2529,
      "Ġval": 2530,
      "Ġabs": 2531,
      "pped": 2532,
      "Ġbrought": 2533,
      "Ġgrass": 2534,
      "ugs": 2535,
      "Ġpeop": 2536,
      "Ġdraw": 2537,
      "Ġadm": 2538,
      "aunt": 2539,
      "Ġlooked": 2540,
      "Ġbuy": 2541,
      "iety": 2542,
      "imply": 2543,
      "Ġmilk": 2544,
      "Ġsomething": 2545,
      "====": 2546,
      "ND": 2547,
      "ae": 2548,
      "bing": 2549,
      "band": 2550,
      "fr": 2551,
      "ially": 2552,
      "light": 2553,
      "ugh": 2554,
      "wer": 2555,
      "was": 2556,
      "ints": 2557,
      "Ġsed": 2558,
      "Ġsow": 2559,
      "Ġsav": 2560,
      "Ġsigh": 2561,
      "Ġhall": 2562,
      "ata": 2563,
      "orse": 2564,
      "Ġpill": 2565,
      "Ġled": 2566,
      "Ġlap": 2567,
      "Ġlass": 2568,
      "Ġdry": 2569,
      "Ġtogether": 2570,
      "Ġhero": 2571,
      "Ġthrow": 2572,
      "Ġthanks": 2573,
      "Ġnay": 2574,
      "Ġyes": 2575,
      "icular": 2576,
      "owers": 2577,
      "ety": 2578,
      "Ġhist": 2579,
      "urr": 2580,
      "acy": 2581,
      "Ġbear": 2582,
      "Ġwhate": 2583,
      "ĠMad": 2584,
      "ĠHon": 2585,
      "ĠHigh": 2586,
      "ĠBig": 2587,
      "Ġlives": 2588,
      "Ġmeans": 2589,
      "Ġsold": 2590,
      "ĠFm": 2591,
      "ĠFr": 2592,
      "ods": 2593,
      "ĠEar": 2594,
      "oods": 2595,
      "Ġloc": 2596,
      "Ġground": 2597,
      "itten": 2598,
      "Ġprod": 2599,
      "Ġcommon": 2600,
      "ups": 2601,
      "inner": 2602,
      "ailing": 2603,
      "Ġunderstand": 2604,
      "Ġstra": 2605,
      "ggest": 2606,
      "ettes": 2607,
      "Ġdisc": 2608,
      "Ġturned": 2609,
      "Ġnature": 2610,
      "ĠWillingd": 2611,
      "ripes": 2612,
      "Ġhappy": 2613,
      "Ġcountry": 2614,
      "Ġroyal": 2615,
      "ĠIreland": 2616,
      "ĠWillingdone": 2617,
      "32": 2618,
      "bow": 2619,
      "box": 2620,
      "foot": 2621,
      "his": 2622,
      "po": 2623,
      "sch": 2624,
      "wr": 2625,
      "Ġtears": 2626,
      "Ġaye": 2627,
      "Ġsad": 2628,
      "erd": 2629,
      "reen": 2630,
      "Ġfil": 2631,
      "ital": 2632,
      "itty": 2633,
      "Ġcause": 2634,
      "Ġlic": 2635,
      "Ġline": 2636,
      "Ġlau": 2637,
      "Ġdumb": 2638,
      "ases": 2639,
      "Ġthus": 2640,
      "rog": 2641,
      "Ġforth": 2642,
      "aman": 2643,
      "ĠMount": 2644,
      "ĠHear": 2645,
      "ĠBro": 2646,
      "cept": 2647,
      "ĠFirst": 2648,
      "olo": 2649,
      "Ġwhether": 2650,
      "esses": 2651,
      "ĠNol": 2652,
      "empt": 2653,
      "udge": 2654,
      "Ġsuper": 2655,
      "Ġsuggest": 2656,
      "Ġtruth": 2657,
      "Ġamb": 2658,
      "place": 2659,
      "Ġperfect": 2660,
      "Ġwork": 2661,
      "Ġworth": 2662,
      "Ġpretty": 2663,
      "Ġanything": 2664,
      "ĠStreet": 2665,
      "who": 2666,
      "Ġothers": 2667,
      "ized": 2668,
      "ĠChrist": 2669,
      "ummy": 2670,
      "ĠShem": 2671,
      "ipping": 2672,
      "Ġimpro": 2673,
      "Ġschool": 2674,
      "Ġfaith": 2675,
      "Ġgarden": 2676,
      "Ġfresh": 2677,
      "ai": 2678,
      "aj": 2679,
      "dr": 2680,
      "hy": 2681,
      "hib": 2682,
      "haps": 2683,
      "iers": 2684,
      "pos": 2685,
      "ral": 2686,
      "sk": 2687,
      "she": 2688,
      "Ġtear": 2689,
      "het": 2690,
      "inous": 2691,
      "Ġwo": 2692,
      "Ġwis": 2693,
      "Ġwan": 2694,
      "Ġba": 2695,
      "Ġbill": 2696,
      "Ġband": 2697,
      "Ġhy": 2698,
      "Ġhours": 2699,
      "Ġhoney": 2700,
      "Ġmud": 2701,
      "Ġmere": 2702,
      "Ġmort": 2703,
      "itude": 2704,
      "Ġpee": 2705,
      "Ġpant": 2706,
      "Ġpuff": 2707,
      "any": 2708,
      "Ġtowards": 2709,
      "Ġthro": 2710,
      "Ġga": 2711,
      "ete": 2712,
      "urk": 2713,
      "ury": 2714,
      "ayed": 2715,
      "ĠSk": 2716,
      "Ġwhil": 2717,
      "Ġstre": 2718,
      "ility": 2719,
      "Ġrepe": 2720,
      "Ġliber": 2721,
      "ĠOl": 2722,
      "Ġsore": 2723,
      "Ġshad": 2724,
      "ĠLuc": 2725,
      "ĠDel": 2726,
      "Ġven": 2727,
      "ourn": 2728,
      "eman": 2729,
      "Ġsend": 2730,
      "Ġneck": 2731,
      "Ġtwenty": 2732,
      "arest": 2733,
      "Ġroad": 2734,
      "Ġlock": 2735,
      "ĠKev": 2736,
      "Ġknock": 2737,
      "Ġwouldn": 2738,
      "oking": 2739,
      "ĠAnna": 2740,
      "idden": 2741,
      "uddle": 2742,
      "Ġsecret": 2743,
      "Ġgetting": 2744,
      "Ġfollow": 2745,
      "ength": 2746,
      "ĠHoly": 2747,
      "Ġqueen": 2748,
      "load": 2749,
      "Ġhonour": 2750,
      "ĠTwo": 2751,
      "Ġeffect": 2752,
      "ĠTHE": 2753,
      "Ġwhatever": 2754,
      "-^": 2755,
      "UT": 2756,
      "ba": 2757,
      "bor": 2758,
      "do": 2759,
      "eg": 2760,
      "eh": 2761,
      "eks": 2762,
      "ham": 2763,
      "mar": 2764,
      "par": 2765,
      "pass": 2766,
      "time": 2767,
      "uous": 2768,
      "val": 2769,
      "wing": 2770,
      "Ġ?": 2771,
      "ĠX": 2772,
      "Ġtale": 2773,
      "Ġale": 2774,
      "ining": 2775,
      "Ġsel": 2776,
      "Ġsent": 2777,
      "Ġsense": 2778,
      "Ġwide": 2779,
      "Ġboot": 2780,
      "isy": 2781,
      "isters": 2782,
      "Ġfast": 2783,
      "Ġmes": 2784,
      "esc": 2785,
      "ately": 2786,
      "ora": 2787,
      "Ġcul": 2788,
      "Ġcrown": 2789,
      "Ġthirty": 2790,
      "room": 2791,
      "Ġnin": 2792,
      "Ġnine": 2793,
      "Ġgn": 2794,
      "ican": 2795,
      "alis": 2796,
      "ĠII": 2797,
      "iment": 2798,
      "urg": 2799,
      "Ġeh": 2800,
      "ĠTake": 2801,
      "ĠSure": 2802,
      "Ġwhis": 2803,
      "idence": 2804,
      "ument": 2805,
      "ĠHill": 2806,
      "ĠBre": 2807,
      "ĠBet": 2808,
      "Ġstar": 2809,
      "Ġstock": 2810,
      "ional": 2811,
      "ĠChe": 2812,
      "agon": 2813,
      "ague": 2814,
      "Ġliving": 2815,
      "Ġlips": 2816,
      "about": 2817,
      "Ġshirt": 2818,
      "ĠDublin": 2819,
      "Ġchrist": 2820,
      "Ġsuit": 2821,
      "Ġpled": 2822,
      "ĠRo": 2823,
      "Ġleaves": 2824,
      "Ġdoom": 2825,
      "Ġflash": 2826,
      "Ġarms": 2827,
      "Ġcover": 2828,
      "Ġprinc": 2829,
      "Ġswear": 2830,
      "ailed": 2831,
      "aching": 2832,
      "Ġenc": 2833,
      "apped": 2834,
      "anny": 2835,
      "Ġearly": 2836,
      "Ġbelow": 2837,
      "Ġserv": 2838,
      "igger": 2839,
      "Ġgirls": 2840,
      "ĠGreat": 2841,
      "Ġsorry": 2842,
      "Ġtrying": 2843,
      "Ġuntil": 2844,
      "EN": 2845,
      "IS": 2846,
      "bell": 2847,
      "come": 2848,
      "far": 2849,
      "fort": 2850,
      "gan": 2851,
      "iot": 2852,
      "iqu": 2853,
      "log": 2854,
      "may": 2855,
      "night": 2856,
      "ped": 2857,
      "rs": 2858,
      "uce": 2859,
      "ucc": 2860,
      "vol": 2861,
      "yer": 2862,
      "yed": 2863,
      "Ġut": 2864,
      "heart": 2865,
      "Ġobl": 2866,
      "Ġsens": 2867,
      "Ġwel": 2868,
      "Ġber": 2869,
      "Ġbal": 2870,
      "Ġboo": 2871,
      "Ġbody": 2872,
      "Ġhos": 2873,
      "Ġfig": 2874,
      "orr": 2875,
      "orum": 2876,
      "Ġpul": 2877,
      "Ġpict": 2878,
      "Ġcant": 2879,
      "Ġcrow": 2880,
      "Ġcaught": 2881,
      "Ġcaus": 2882,
      "edly": 2883,
      "Ġloo": 2884,
      "Ġlaid": 2885,
      "Ġloose": 2886,
      "Ġdee": 2887,
      "Ġdub": 2888,
      "Ġdress": 2889,
      "rod": 2890,
      "ĠAfter": 2891,
      "ached": 2892,
      "aches": 2893,
      "Ġul": 2894,
      "ĠMook": 2895,
      "ĠWall": 2896,
      "Ġstream": 2897,
      "ĠCol": 2898,
      "rier": 2899,
      "elles": 2900,
      "again": 2901,
      "ĠOut": 2902,
      "Ġship": 2903,
      "ĠFe": 2904,
      "Ġkick": 2905,
      "eek": 2906,
      "esty": 2907,
      "Ġjolly": 2908,
      "Ġchurch": 2909,
      "Ġspeech": 2910,
      "odge": 2911,
      "ĠEs": 2912,
      "ĠEvery": 2913,
      "blin": 2914,
      "Ġconst": 2915,
      "ĠJer": 2916,
      "Ġquar": 2917,
      "Ġquiet": 2918,
      "ooking": 2919,
      "Ġarm": 2920,
      "Ġclass": 2921,
      "Ġclose": 2922,
      "ibus": 2923,
      "Ġpock": 2924,
      "Ġfeed": 2925,
      "ollow": 2926,
      "Ġslow": 2927,
      "ĠAng": 2928,
      "Ġstruck": 2929,
      "Ġsmall": 2930,
      "ĠStr": 2931,
      "Ġtelling": 2932,
      "Ġlooks": 2933,
      "Ġelse": 2934,
      "Ġparts": 2935,
      "ettle": 2936,
      "Ġthinking": 2937,
      "rench": 2938,
      "ification": 2939,
      "Ġpaper": 2940,
      "Ġgolden": 2941,
      "bus": 2942,
      "cus": 2943,
      "face": 2944,
      "gor": 2945,
      "ij": 2946,
      "maid": 2947,
      "now": 2948,
      "ually": 2949,
      "va": 2950,
      "Ġide": 2951,
      "Ġtar": 2952,
      "Ġtil": 2953,
      "Ġath": 2954,
      "inct": 2955,
      "era": 2956,
      "Ġwest": 2957,
      "Ġwink": 2958,
      "Ġbold": 2959,
      "Ġbird": 2960,
      "Ġhu": 2961,
      "Ġhump": 2962,
      "Ġfal": 2963,
      "Ġfav": 2964,
      "Ġfart": 2965,
      "lla": 2966,
      "Ġpit": 2967,
      "Ġpower": 2968,
      "Ġcum": 2969,
      "Ġcatch": 2970,
      "aned": 2971,
      "enes": 2972,
      "Ġdump": 2973,
      "Ġdrop": 2974,
      "Ġink": 2975,
      "leg": 2976,
      "lets": 2977,
      "Ġgle": 2978,
      "Ġgun": 2979,
      "iced": 2980,
      "ality": 2981,
      "othes": 2982,
      "Ġeast": 2983,
      "ĠSal": 2984,
      "ĠSte": 2985,
      "umble": 2986,
      "ĠHa": 2987,
      "Ġrace": 2988,
      "Ġrather": 2989,
      "cho": 2990,
      "ching": 2991,
      "ĠBo": 2992,
      "ĠBel": 2993,
      "Ġsty": 2994,
      "Ġstick": 2995,
      "Ġstud": 2996,
      "Ġstreet": 2997,
      "unny": 2998,
      "Ġwash": 2999,
      "ĠConn": 3000,
      "rian": 3001,
      "ĠPor": 3002,
      "ĠPet": 3003,
      "cend": 3004,
      "ceed": 3005,
      "ules": 3006,
      "ĠDom": 3007,
      "iful": 3008,
      "oper": 3009,
      "Ġvill": 3010,
      "Ġju": 3011,
      "Ġspot": 3012,
      "away": 3013,
      "ĠEm": 3014,
      "ĠEng": 3015,
      "avy": 3016,
      "Ġleap": 3017,
      "Ġsex": 3018,
      "Ġtrust": 3019,
      "Ġtrans": 3020,
      "Ġflood": 3021,
      "Ġflesh": 3022,
      "Ġloves": 3023,
      "Ġloved": 3024,
      "!).": 3025,
      "pper": 3026,
      "ogr": 3027,
      "Ġcloud": 3028,
      "ucks": 3029,
      "ubber": 3030,
      "Ġcomb": 3031,
      "Ġcompan": 3032,
      "mans": 3033,
      "Ġseem": 3034,
      "obs": 3035,
      "ĠUl": 3036,
      "Ġdrink": 3037,
      "Ġcrack": 3038,
      "Ġsmile": 3039,
      "azz": 3040,
      "ials": 3041,
      "php": 3042,
      "ize": 3043,
      "Ġbreak": 3044,
      "Ġbelong": 3045,
      "Ġcurse": 3046,
      "Ġparty": 3047,
      "Ġsalt": 3048,
      "Ġbegin": 3049,
      "Ġacqu": 3050,
      "Ġhearts": 3051,
      "Ġturf": 3052,
      "Ġdouble": 3053,
      "Ġclear": 3054,
      "Ġhorse": 3055,
      "Ġgiving": 3056,
      "Ġrespectable": 3057,
      "Ġindeed": 3058,
      "Ġcorner": 3059,
      "Ġseveral": 3060,
      "FF": 3061,
      "bers": 3062,
      "bear": 3063,
      "can": 3064,
      "cap": 3065,
      "father": 3066,
      "har": 3067,
      "la": 3068,
      "len": 3069,
      "long": 3070,
      "mark": 3071,
      "oft": 3072,
      "pat": 3073,
      "rim": 3074,
      "rus": 3075,
      "sing": 3076,
      "ta": 3077,
      "tion": 3078,
      "Ġ7": 3079,
      "Ġign": 3080,
      "Ġting": 3081,
      "Ġtor": 3082,
      "Ġtable": 3083,
      "Ġox": 3084,
      "Ġsick": 3085,
      "Ġsister": 3086,
      "Ġwi": 3087,
      "Ġwro": 3088,
      "Ġbol": 3089,
      "Ġbos": 3090,
      "Ġbene": 3091,
      "oust": 3092,
      "isf": 3093,
      "Ġfer": 3094,
      "Ġfif": 3095,
      "Ġfoul": 3096,
      "Ġfelt": 3097,
      "atic": 3098,
      "atory": 3099,
      "ories": 3100,
      "Ġpa": 3101,
      "Ġpon": 3102,
      "Ġpack": 3103,
      "Ġpeep": 3104,
      "Ġcher": 3105,
      "Ġciv": 3106,
      "Ġcash": 3107,
      "Ġdet": 3108,
      "Ġdate": 3109,
      "Ġthor": 3110,
      "Ġna": 3111,
      "Ġnigh": 3112,
      "Ġnought": 3113,
      "eline": 3114,
      "urd": 3115,
      "irr": 3116,
      "irts": 3117,
      "Ġeas": 3118,
      "Ġeight": 3119,
      "aying": 3120,
      "ading": 3121,
      "aded": 3122,
      "acon": 3123,
      "ama": 3124,
      "ĠMal": 3125,
      "send": 3126,
      "ĠHim": 3127,
      "Ġasking": 3128,
      "rif": 3129,
      "ager": 3130,
      "Ġlived": 3131,
      "though": 3132,
      "Ġshame": 3133,
      "olic": 3134,
      "Ġvel": 3135,
      "Ġje": 3136,
      "Ġchamp": 3137,
      "Ġspace": 3138,
      "asts": 3139,
      "ĠEre": 3140,
      "Ġbutter": 3141,
      "Ġplant": 3142,
      "Ġdozen": 3143,
      "ishing": 3144,
      "Ġusual": 3145,
      "ubs": 3146,
      "Ġscar": 3147,
      "Ġpra": 3148,
      "Ġprice": 3149,
      "pend": 3150,
      "innies": 3151,
      "Ġcannot": 3152,
      "okes": 3153,
      "weet": 3154,
      "appy": 3155,
      "apping": 3156,
      "phy": 3157,
      "Ġimm": 3158,
      "Ġhole": 3159,
      "uffs": 3160,
      "ĠArr": 3161,
      "aggy": 3162,
      "Ġguard": 3163,
      "Ġmerry": 3164,
      "Ġheavy": 3165,
      "Ġmaj": 3166,
      "Ġdevil": 3167,
      "Ġweek": 3168,
      "Ġreading": 3169,
      "Ġlisten": 3170,
      "Ġbottle": 3171,
      "Ġancient": 3172,
      "Ġhusband": 3173,
      "Ġdiffer": 3174,
      "aft": 3175,
      "ban": 3176,
      "ces": 3177,
      "full": 3178,
      "gt": 3179,
      "hood": 3180,
      "iod": 3181,
      "iated": 3182,
      "jo": 3183,
      "ka": 3184,
      "oz": 3185,
      "post": 3186,
      "pty": 3187,
      "sed": 3188,
      "uer": 3189,
      "whe": 3190,
      "war": 3191,
      "wall": 3192,
      "wind": 3193,
      "wood": 3194,
      "Ġutter": 3195,
      "Ġtest": 3196,
      "Ġtight": 3197,
      "hest": 3198,
      "ination": 3199,
      "Ġoh": 3200,
      "Ġos": 3201,
      "Ġwand": 3202,
      "Ġwol": 3203,
      "Ġbaw": 3204,
      "Ġbug": 3205,
      "Ġhog": 3206,
      "Ġhide": 3207,
      "Ġhug": 3208,
      "Ġfing": 3209,
      "Ġfac": 3210,
      "Ġfain": 3211,
      "Ġmu": 3212,
      "Ġmand": 3213,
      "Ġmult": 3214,
      "oric": 3215,
      "Ġpf": 3216,
      "Ġpear": 3217,
      "Ġpage": 3218,
      "Ġpiece": 3219,
      "Ġcad": 3220,
      "Ġcand": 3221,
      "arm": 3222,
      "Ġlab": 3223,
      "Ġluc": 3224,
      "Ġdun": 3225,
      "Ġdod": 3226,
      "Ġtoll": 3227,
      "Ġtoot": 3228,
      "Ġthird": 3229,
      "rot": 3230,
      "Ġnav": 3231,
      "ala": 3232,
      "aled": 3233,
      "ura": 3234,
      "ĠAb": 3235,
      "Ġyouth": 3236,
      "irl": 3237,
      "othe": 3238,
      "ĠTA": 3239,
      "aming": 3240,
      "Ġbef": 3241,
      "Ġbeat": 3242,
      "ĠSuch": 3243,
      "ĠMer": 3244,
      "ĠMess": 3245,
      "ĠMark": 3246,
      "ĠMutt": 3247,
      "ĠHouse": 3248,
      "Ġram": 3249,
      "Ġraw": 3250,
      "Ġrise": 3251,
      "chin": 3252,
      "usion": 3253,
      "Ġitself": 3254,
      "Ġrepl": 3255,
      "ĠCast": 3256,
      "apper": 3257,
      "Ġhers": 3258,
      "ĠOh": 3259,
      "Ġsole": 3260,
      "Ġshop": 3261,
      "Ġshake": 3262,
      "Ġkne": 3263,
      "osing": 3264,
      "igan": 3265,
      "ighed": 3266,
      "Ġcho": 3267,
      "Ġchief": 3268,
      "ĠGripes": 3269,
      "icky": 3270,
      "Ġtheirs": 3271,
      "akers": 3272,
      "Ġsucc": 3273,
      "Ġplan": 3274,
      "ĠRem": 3275,
      "arts": 3276,
      "Ġdef": 3277,
      "Ġdeed": 3278,
      "ived": 3279,
      "Ġrow": 3280,
      "Ġroom": 3281,
      "ĠJaun": 3282,
      "Ġable": 3283,
      "Ġuns": 3284,
      "Ġclo": 3285,
      "Ġcloth": 3286,
      "Ġbrand": 3287,
      "ibs": 3288,
      "issim": 3289,
      "Ġgoat": 3290,
      "upon": 3291,
      "Ġseek": 3292,
      "Ġgrey": 3293,
      "Ġperhaps": 3294,
      "ools": 3295,
      "ĠStill": 3296,
      "azy": 3297,
      "Ġfront": 3298,
      "while": 3299,
      "white": 3300,
      "Ġ11": 3301,
      "Ġbread": 3302,
      "ierce": 3303,
      "Ġsnow": 3304,
      "Ġbecome": 3305,
      "Ġbecoming": 3306,
      "Ġwarm": 3307,
      "rent": 3308,
      "Ġspec": 3309,
      "ĠBlack": 3310,
      "Ġcourt": 3311,
      "Ġsilence": 3312,
      "Ġbeside": 3313,
      "Ġporter": 3314,
      "Ġcircum": 3315,
      "boys": 3316,
      "Ġwaiting": 3317,
      "stead": 3318,
      "download": 3319,
      "ĠHumph": 3320,
      "Ġtrouble": 3321,
      "Ġdaughter": 3322,
      "Ġsagd": 3323,
      "ĠKevin": 3324,
      "IN": 3325,
      "Tis": 3326,
      "bal": 3327,
      "gue": 3328,
      "hill": 3329,
      "lar": 3330,
      "mother": 3331,
      "oly": 3332,
      "ping": 3333,
      "rine": 3334,
      "ua": 3335,
      "yst": 3336,
      "Ġ&": 3337,
      "Ġil": 3338,
      "Ġers": 3339,
      "Ġta": 3340,
      "Ġtu": 3341,
      "Ġton": 3342,
      "Ġtay": 3343,
      "Ġtour": 3344,
      "Ġtick": 3345,
      "Ġaut": 3346,
      "Ġoil": 3347,
      "Ġsimply": 3348,
      "Ġbark": 3349,
      "Ġbank": 3350,
      "Ġbush": 3351,
      "Ġhi": 3352,
      "Ġhook": 3353,
      "Ġfi": 3354,
      "Ġfum": 3355,
      "Ġfill": 3356,
      "Ġfox": 3357,
      "Ġmaster": 3358,
      "atty": 3359,
      "orous": 3360,
      "Ġps": 3361,
      "Ġpour": 3362,
      "Ġpars": 3363,
      "Ġpatter": 3364,
      "Ġcong": 3365,
      "aries": 3366,
      "ana": 3367,
      "anz": 3368,
      "enly": 3369,
      "Ġlust": 3370,
      "Ġlump": 3371,
      "Ġlength": 3372,
      "Ġdrown": 3373,
      "Ġheld": 3374,
      "Ġthre": 3375,
      "road": 3376,
      "Ġnum": 3377,
      "etime": 3378,
      "elic": 3379,
      "uta": 3380,
      "utes": 3381,
      "Ġec": 3382,
      "Ġeat": 3383,
      "Ġeve": 3384,
      "ĠTar": 3385,
      "Ġforg": 3386,
      "acul": 3387,
      "amin": 3388,
      "amer": 3389,
      "ĠSw": 3390,
      "ĠSing": 3391,
      "Ġwhit": 3392,
      "ĠMatt": 3393,
      "ĠHom": 3394,
      "Ġran": 3395,
      "Ġrich": 3396,
      "ĠBUT": 3397,
      "Ġstat": 3398,
      "Ġstood": 3399,
      "ili": 3400,
      "alling": 3401,
      "Ġrequ": 3402,
      "abs": 3403,
      "Ġshoot": 3404,
      "ĠFing": 3405,
      "ĠDun": 3406,
      "ĠDear": 3407,
      "oses": 3408,
      "ifer": 3409,
      "aining": 3410,
      "ĠTheir": 3411,
      "Ġspring": 3412,
      "earch": 3413,
      "inder": 3414,
      "isted": 3415,
      "udg": 3416,
      "Ġsheep": 3417,
      "Ġalone": 3418,
      "bler": 3419,
      "ĠThou": 3420,
      "ogue": 3421,
      "Ġbride": 3422,
      "ucky": 3423,
      "Ġexpect": 3424,
      "Ġscene": 3425,
      "itted": 3426,
      "Ġcompl": 3427,
      "ahs": 3428,
      "Ġdidn": 3429,
      "oult": 3430,
      "ugger": 3431,
      "Ġpassing": 3432,
      "Ġfalls": 3433,
      "Ġaccom": 3434,
      "Ġaccord": 3435,
      "ĠNew": 3436,
      "ences": 3437,
      "Ġburst": 3438,
      "Ġdoubt": 3439,
      "immy": 3440,
      "Ġcapt": 3441,
      "Ġentire": 3442,
      "Ġtomorrow": 3443,
      "Ġmusic": 3444,
      "ĠAdam": 3445,
      "Ġsafe": 3446,
      "Ġlarge": 3447,
      "Ġeleven": 3448,
      "ology": 3449,
      "Ġoccas": 3450,
      "Ġprivate": 3451,
      "Ġfuture": 3452,
      "ĠMichael": 3453,
      "Ġpeople": 3454,
      "ĠMookse": 3455,
      "ĠTAFF": 3456,
      "ĠBUTT": 3457,
      "',": 3458,
      "'^": 3459,
      "ES": 3460,
      "bag": 3461,
      "cle": 3462,
      "cent": 3463,
      "lock": 3464,
      "mo": 3465,
      "no": 3466,
      "py": 3467,
      "rin": 3468,
      "ray": 3469,
      "rant": 3470,
      "ser": 3471,
      "some": 3472,
      "tle": 3473,
      "town": 3474,
      "uro": 3475,
      "uction": 3476,
      "ww": 3477,
      "yf": 3478,
      "Ġ8": 3479,
      "Ġess": 3480,
      "Ġtakes": 3481,
      "Ġax": 3482,
      "inter": 3483,
      "Ġore": 3484,
      "Ġopp": 3485,
      "Ġsen": 3486,
      "Ġsul": 3487,
      "Ġsang": 3488,
      "Ġsail": 3489,
      "Ġsons": 3490,
      "Ġwing": 3491,
      "Ġward": 3492,
      "Ġwine": 3493,
      "Ġbox": 3494,
      "Ġhath": 3495,
      "Ġfou": 3496,
      "Ġmeth": 3497,
      "Ġmoney": 3498,
      "Ġmiddle": 3499,
      "itor": 3500,
      "orge": 3501,
      "Ġcost": 3502,
      "Ġcree": 3503,
      "arse": 3504,
      "edy": 3505,
      "Ġlat": 3506,
      "Ġdirty": 3507,
      "Ġtoss": 3508,
      "Ġhed": 3509,
      "Ġhealth": 3510,
      "Ġthin": 3511,
      "rock": 3512,
      "Ġgross": 3513,
      "Ġyell": 3514,
      "ico": 3515,
      "ĠAtt": 3516,
      "ĠAND": 3517,
      "otty": 3518,
      "Ġbee": 3519,
      "Ġbegg": 3520,
      "ĠSom": 3521,
      "ĠMake": 3522,
      "ĠMoy": 3523,
      "umper": 3524,
      "ĠHel": 3525,
      "ĠHell": 3526,
      "Ġris": 3527,
      "Ġrum": 3528,
      "Ġriv": 3529,
      "Ġrush": 3530,
      "ĠWor": 3531,
      "Ġstout": 3532,
      "Ġstate": 3533,
      "usp": 3534,
      "ilar": 3535,
      "aped": 3536,
      "ersse": 3537,
      "ĠOF": 3538,
      "ulation": 3539,
      "Ġshr": 3540,
      "ĠDown": 3541,
      "opper": 3542,
      "Ġvict": 3543,
      "essed": 3544,
      "ickers": 3545,
      "Ġhaw": 3546,
      "ante": 3547,
      "Ġweight": 3548,
      "eme": 3549,
      "ctions": 3550,
      "oder": 3551,
      "ĠEven": 3552,
      "istle": 3553,
      "Ġblind": 3554,
      "Ġleaf": 3555,
      "Ġdeaf": 3556,
      "ounded": 3557,
      "Ġtwin": 3558,
      "Ġconne": 3559,
      "ĠJute": 3560,
      "Ġamid": 3561,
      "ooks": 3562,
      "iley": 3563,
      "Ġclou": 3564,
      "iber": 3565,
      "Ġgrac": 3566,
      "Ġgrave": 3567,
      "Ġpeer": 3568,
      "oother": 3569,
      "obe": 3570,
      "Ġenjoy": 3571,
      "ĠUnder": 3572,
      "ĠAny": 3573,
      "Ġsmell": 3574,
      "Ġglow": 3575,
      "Ġglad": 3576,
      "Ġglory": 3577,
      "Ġeverything": 3578,
      "gged": 3579,
      "anned": 3580,
      "action": 3581,
      "Ġtea": 3582,
      "Ġcheek": 3583,
      "Ġkey": 3584,
      "umbs": 3585,
      "Ġwrite": 3586,
      "iction": 3587,
      "Ġturning": 3588,
      "ĠGrand": 3589,
      "Ġacross": 3590,
      "Ġpurs": 3591,
      "Ġpriest": 3592,
      "addle": 3593,
      "Ġinside": 3594,
      "Ġpige": 3595,
      "Ġmagn": 3596,
      "Ġlistening": 3597,
      "Ġtruly": 3598,
      "Ġbusiness": 3599,
      "Ġquestion": 3600,
      "Ġfirm": 3601,
      "Ġdarling": 3602,
      "OM": 3603,
      "bu": 3604,
      "ding": 3605,
      "dress": 3606,
      "hal": 3607,
      "hoo": 3608,
      "hole": 3609,
      "lan": 3610,
      "lish": 3611,
      "mind": 3612,
      "master": 3613,
      "nis": 3614,
      "nes": 3615,
      "pond": 3616,
      "ties": 3617,
      "uU": 3618,
      "vin": 3619,
      "will": 3620,
      "Ġ;": 3621,
      "Ġ<": 3622,
      "Ġic": 3623,
      "Ġtin": 3624,
      "Ġorig": 3625,
      "Ġsell": 3626,
      "Ġsie": 3627,
      "Ġsitting": 3628,
      "nders": 3629,
      "Ġwore": 3630,
      "Ġware": 3631,
      "Ġwants": 3632,
      "Ġwaves": 3633,
      "Ġbou": 3634,
      "Ġbay": 3635,
      "Ġbod": 3636,
      "Ġbree": 3637,
      "Ġbub": 3638,
      "Ġbrief": 3639,
      "rec": 3640,
      "Ġhit": 3641,
      "Ġfee": 3642,
      "Ġfight": 3643,
      "Ġfancy": 3644,
      "Ġmas": 3645,
      "Ġmart": 3646,
      "Ġmagg": 3647,
      "itary": 3648,
      "Ġped": 3649,
      "Ġpard": 3650,
      "Ġpie": 3651,
      "Ġpale": 3652,
      "Ġpool": 3653,
      "Ġca": 3654,
      "Ġcas": 3655,
      "Ġcod": 3656,
      "Ġcust": 3657,
      "onk": 3658,
      "aning": 3659,
      "ena": 3660,
      "Ġles": 3661,
      "Ġlav": 3662,
      "Ġlater": 3663,
      "Ġlatter": 3664,
      "Ġloud": 3665,
      "Ġder": 3666,
      "Ġdor": 3667,
      "Ġtow": 3668,
      "Ġtooth": 3669,
      "asing": 3670,
      "Ġgang": 3671,
      "ica": 3672,
      "ication": 3673,
      "imus": 3674,
      "utch": 3675,
      "uring": 3676,
      "urse": 3677,
      "otter": 3678,
      "ĠTer": 3679,
      "ĠTim": 3680,
      "acle": 3681,
      "Ġbeau": 3682,
      "ĠSat": 3683,
      "vert": 3684,
      "ĠMary": 3685,
      "umed": 3686,
      "ĠHum": 3687,
      "Ġrare": 3688,
      "Ġrising": 3689,
      "ĠWalk": 3690,
      "Ġreason": 3691,
      "ĠCap": 3692,
      "ĠColl": 3693,
      "riv": 3694,
      "apes": 3695,
      "agan": 3696,
      "ĠPa": 3697,
      "ĠPoor": 3698,
      "Ġshy": 3699,
      "Ġshot": 3700,
      "ĠLy": 3701,
      "ĠFar": 3702,
      "ĠFair": 3703,
      "Ġvent": 3704,
      "Ġjew": 3705,
      "Ġchor": 3706,
      "Ġchance": 3707,
      "ession": 3708,
      "ĠGill": 3709,
      "ĠGive": 3710,
      "Ġhaven": 3711,
      "Ġwear": 3712,
      "emen": 3713,
      "iph": 3714,
      "asty": 3715,
      "Ġsup": 3716,
      "Ġplus": 3717,
      "Ġleast": 3718,
      "uster": 3719,
      "Ġdecl": 3720,
      "assed": 3721,
      "ĠThough": 3722,
      "ĠThree": 3723,
      "Ġrob": 3724,
      "Ġflat": 3725,
      "ĠWhite": 3726,
      "Ġunl": 3727,
      "ogether": 3728,
      "Ġbrid": 3729,
      "Ġbridge": 3730,
      "Ġcoat": 3731,
      "Ġproud": 3732,
      "Ġprob": 3733,
      "Ġpoll": 3734,
      "upt": 3735,
      "mann": 3736,
      "ensed": 3737,
      "teen": 3738,
      "orted": 3739,
      "ĠUs": 3740,
      "oker": 3741,
      "oken": 3742,
      "ixed": 3743,
      "igned": 3744,
      "after": 3745,
      "ggs": 3746,
      "anced": 3747,
      "ĠInn": 3748,
      "uced": 3749,
      "Ġteeth": 3750,
      "Ġcheeks": 3751,
      "ĠArth": 3752,
      "Ġmarch": 3753,
      "Ġparticular": 3754,
      "Ġwriting": 3755,
      "Ġsky": 3756,
      "Ġremind": 3757,
      "ainted": 3758,
      "Ġtrip": 3759,
      "Ġladies": 3760,
      "ippy": 3761,
      "ipped": 3762,
      "Ġfalling": 3763,
      "Ġaccount": 3764,
      "Ġbegan": 3765,
      "ĠGrace": 3766,
      "Ġhighly": 3767,
      "Ġmeaning": 3768,
      "Ġfollowing": 3769,
      "!!!!": 3770,
      "Ġinnoc": 3771,
      "two": 3772,
      "Ġmemory": 3773,
      "Ġbirds": 3774,
      "Ġbeauty": 3775,
      "Ġnational": 3776,
      "Ġduty": 3777,
      "Ġadmir": 3778,
      "Ġstraight": 3779,
      "):": 3780,
      "born": 3781,
      "cre": 3782,
      "col": 3783,
      "da": 3784,
      "ded": 3785,
      "ford": 3786,
      "gues": 3787,
      "hat": 3788,
      "ique": 3789,
      "kiss": 3790,
      "low": 3791,
      "lay": 3792,
      "mes": 3793,
      "made": 3794,
      "oat": 3795,
      "oen": 3796,
      "oed": 3797,
      "ogh": 3798,
      "oons": 3799,
      "rid": 3800,
      "top": 3801,
      "tem": 3802,
      "tree": 3803,
      "vious": 3804,
      "water": 3805,
      "Ġtun": 3806,
      "Ġtab": 3807,
      "Ġaur": 3808,
      "ino": 3809,
      "inary": 3810,
      "Ġsi": 3811,
      "Ġsink": 3812,
      "Ġsearch": 3813,
      "Ġwre": 3814,
      "Ġwave": 3815,
      "Ġwax": 3816,
      "Ġboots": 3817,
      "Ġbooth": 3818,
      "Ġhig": 3819,
      "Ġhue": 3820,
      "Ġhoy": 3821,
      "Ġhabit": 3822,
      "isation": 3823,
      "Ġfund": 3824,
      "Ġfool": 3825,
      "Ġmove": 3826,
      "itation": 3827,
      "Ġpain": 3828,
      "Ġpound": 3829,
      "Ġpens": 3830,
      "Ġpump": 3831,
      "Ġpuss": 3832,
      "Ġpitch": 3833,
      "Ġcel": 3834,
      "Ġcard": 3835,
      "Ġcub": 3836,
      "Ġcream": 3837,
      "arian": 3838,
      "Ġling": 3839,
      "Ġlack": 3840,
      "Ġlung": 3841,
      "Ġlying": 3842,
      "Ġden": 3843,
      "Ġdue": 3844,
      "Ġdirt": 3845,
      "ashed": 3846,
      "Ġheat": 3847,
      "legs": 3848,
      "Ġthunder": 3849,
      "rol": 3850,
      "Ġnic": 3851,
      "Ġnom": 3852,
      "Ġgoo": 3853,
      "icul": 3854,
      "etch": 3855,
      "sts": 3856,
      "ĠIN": 3857,
      "imate": 3858,
      "omy": 3859,
      "omes": 3860,
      "Ġeasy": 3861,
      "acc": 3862,
      "ĠSol": 3863,
      "ĠSund": 3864,
      "ĠSince": 3865,
      "ĠMin": 3866,
      "sec": 3867,
      "sell": 3868,
      "umn": 3869,
      "ummer": 3870,
      "vey": 3871,
      "ĠHor": 3872,
      "ĠHas": 3873,
      "ĠHost": 3874,
      "Ġrag": 3875,
      "Ġramp": 3876,
      "ĠBa": 3877,
      "ĠBrow": 3878,
      "kee": 3879,
      "keys": 3880,
      "ĠWould": 3881,
      "ĠWoman": 3882,
      "Ġiss": 3883,
      "alley": 3884,
      "Ġrece": 3885,
      "ĠCor": 3886,
      "ĠCal": 3887,
      "ĠCur": 3888,
      "Ġliqu": 3889,
      "ĠPost": 3890,
      "ĠPark": 3891,
      "Ġmeat": 3892,
      "Ġmead": 3893,
      "that": 3894,
      "Ġshape": 3895,
      "ĠLo": 3896,
      "ĠLong": 3897,
      "ĠLady": 3898,
      "osc": 3899,
      "Ġwheel": 3900,
      "Ġvit": 3901,
      "Ġviv": 3902,
      "Ġvice": 3903,
      "oused": 3904,
      "emp": 3905,
      "emon": 3906,
      "asting": 3907,
      "Ġnotice": 3908,
      "acking": 3909,
      "istr": 3910,
      "udder": 3911,
      "Ġblush": 3912,
      "Ġsuff": 3913,
      "arty": 3914,
      "Ġleaving": 3915,
      "Ġneg": 3916,
      "Ġneigh": 3917,
      "ĠThr": 3918,
      "Ġrot": 3919,
      "Ġflu": 3920,
      "Ġflow": 3921,
      "Ġflower": 3922,
      "Ġconcl": 3923,
      "Ġquad": 3924,
      "Ġunf": 3925,
      "Ġmann": 3926,
      "Ġmans": 3927,
      "Ġpride": 3928,
      "uph": 3929,
      "berry": 3930,
      "Ġ^^": 3931,
      "Ġseeing": 3932,
      "airy": 3933,
      "orns": 3934,
      "ĠVer": 3935,
      "oked": 3936,
      "Ġprep": 3937,
      "ixt": 3938,
      "ĠStop": 3939,
      "azing": 3940,
      "Ġimper": 3941,
      "otted": 3942,
      "Ġfrank": 3943,
      "Ġfruit": 3944,
      "Ġnights": 3945,
      "atsch": 3946,
      "Ġerr": 3947,
      "Ġbreast": 3948,
      "Ġmarried": 3949,
      "Ġbelt": 3950,
      "agger": 3951,
      "Ġhearing": 3952,
      "Ġbehold": 3953,
      "Ġtrib": 3954,
      "Ġboard": 3955,
      "ĠQue": 3956,
      "Ġbuild": 3957,
      "Ġslee": 3958,
      "ammy": 3959,
      "Ġsilk": 3960,
      "Ġsilver": 3961,
      "Ġsilent": 3962,
      "Ġbitter": 3963,
      "worth": 3964,
      "Ġmeeting": 3965,
      "coat": 3966,
      "known": 3967,
      "Ġhonest": 3968,
      "Ġforgetting": 3969,
      "Ġpleased": 3970,
      "Ġtalking": 3971,
      "Ġomn": 3972,
      "Ġblessed": 3973,
      "Ġsplit": 3974,
      "words": 3975,
      "ĠNolan": 3976,
      "Ġfarther": 3977,
      "Ġstyle": 3978,
      "Ġreplied": 3979,
      "..": 3980,
      "22": 3981,
      "IT": 3982,
      "RE": 3983,
      "aa": 3984,
      "burn": 3985,
      "ees": 3986,
      "fle": 3987,
      "fire": 3988,
      "gle": 3989,
      "lies": 3990,
      "mat": 3991,
      "mal": 3992,
      "miss": 3993,
      "oiled": 3994,
      "tic": 3995,
      "uation": 3996,
      "uary": 3997,
      "vis": 3998,
      "view": 3999,
      "ville": 4000,
      "wicker": 4001,
      "yne": 4002,
      "Ġ)": 4003,
      "Ġ9": 4004,
      "Ġ[": 4005,
      "Ġith": 4006,
      "ĸł": 4007,
      "Ġts": 4008,
      "Ġtan": 4009,
      "Ġtap": 4010,
      "hew": 4011,
      "Ġaro": 4012,
      "Ġaug": 4013,
      "Ġauld": 4014,
      "Ġot": 4015,
      "Ġov": 4016,
      "Ġsam": 4017,
      "Ġsau": 4018,
      "Ġsaz": 4019,
      "erman": 4020,
      "Ġwail": 4021,
      "Ġbat": 4022,
      "Ġbath": 4023,
      "Ġbob": 4024,
      "Ġbully": 4025,
      "Ġbomb": 4026,
      "rect": 4027,
      "Ġhills": 4028,
      "Ġfit": 4029,
      "Ġfan": 4030,
      "Ġfright": 4031,
      "Ġfields": 4032,
      "Ġmac": 4033,
      "Ġmos": 4034,
      "Ġmau": 4035,
      "Ġmuck": 4036,
      "Ġmale": 4037,
      "Ġmatch": 4038,
      "Ġmention": 4039,
      "orts": 4040,
      "Ġpad": 4041,
      "Ġpoo": 4042,
      "Ġpudd": 4043,
      "Ġcook": 4044,
      "ari": 4045,
      "anth": 4046,
      "Ġlam": 4047,
      "Ġlane": 4048,
      "Ġdamp": 4049,
      "Ġtod": 4050,
      "asure": 4051,
      "Ġincl": 4052,
      "Ġnod": 4053,
      "Ġgal": 4054,
      "Ġgets": 4055,
      "Ġgiant": 4056,
      "Ġyu": 4057,
      "etic": 4058,
      "sters": 4059,
      "eler": 4060,
      "ĠInd": 4061,
      "ĠAg": 4062,
      "ĠAp": 4063,
      "Ġyous": 4064,
      "Ġee": 4065,
      "Ġeg": 4066,
      "amber": 4067,
      "Ġbeast": 4068,
      "ĠSn": 4069,
      "ĠSir": 4070,
      "ĠSay": 4071,
      "ĠSam": 4072,
      "ĠMir": 4073,
      "ĠMind": 4074,
      "umes": 4075,
      "ĠHun": 4076,
      "ĠHold": 4077,
      "Ġrann": 4078,
      "ĠBu": 4079,
      "ĠBer": 4080,
      "ĠWere": 4081,
      "Ġstro": 4082,
      "Ġstuff": 4083,
      "Ġstiff": 4084,
      "uno": 4085,
      "unct": 4086,
      "unning": 4087,
      "Ġisland": 4088,
      "Ġren": 4089,
      "ando": 4090,
      "ĠCle": 4091,
      "ĠCorn": 4092,
      "agn": 4093,
      "Ġlik": 4094,
      "Ġlies": 4095,
      "Ġlikes": 4096,
      "ĠPip": 4097,
      "ĠPeter": 4098,
      "abr": 4099,
      "abox": 4100,
      "abouts": 4101,
      "cean": 4102,
      "Ġshock": 4103,
      "Ġshower": 4104,
      "ĠLim": 4105,
      "ĠList": 4106,
      "ĠFort": 4107,
      "Ġker": 4108,
      "Ġkill": 4109,
      "ify": 4110,
      "ested": 4111,
      "Ġvi": 4112,
      "Ġjur": 4113,
      "Ġjinnies": 4114,
      "ourd": 4115,
      "Ġchin": 4116,
      "Ġups": 4117,
      "Ġhail": 4118,
      "ighty": 4119,
      "Ġwend": 4120,
      "Ġweather": 4121,
      "emy": 4122,
      "ipeline": 4123,
      "Ġspin": 4124,
      "Ġspat": 4125,
      "Ġspit": 4126,
      "acked": 4127,
      "ĠEd": 4128,
      "uding": 4129,
      "Ġblame": 4130,
      "Ġplays": 4131,
      "ĠRos": 4132,
      "Ġdew": 4133,
      "Ġdoll": 4134,
      "isht": 4135,
      "Ġtrist": 4136,
      "ndered": 4137,
      "Ġrod": 4138,
      "Ġflag": 4139,
      "Ġloaf": 4140,
      "Ġlovel": 4141,
      "Ġars": 4142,
      "Ġclos": 4143,
      "Ġbran": 4144,
      "Ġbrace": 4145,
      "Ġprince": 4146,
      "Ġpros": 4147,
      "Ġswift": 4148,
      "Ġpoet": 4149,
      "ensive": 4150,
      "pey": 4151,
      "chen": 4152,
      "iance": 4153,
      "Ġpew": 4154,
      "ĠVan": 4155,
      "acht": 4156,
      "there": 4157,
      "Ġstraw": 4158,
      "Ġglass": 4159,
      "anna": 4160,
      "ottage": 4161,
      "Ġtells": 4162,
      "formed": 4163,
      "Ġearw": 4164,
      "Ġcheap": 4165,
      "attering": 4166,
      "Ġcurt": 4167,
      "Ġappe": 4168,
      "Ġcalling": 4169,
      "Ġhopes": 4170,
      "Ġwindow": 4171,
      "ĠMacC": 4172,
      "Ġbuzz": 4173,
      "Ġprize": 4174,
      "glass": 4175,
      "Ġbelly": 4176,
      "Ġsingle": 4177,
      "Ġapart": 4178,
      "Ġdesc": 4179,
      "Ġpresents": 4180,
      "uthor": 4181,
      "unner": 4182,
      "Ġwanted": 4183,
      "Ġmurm": 4184,
      "Ġangel": 4185,
      "ĠNorth": 4186,
      "Ġdiam": 4187,
      "Ġelect": 4188,
      "Ġexpress": 4189,
      "Ġtempt": 4190,
      "Ġghost": 4191,
      "ĠMagr": 4192,
      "Ġsimple": 4193,
      "TION": 4194,
      "Ġbeautiful": 4195,
      "ĠSeek": 4196,
      "Ġlearn": 4197,
      "Ġlanguage": 4198,
      "Ġfalse": 4199,
      "ograph": 4200,
      "ĠHumphrey": 4201,
      "Ġpattern": 4202,
      "ĠBrowne": 4203,
      "Chor": 4204,
      "bi": 4205,
      "bit": 4206,
      "bet": 4207,
      "ball": 4208,
      "bath": 4209,
      "ca": 4210,
      "cer": 4211,
      "fi": 4212,
      "free": 4213,
      "han": 4214,
      "iom": 4215,
      "iem": 4216,
      "kind": 4217,
      "las": 4218,
      "loo": 4219,
      "lie": 4220,
      "main": 4221,
      "name": 4222,
      "oid": 4223,
      "rr": 4224,
      "sl": 4225,
      "tin": 4226,
      "tom": 4227,
      "uz": 4228,
      "uly": 4229,
      "wd": 4230,
      "yre": 4231,
      "yes": 4232,
      "zed": 4233,
      "ĠÂ": 4234,
      "Ġtres": 4235,
      "Ġtuck": 4236,
      "Ġtaste": 4237,
      "Ġaver": 4238,
      "Ġaud": 4239,
      "Ġoak": 4240,
      "Ġsins": 4241,
      "Ġsamp": 4242,
      "Ġsym": 4243,
      "Ġsyn": 4244,
      "Ġsides": 4245,
      "Ġwed": 4246,
      "Ġwil": 4247,
      "Ġwoe": 4248,
      "Ġban": 4249,
      "Ġbri": 4250,
      "Ġbore": 4251,
      "Ġbone": 4252,
      "Ġbump": 4253,
      "Ġboss": 4254,
      "Ġbung": 4255,
      "Ġbilly": 4256,
      "Ġbones": 4257,
      "Ġborrow": 4258,
      "Ġhap": 4259,
      "Ġhast": 4260,
      "lling": 4261,
      "Ġmain": 4262,
      "Ġmob": 4263,
      "Ġmund": 4264,
      "Ġoft": 4265,
      "ita": 4266,
      "itions": 4267,
      "orne": 4268,
      "Ġpil": 4269,
      "Ġpity": 4270,
      "Ġpious": 4271,
      "Ġpett": 4272,
      "Ġcab": 4273,
      "Ġcoy": 4274,
      "ona": 4275,
      "oner": 4276,
      "Ġlu": 4277,
      "Ġlou": 4278,
      "Ġdre": 4279,
      "Ġdoo": 4280,
      "Ġdil": 4281,
      "Ġdood": 4282,
      "Ġtoday": 4283,
      "lease": 4284,
      "rook": 4285,
      "Ġnut": 4286,
      "Ġnick": 4287,
      "Ġgam": 4288,
      "Ġgap": 4289,
      "Ġgull": 4290,
      "Ġgives": 4291,
      "Ġyo": 4292,
      "etimes": 4293,
      "stit": 4294,
      "sted": 4295,
      "immer": 4296,
      "iments": 4297,
      "uter": 4298,
      "urst": 4299,
      "ĠApp": 4300,
      "irk": 4301,
      "irm": 4302,
      "Ġformer": 4303,
      "ader": 4304,
      "adies": 4305,
      "Ġbeam": 4306,
      "ided": 4307,
      "ĠMist": 4308,
      "ĠMah": 4309,
      "ĠMaster": 4310,
      "ĠMuta": 4311,
      "sequ": 4312,
      "tering": 4313,
      "Ġrs": 4314,
      "ĠBack": 4315,
      "ĠBoy": 4316,
      "ĠWel": 4317,
      "Ġstore": 4318,
      "Ġstage": 4319,
      "Ġstones": 4320,
      "unts": 4321,
      "iliar": 4322,
      "entions": 4323,
      "Ġalls": 4324,
      "allow": 4325,
      "ĠCock": 4326,
      "rius": 4327,
      "rible": 4328,
      "agues": 4329,
      "Ġliff": 4330,
      "ĠPut": 4331,
      "cking": 4332,
      "Ġmeant": 4333,
      "abe": 4334,
      "ula": 4335,
      "ulg": 4336,
      "Ġsham": 4337,
      "Ġshoe": 4338,
      "Ġkings": 4339,
      "ola": 4340,
      "ols": 4341,
      "ĠDar": 4342,
      "osp": 4343,
      "opes": 4344,
      "oping": 4345,
      "ainty": 4346,
      "Ġves": 4347,
      "Ġvic": 4348,
      "Ġvest": 4349,
      "Ġvia": 4350,
      "Ġviol": 4351,
      "Ġjam": 4352,
      "Ġchuck": 4353,
      "ĠNi": 4354,
      "aky": 4355,
      "ackle": 4356,
      "uded": 4357,
      "Ġbloss": 4358,
      "Ġplenty": 4359,
      "ĠRh": 4360,
      "usted": 4361,
      "Ġsees": 4362,
      "Ġneat": 4363,
      "anging": 4364,
      "anged": 4365,
      "iving": 4366,
      "ishop": 4367,
      "aren": 4368,
      "Ġros": 4369,
      "Ġflor": 4370,
      "Ġconv": 4371,
      "ĠJac": 4372,
      "ĠJoe": 4373,
      "ĠJuv": 4374,
      "Ġolder": 4375,
      "Ġlob": 4376,
      "Ġcler": 4377,
      "Ġclay": 4378,
      "Ġclothes": 4379,
      "ibern": 4380,
      "rows": 4381,
      "issy": 4382,
      "Ġhowever": 4383,
      "Ġexist": 4384,
      "Ġexper": 4385,
      "Ġprime": 4386,
      "Ġpract": 4387,
      "Ġprocess": 4388,
      "Ġknee": 4389,
      "Ġpole": 4390,
      "Ġseems": 4391,
      "inned": 4392,
      "iousness": 4393,
      "Ġslip": 4394,
      "onds": 4395,
      "ighs": 4396,
      "Ġworse": 4397,
      "alem": 4398,
      "apple": 4399,
      "unders": 4400,
      "amps": 4401,
      "Ġanyone": 4402,
      "Ġeverybody": 4403,
      "Ġbroke": 4404,
      "ĠBec": 4405,
      "ĠChar": 4406,
      "Ġmarry": 4407,
      "Ġappear": 4408,
      "Ġcalls": 4409,
      "Ġremem": 4410,
      "Ġends": 4411,
      "Ġbecame": 4412,
      "Ġboom": 4413,
      "Ġphil": 4414,
      "retch": 4415,
      "Ġspeaking": 4416,
      "Ġfairly": 4417,
      "Ġsinging": 4418,
      "Ġcharm": 4419,
      "Ġconsider": 4420,
      "Ġminute": 4421,
      "world": 4422,
      "Ġthoughts": 4423,
      "Ġawful": 4424,
      "Ġcolour": 4425,
      "Ġcollect": 4426,
      "Ġmurder": 4427,
      "Ġhomes": 4428,
      "Ġfurther": 4429,
      "Ġlarg": 4430,
      "Ġpetty": 4431,
      "venth": 4432,
      "twas": 4433,
      "bury": 4434,
      "Ġlaughing": 4435,
      "Ġaffect": 4436,
      "Ġeggs": 4437,
      "Ġstanding": 4438,
      "Ġtouching": 4439,
      "Ġbirth": 4440,
      "tended": 4441,
      "ĠErin": 4442,
      "Ġbrothers": 4443,
      "edding": 4444,
      "Ġsyst": 4445,
      "Ġcounter": 4446,
      "Ġdaughters": 4447,
      "Ġweeping": 4448,
      "Ġspirit": 4449,
      "Ġlipole": 4450,
      "Ġburning": 4451,
      "Ġcouple": 4452,
      "========": 4453,
      "Ġhistory": 4454,
      "Ġwhisper": 4455,
      "Ġcaused": 4456,
      "Ġwrote": 4457,
      "Ġcivil": 4458,
      "ĠArrah": 4459,
      "ĠHosty": 4460,
      "Ġsazd": 4461,
      "Chorus": 4462,
      "ĠJuva": 4463,
      ");": 4464,
      "48": 4465,
      "AL": 4466,
      "Ad": 4467,
      "Fs": 4468,
      "aur": 4469,
      "aum": 4470,
      "bul": 4471,
      "bott": 4472,
      "cing": 4473,
      "cel": 4474,
      "cup": 4475,
      "dle": 4476,
      "dam": 4477,
      "ders": 4478,
      "days": 4479,
      "fed": 4480,
      "fast": 4481,
      "gal": 4482,
      "hu": 4483,
      "hind": 4484,
      "iro": 4485,
      "ibles": 4486,
      "je": 4487,
      "law": 4488,
      "mel": 4489,
      "nest": 4490,
      "pir": 4491,
      "pire": 4492,
      "point": 4493,
      "ran": 4494,
      "tes": 4495,
      "uin": 4496,
      "uum": 4497,
      "uits": 4498,
      "van": 4499,
      "vil": 4500,
      "Ġens": 4501,
      "Ġtant": 4502,
      "Ġtart": 4503,
      "Ġtink": 4504,
      "Ġak": 4505,
      "Ġaid": 4506,
      "inst": 4507,
      "inent": 4508,
      "inity": 4509,
      "Ġost": 4510,
      "Ġori": 4511,
      "Ġoath": 4512,
      "Ġsan": 4513,
      "Ġsire": 4514,
      "Ġsaint": 4515,
      "Ġsuns": 4516,
      "Ġsaved": 4517,
      "Ġstern": 4518,
      "nding": 4519,
      "Ġwag": 4520,
      "Ġwig": 4521,
      "Ġwick": 4522,
      "Ġwip": 4523,
      "Ġwars": 4524,
      "Ġben": 4525,
      "Ġbum": 4526,
      "Ġballs": 4527,
      "Ġhous": 4528,
      "Ġhood": 4529,
      "Ġhate": 4530,
      "Ġhush": 4531,
      "ishe": 4532,
      "isch": 4533,
      "Ġfen": 4534,
      "Ġful": 4535,
      "Ġfood": 4536,
      "Ġfoe": 4537,
      "Ġmick": 4538,
      "Ġmould": 4539,
      "Ġmack": 4540,
      "Ġmock": 4541,
      "ators": 4542,
      "itat": 4543,
      "itud": 4544,
      "itive": 4545,
      "itable": 4546,
      "inge": 4547,
      "inging": 4548,
      "Ġpel": 4549,
      "Ġcit": 4550,
      "Ġcough": 4551,
      "Ġcaps": 4552,
      "Ġcabb": 4553,
      "arf": 4554,
      "arum": 4555,
      "ede": 4556,
      "eding": 4557,
      "Ġlin": 4558,
      "Ġlun": 4559,
      "Ġlick": 4560,
      "Ġlink": 4561,
      "Ġloss": 4562,
      "Ġlines": 4563,
      "Ġloos": 4564,
      "Ġlimb": 4565,
      "Ġdit": 4566,
      "Ġdab": 4567,
      "Ġdance": 4568,
      "Ġdusk": 4569,
      "Ġinch": 4570,
      "Ġhes": 4571,
      "Ġthine": 4572,
      "rob": 4573,
      "Ġnap": 4574,
      "Ġnurs": 4575,
      "Ġgoss": 4576,
      "Ġgrief": 4577,
      "Ġyer": 4578,
      "Ġyon": 4579,
      "icol": 4580,
      "icles": 4581,
      "aler": 4582,
      "eting": 4583,
      "sty": 4584,
      "stream": 4585,
      "utton": 4586,
      "ĠAmen": 4587,
      "ĠTam": 4588,
      "ĠTime": 4589,
      "ada": 4590,
      "ado": 4591,
      "acre": 4592,
      "acher": 4593,
      "ĠSu": 4594,
      "ĠSer": 4595,
      "ĠSil": 4596,
      "oof": 4597,
      "oosh": 4598,
      "ĠMel": 4599,
      "ĠMur": 4600,
      "ĠMil": 4601,
      "ĠMull": 4602,
      "ĠMons": 4603,
      "ĠMother": 4604,
      "umc": 4605,
      "umin": 4606,
      "ĠHot": 4607,
      "Ġrip": 4608,
      "Ġrout": 4609,
      "Ġrings": 4610,
      "change": 4611,
      "ĠBal": 4612,
      "ĠBell": 4613,
      "ĠBally": 4614,
      "Ġstars": 4615,
      "Ġstands": 4616,
      "unting": 4617,
      "Ġalle": 4618,
      "Ġwaste": 4619,
      "ĠCoo": 4620,
      "ria": 4621,
      "ĠOs": 4622,
      "tha": 4623,
      "Ġsho": 4624,
      "Ġshows": 4625,
      "ĠFa": 4626,
      "ĠFll": 4627,
      "ĠFind": 4628,
      "Ġanim": 4629,
      "Ġkid": 4630,
      "olf": 4631,
      "oli": 4632,
      "olit": 4633,
      "osy": 4634,
      "Ġattr": 4635,
      "iform": 4636,
      "oped": 4637,
      "Ġvon": 4638,
      "Ġvirt": 4639,
      "Ġjub": 4640,
      "Ġchair": 4641,
      "ĠGall": 4642,
      "Ġupright": 4643,
      "Ġâĸł": 4644,
      "anty": 4645,
      "Ġweak": 4646,
      "Ġwearing": 4647,
      "ements": 4648,
      "ipl": 4649,
      "Ġspark": 4650,
      "Ġspect": 4651,
      "asted": 4652,
      "istic": 4653,
      "Ġshee": 4654,
      "Ġshell": 4655,
      "Ġblows": 4656,
      "Ġsubl": 4657,
      "outher": 4658,
      "Ġlegs": 4659,
      "Ġseat": 4660,
      "Ġseas": 4661,
      "iney": 4662,
      "Ġneither": 4663,
      "angs": 4664,
      "angle": 4665,
      "angel": 4666,
      "isha": 4667,
      "ational": 4668,
      "black": 4669,
      "ĠThose": 4670,
      "ĠYe": 4671,
      "Ġflame": 4672,
      "Ġquot": 4673,
      "ogs": 4674,
      "Ġmanner": 4675,
      "Ġbron": 4676,
      "Ġafore": 4677,
      "Ġgrat": 4678,
      "Ġscand": 4679,
      "ĠKe": 4680,
      "Ġprove": 4681,
      "Ġpoison": 4682,
      "lesh": 4683,
      "thers": 4684,
      "ĠHead": 4685,
      "ounty": 4686,
      "Ġpeas": 4687,
      "onsc": 4688,
      "play": 4689,
      "Ġperm": 4690,
      "Ġgoods": 4691,
      "ĠAnswer": 4692,
      "Ġglor": 4693,
      "Ġprem": 4694,
      "ĠStand": 4695,
      "otten": 4696,
      "Ġcouldn": 4697,
      "eeps": 4698,
      "Ġ12": 4699,
      "Ġ13": 4700,
      "Ġ17": 4701,
      "Ġyea": 4702,
      "ĠBeg": 4703,
      "Ġkeen": 4704,
      "Ġkept": 4705,
      "Ġmarr": 4706,
      "oever": 4707,
      "Ġelm": 4708,
      "agged": 4709,
      "Ġ28": 4710,
      "Ġ29": 4711,
      "Ġwritten": 4712,
      "ĠAsk": 4713,
      "ussed": 4714,
      "etta": 4715,
      "raft": 4716,
      "Ġappro": 4717,
      "Ġremark": 4718,
      "Ġthinks": 4719,
      "Ġtried": 4720,
      "Ġfully": 4721,
      "Ġmighty": 4722,
      "script": 4723,
      "rett": 4724,
      "Ġfallen": 4725,
      "Ġrights": 4726,
      "Ġ32": 4727,
      "Ġ39": 4728,
      "Ġ49": 4729,
      "Ġshowed": 4730,
      "Ġ56": 4731,
      "Ġmonk": 4732,
      "enced": 4733,
      "Ġtrees": 4734,
      "Ġmissed": 4735,
      "opping": 4736,
      "Ġdeliver": 4737,
      "Ġevil": 4738,
      "Ġfinal": 4739,
      "Ġfinish": 4740,
      "work": 4741,
      "ĠQuick": 4742,
      "Ġholding": 4743,
      "headed": 4744,
      "ĠGreen": 4745,
      "Ġcommand": 4746,
      "Ġiron": 4747,
      "Ġtomb": 4748,
      "Ġchildren": 4749,
      "Ġsubject": 4750,
      "upper": 4751,
      "Ġqueer": 4752,
      "Ġdeeply": 4753,
      "Ġpenny": 4754,
      "Ġhurry": 4755,
      "Ġwalking": 4756,
      "Ġhardly": 4757,
      "Ġdivor": 4758,
      "Ġbleak": 4759,
      "Ġsounds": 4760,
      "ĠMagn": 4761,
      "Ġpossibly": 4762,
      "Ġwitness": 4763,
      "Ġpipe": 4764,
      "Ġlearned": 4765,
      "petabox": 4766,
      "Ġcamel": 4767,
      "Ġchanging": 4768,
      "Ġmountain": 4769,
      "ĠEarwicker": 4770,
      "Ġcompany": 4771,
      "Ġsuccess": 4772,
      "Ġentirely": 4773,
      "Ġoccasion": 4774,
      "Ġsystem": 4775,
      ".*": 4776,
      "AN": 4777,
      "IC": 4778,
      "LE": 4779,
      "RO": 4780,
      "US": 4781,
      "bly": 4782,
      "bol": 4783,
      "book": 4784,
      "cast": 4785,
      "fy": 4786,
      "four": 4787,
      "fts": 4788,
      "fru": 4789,
      "gy": 4790,
      "gen": 4791,
      "gent": 4792,
      "ghed": 4793,
      "hall": 4794,
      "lk": 4795,
      "lam": 4796,
      "lord": 4797,
      "mist": 4798,
      "pic": 4799,
      "part": 4800,
      "pull": 4801,
      "pose": 4802,
      "power": 4803,
      "ram": 4804,
      "tum": 4805,
      "test": 4806,
      "tte": 4807,
      "uis": 4808,
      "ught": 4809,
      "uish": 4810,
      "wen": 4811,
      "would": 4812,
      "ware": 4813,
      "when": 4814,
      "xes": 4815,
      "zer": 4816,
      "Ġq": 4817,
      "Ġie": 4818,
      "Ġtou": 4819,
      "Ġtet": 4820,
      "Ġtrow": 4821,
      "hell": 4822,
      "heen": 4823,
      "hered": 4824,
      "Ġack": 4825,
      "Ġape": 4826,
      "Ġawe": 4827,
      "Ġausp": 4828,
      "Ġole": 4829,
      "Ġsid": 4830,
      "Ġsly": 4831,
      "Ġsour": 4832,
      "Ġsack": 4833,
      "Ġsaf": 4834,
      "Ġsett": 4835,
      "ero": 4836,
      "nded": 4837,
      "Ġbil": 4838,
      "Ġbann": 4839,
      "Ġbunk": 4840,
      "oule": 4841,
      "Ġhab": 4842,
      "Ġhint": 4843,
      "Ġhors": 4844,
      "Ġfel": 4845,
      "Ġfri": 4846,
      "Ġfie": 4847,
      "Ġfare": 4848,
      "Ġfate": 4849,
      "Ġfog": 4850,
      "Ġfinger": 4851,
      "Ġmou": 4852,
      "Ġmic": 4853,
      "Ġmol": 4854,
      "Ġmour": 4855,
      "Ġmant": 4856,
      "Ġmound": 4857,
      "Ġmate": 4858,
      "Ġmoy": 4859,
      "Ġmach": 4860,
      "Ġmary": 4861,
      "Ġmush": 4862,
      "atus": 4863,
      "orp": 4864,
      "Ġpi": 4865,
      "Ġpas": 4866,
      "Ġpom": 4867,
      "Ġpuck": 4868,
      "Ġpush": 4869,
      "Ġcy": 4870,
      "Ġcous": 4871,
      "Ġcure": 4872,
      "Ġcamp": 4873,
      "Ġcries": 4874,
      "arg": 4875,
      "Ġlil": 4876,
      "Ġlod": 4877,
      "Ġlands": 4878,
      "Ġding": 4879,
      "Ġdul": 4880,
      "Ġdol": 4881,
      "Ġdig": 4882,
      "Ġdime": 4883,
      "Ġtoe": 4884,
      "Ġinstead": 4885,
      "Ġheed": 4886,
      "lend": 4887,
      "Ġnam": 4888,
      "Ġnos": 4889,
      "Ġnost": 4890,
      "Ġnumb": 4891,
      "Ġger": 4892,
      "Ġgri": 4893,
      "Ġgate": 4894,
      "Ġgree": 4895,
      "Ġgrown": 4896,
      "Ġgift": 4897,
      "iche": 4898,
      "icip": 4899,
      "icity": 4900,
      "alp": 4901,
      "iman": 4902,
      "uted": 4903,
      "omach": 4904,
      "otes": 4905,
      "Ġell": 4906,
      "ĠTu": 4907,
      "ĠToo": 4908,
      "ĠTol": 4909,
      "Ġfork": 4910,
      "Ġforce": 4911,
      "acing": 4912,
      "acles": 4913,
      "amen": 4914,
      "amus": 4915,
      "Ġbeer": 4916,
      "Ġbeard": 4917,
      "ĠSur": 4918,
      "ĠSqu": 4919,
      "ĠSant": 4920,
      "oore": 4921,
      "ĠMes": 4922,
      "ĠMat": 4923,
      "ĠMam": 4924,
      "ĠMister": 4925,
      "sea": 4926,
      "ĠHy": 4927,
      "ĠHam": 4928,
      "ĠHide": 4929,
      "Ġasked": 4930,
      "Ġasleep": 4931,
      "Ġrid": 4932,
      "Ġrap": 4933,
      "Ġrust": 4934,
      "Ġratt": 4935,
      "Ġrude": 4936,
      "illes": 4937,
      "cht": 4938,
      "ĠBall": 4939,
      "ĠBull": 4940,
      "ĠWild": 4941,
      "ĠWater": 4942,
      "Ġstir": 4943,
      "Ġstuck": 4944,
      "Ġstrip": 4945,
      "uses": 4946,
      "Ġisn": 4947,
      "ental": 4948,
      "Ġree": 4949,
      "Ġreve": 4950,
      "ĠCre": 4951,
      "ĠCall": 4952,
      "riage": 4953,
      "ribe": 4954,
      "erson": 4955,
      "ago": 4956,
      "agen": 4957,
      "abel": 4958,
      "ĠOst": 4959,
      "this": 4960,
      "thor": 4961,
      "Ġshine": 4962,
      "Ġshook": 4963,
      "ĠLittle": 4964,
      "ĠLane": 4965,
      "ĠLife": 4966,
      "ĠFore": 4967,
      "ĠFrench": 4968,
      "Ġkidd": 4969,
      "oren": 4970,
      "olk": 4971,
      "oled": 4972,
      "ĠDay": 4973,
      "ĠDiv": 4974,
      "ifF": 4975,
      "iffe": 4976,
      "eem": 4977,
      "ige": 4978,
      "Ġjun": 4979,
      "Ġjest": 4980,
      "ourse": 4981,
      "ourne": 4982,
      "ĠNight": 4983,
      "ĠNob": 4984,
      "ĠNov": 4985,
      "ĠGal": 4986,
      "ĠGet": 4987,
      "ĠGard": 4988,
      "Ġupper": 4989,
      "antic": 4990,
      "antly": 4991,
      "Ġweird": 4992,
      "Ġspell": 4993,
      "Ġsport": 4994,
      "Ġspoon": 4995,
      "oda": 4996,
      "eary": 4997,
      "ĠEst": 4998,
      "ĠEver": 4999,
      "ĠEve": 5000,
      "Ġourselves": 5001,
      "Ġsheets": 5002,
      "Ġbliss": 5003,
      "Ġplate": 5004,
      "Ġplump": 5005,
      "Ġplaces": 5006,
      "oodle": 5007,
      "ĠRog": 5008,
      "ĠRose": 5009,
      "Ġoutside": 5010,
      "Ġlean": 5011,
      "Ġdeal": 5012,
      "Ġdearest": 5013,
      "iven": 5014,
      "Ġtwent": 5015,
      "Ġtwink": 5016,
      "Ġtwice": 5017,
      "Ġalc": 5018,
      "blers": 5019,
      "arent": 5020,
      "ĠThus": 5021,
      "Ġroot": 5022,
      "Ġconj": 5023,
      "Ġabroad": 5024,
      "oys": 5025,
      "Ġunless": 5026,
      "Ġard": 5027,
      "Ġnobody": 5028,
      "Ġbrain": 5029,
      "Ġbrick": 5030,
      "ibble": 5031,
      "ube": 5032,
      "Ġscent": 5033,
      "Ġswar": 5034,
      "Ġswell": 5035,
      "Ġwhereas": 5036,
      "umpt": 5037,
      "Ġfeels": 5038,
      "inners": 5039,
      "ounce": 5040,
      "Ġpeb": 5041,
      "Ġslave": 5042,
      "Ġunderst": 5043,
      "fection": 5044,
      "pled": 5045,
      "they": 5046,
      "Ġletting": 5047,
      "Ġstrict": 5048,
      "Ġstranger": 5049,
      "bey": 5050,
      "Ġsmoke": 5051,
      "Ġglo": 5052,
      "Ġprefer": 5053,
      "igns": 5054,
      "clock": 5055,
      "ggy": 5056,
      "athers": 5057,
      "resses": 5058,
      "ancing": 5059,
      "Ġbroken": 5060,
      "Ġfourth": 5061,
      "ĠArt": 5062,
      "olet": 5063,
      "Ġparted": 5064,
      "Ġsniff": 5065,
      "Ġ25": 5066,
      "Ġ26": 5067,
      "Ġ27": 5068,
      "umming": 5069,
      "icted": 5070,
      "ippers": 5071,
      "Ġbarr": 5072,
      "scr": 5073,
      "Ġphr": 5074,
      "Ġphot": 5075,
      "Ġphoen": 5076,
      "uggy": 5077,
      "ugged": 5078,
      "Ġpassed": 5079,
      "Ġlights": 5080,
      "Ġlightning": 5081,
      "Ġfellows": 5082,
      "Ġcarried": 5083,
      "Ġ31": 5084,
      "Ġ36": 5085,
      "Ġshowing": 5086,
      "Ġmonth": 5087,
      "Ġmonths": 5088,
      "grace": 5089,
      "Ġtrem": 5090,
      "Ġimport": 5091,
      "Ġmerc": 5092,
      "Ġmercy": 5093,
      "ĠSec": 5094,
      "ukk": 5095,
      "oppy": 5096,
      "Ġhairy": 5097,
      "zzy": 5098,
      "ĠMarcus": 5099,
      "Ġsurpr": 5100,
      "Ġobject": 5101,
      "Ġsigns": 5102,
      "ooping": 5103,
      "Ġhandsome": 5104,
      "Ġpicked": 5105,
      "Ġcollar": 5106,
      "Ġsetting": 5107,
      "Ġtryst": 5108,
      "Ġdivine": 5109,
      "Ġdreams": 5110,
      "Ġvolts": 5111,
      "Ġsupper": 5112,
      "Ġoccur": 5113,
      "Ġgods": 5114,
      "Ġcastle": 5115,
      "Ġ60": 5116,
      "Ġsouls": 5117,
      "Ġwidow": 5118,
      "Ġbringing": 5119,
      "Ġextrem": 5120,
      "Ġrhy": 5121,
      "Ġbulk": 5122,
      "Ġvirgin": 5123,
      "Ġarrah": 5124,
      "Ġgrowing": 5125,
      "Ġaltogether": 5126,
      "Ġgentleman": 5127,
      "Ġreverend": 5128,
      "fellow": 5129,
      "Ġdirect": 5130,
      "Ġspirits": 5131,
      "ĠLivia": 5132,
      "Ġlocal": 5133,
      "Ġthroat": 5134,
      "Ġwhilst": 5135,
      "Ġshadow": 5136,
      "Ġpledge": 5137,
      "ĠRoad": 5138,
      "Ġservice": 5139,
      "Ġfigure": 5140,
      "Ġpocket": 5141,
      "Ġfavour": 5142,
      "Ġbosom": 5143,
      "Ġdifferent": 5144,
      "ĠCastle": 5145,
      "Ġchoice": 5146,
      "Ġaccording": 5147,
      "Ġclouds": 5148,
      "ĠLyons": 5149,
      "Ġprobably": 5150,
      "ĠBecause": 5151,
      "38": 5152,
      "41": 5153,
      "47": 5154,
      "49": 5155,
      ";^": 5156,
      "IG": 5157,
      "The": 5158,
      "UR": 5159,
      "bid": 5160,
      "buck": 5161,
      "bold": 5162,
      "bird": 5163,
      "car": 5164,
      "call": 5165,
      "cul": 5166,
      "des": 5167,
      "eed": 5168,
      "fish": 5169,
      "field": 5170,
      "gory": 5171,
      "hn": 5172,
      "hum": 5173,
      "hus": 5174,
      "home": 5175,
      "horn": 5176,
      "hands": 5177,
      "iac": 5178,
      "iast": 5179,
      "ients": 5180,
      "lim": 5181,
      "look": 5182,
      "lik": 5183,
      "mm": 5184,
      "mp": 5185,
      "met": 5186,
      "mac": 5187,
      "mouth": 5188,
      "nn": 5189,
      "pes": 5190,
      "pon": 5191,
      "ril": 5192,
      "round": 5193,
      "rish": 5194,
      "sf": 5195,
      "tim": 5196,
      "tail": 5197,
      "uing": 5198,
      "uant": 5199,
      "were": 5200,
      "woman": 5201,
      "xed": 5202,
      "zy": 5203,
      "zel": 5204,
      "Ġig": 5205,
      "Ġti": 5206,
      "Ġtut": 5207,
      "Ġtid": 5208,
      "Ġtaught": 5209,
      "Ġtales": 5210,
      "Ġauthor": 5211,
      "iner": 5212,
      "Ġog": 5213,
      "Ġsne": 5214,
      "Ġsought": 5215,
      "Ġsudd": 5216,
      "Ġsque": 5217,
      "erc": 5218,
      "erie": 5219,
      "Ġwont": 5220,
      "Ġwalls": 5221,
      "Ġwomen": 5222,
      "Ġwicked": 5223,
      "Ġbi": 5224,
      "Ġbis": 5225,
      "Ġbud": 5226,
      "Ġbout": 5227,
      "Ġbite": 5228,
      "Ġbally": 5229,
      "Ġbond": 5230,
      "Ġbred": 5231,
      "Ġbatter": 5232,
      "Ġbonn": 5233,
      "Ġbrig": 5234,
      "reg": 5235,
      "ready": 5236,
      "Ġhou": 5237,
      "Ġhunt": 5238,
      "Ġhollow": 5239,
      "iser": 5240,
      "Ġfu": 5241,
      "Ġfold": 5242,
      "lled": 5243,
      "Ġmul": 5244,
      "Ġmild": 5245,
      "iti": 5246,
      "ithe": 5247,
      "itic": 5248,
      "oring": 5249,
      "orth": 5250,
      "orty": 5251,
      "Ġpic": 5252,
      "Ġprow": 5253,
      "Ġpub": 5254,
      "Ġpup": 5255,
      "Ġpsy": 5256,
      "Ġcav": 5257,
      "Ġcog": 5258,
      "Ġcord": 5259,
      "ono": 5260,
      "onne": 5261,
      "anche": 5262,
      "eder": 5263,
      "Ġlac": 5264,
      "Ġlent": 5265,
      "Ġlest": 5266,
      "Ġliss": 5267,
      "Ġlitt": 5268,
      "Ġlug": 5269,
      "Ġlower": 5270,
      "Ġdin": 5271,
      "Ġdow": 5272,
      "Ġdip": 5273,
      "Ġdart": 5274,
      "Ġdawn": 5275,
      "Ġtog": 5276,
      "Ġtops": 5277,
      "asm": 5278,
      "Ġhears": 5279,
      "Ġheels": 5280,
      "leb": 5281,
      "ros": 5282,
      "Ġnar": 5283,
      "Ġnether": 5284,
      "Ġgig": 5285,
      "Ġgem": 5286,
      "Ġgoose": 5287,
      "Ġys": 5288,
      "Ġyur": 5289,
      "Ġyore": 5290,
      "icit": 5291,
      "icate": 5292,
      "iches": 5293,
      "alian": 5294,
      "etad": 5295,
      "etry": 5296,
      "stick": 5297,
      "staff": 5298,
      "Ġhiss": 5299,
      "uting": 5300,
      "ĠAw": 5301,
      "irds": 5302,
      "irls": 5303,
      "omn": 5304,
      "Ġemer": 5305,
      "ĠTre": 5306,
      "Ġfors": 5307,
      "Ġonto": 5308,
      "acts": 5309,
      "acity": 5310,
      "Ġwhiles": 5311,
      "idly": 5312,
      "verted": 5313,
      "ĠMill": 5314,
      "ĠMall": 5315,
      "ĠMike": 5316,
      "ĠHay": 5317,
      "ĠHall": 5318,
      "Ġaside": 5319,
      "Ġri": 5320,
      "Ġry": 5321,
      "Ġrud": 5322,
      "iller": 5323,
      "chy": 5324,
      "ĠBon": 5325,
      "Ġstable": 5326,
      "Ġstale": 5327,
      "enth": 5328,
      "ioned": 5329,
      "Ġrev": 5330,
      "Ġreach": 5331,
      "ĠCa": 5332,
      "ĠCat": 5333,
      "ĠCro": 5334,
      "ĠCad": 5335,
      "ĠCour": 5336,
      "ĠCase": 5337,
      "ĠCON": 5338,
      "riest": 5339,
      "rigg": 5340,
      "ellas": 5341,
      "agle": 5342,
      "Ġlily": 5343,
      "ĠPop": 5344,
      "ĠOver": 5345,
      "Ġsob": 5346,
      "Ġsoil": 5347,
      "Ġsooth": 5348,
      "uled": 5349,
      "Ġshout": 5350,
      "Ġshare": 5351,
      "Ġsharp": 5352,
      "ĠLu": 5353,
      "ĠLat": 5354,
      "ĠLib": 5355,
      "Ġansw": 5356,
      "olis": 5357,
      "ĠDes": 5358,
      "ĠDane": 5359,
      "Ġwheat": 5360,
      "quis": 5361,
      "quent": 5362,
      "ests": 5363,
      "iger": 5364,
      "Ġhims": 5365,
      "Ġvul": 5366,
      "Ġvain": 5367,
      "Ġjer": 5368,
      "Ġjim": 5369,
      "Ġjac": 5370,
      "Ġjig": 5371,
      "Ġjoint": 5372,
      "Ġchim": 5373,
      "Ġchur": 5374,
      "Ġchamb": 5375,
      "Ġchron": 5376,
      "Ġchamber": 5377,
      "ĠNu": 5378,
      "ĠGe": 5379,
      "anting": 5380,
      "ighted": 5381,
      "Ġweed": 5382,
      "ems": 5383,
      "cted": 5384,
      "Ġspare": 5385,
      "Ġspread": 5386,
      "awh": 5387,
      "odder": 5388,
      "ĠEll": 5389,
      "ĠEire": 5390,
      "Ġshed": 5391,
      "Ġblu": 5392,
      "Ġblink": 5393,
      "Ġblowing": 5394,
      "ĠRed": 5395,
      "ĠRoy": 5396,
      "Ġouts": 5397,
      "Ġouter": 5398,
      "resent": 5399,
      "Ġdeg": 5400,
      "ulls": 5401,
      "Ġnecess": 5402,
      "aub": 5403,
      "nees": 5404,
      "Ġtwos": 5405,
      "Ġalike": 5406,
      "Ġtrump": 5407,
      "ĠThink": 5408,
      "Ġroof": 5409,
      "ĠYs": 5410,
      "Ġflour": 5411,
      "ĠJe": 5412,
      "Ġqua": 5413,
      "Ġquant": 5414,
      "oyle": 5415,
      "ĠWhose": 5416,
      "ogen": 5417,
      "Ġark": 5418,
      "Ġclock": 5419,
      "Ġnov": 5420,
      "Ġnoon": 5421,
      "sely": 5422,
      "Ġcoast": 5423,
      "ords": 5424,
      "Ġexhib": 5425,
      "Ġexceed": 5426,
      "Ġscore": 5427,
      "ĠKill": 5428,
      "ĠKelly": 5429,
      "Ġprank": 5430,
      "Ġpoints": 5431,
      "pec": 5432,
      "umph": 5433,
      "umpty": 5434,
      "Ġago": 5435,
      "aham": 5436,
      "inness": 5437,
      "ounts": 5438,
      "ĠVery": 5439,
      "Ġmaybe": 5440,
      "then": 5441,
      "theless": 5442,
      "Ġperf": 5443,
      "Ġperch": 5444,
      "ĠShow": 5445,
      "ilder": 5446,
      "Ġsomewhere": 5447,
      "Ġanywhere": 5448,
      "Ġverb": 5449,
      "Ġeveryone": 5450,
      "fulness": 5451,
      "class": 5452,
      "azed": 5453,
      "iality": 5454,
      "alking": 5455,
      "Ġotherwise": 5456,
      "Ġ15": 5457,
      "Ġ19": 5458,
      "Ġbrook": 5459,
      "oco": 5460,
      "ocr": 5461,
      "forth": 5462,
      "brace": 5463,
      "Ġcheer": 5464,
      "Ġchest": 5465,
      "lands": 5466,
      "Ġmarsh": 5467,
      "^^^^": 5468,
      "Ġcurl": 5469,
      "aggin": 5470,
      "Ġappeal": 5471,
      "Ġremain": 5472,
      "Ġforeign": 5473,
      "iverse": 5474,
      "Ġwarning": 5475,
      "Ġboat": 5476,
      "onner": 5477,
      "Ġbegins": 5478,
      "Ġbeginning": 5479,
      "Ġ45": 5480,
      "Ġ46": 5481,
      "Ġserve": 5482,
      "Ġheads": 5483,
      "Ġfairy": 5484,
      "iums": 5485,
      "Ġcorrect": 5486,
      "Ġ50": 5487,
      "Ġsweat": 5488,
      "encies": 5489,
      "ĠOnce": 5490,
      "Ġburied": 5491,
      "Ġshoulder": 5492,
      "ĠSex": 5493,
      "Ġlaud": 5494,
      "Ġbells": 5495,
      "Ġnatur": 5496,
      "Ġnative": 5497,
      "opped": 5498,
      "Ġetc": 5499,
      "Ġetern": 5500,
      "Ġfinally": 5501,
      "Ġfamiliar": 5502,
      "Ġcapital": 5503,
      "Ġsteady": 5504,
      "Ġfreely": 5505,
      "ooming": 5506,
      "ttes": 5507,
      "Ġcolours": 5508,
      "ĠZin": 5509,
      "Ġkeeping": 5510,
      "Ġfuneral": 5511,
      "Ġrunning": 5512,
      "Ġhappened": 5513,
      "Ġmouths": 5514,
      "Ġinterest": 5515,
      "Ġmoist": 5516,
      "Ġbowl": 5517,
      "Ġtrot": 5518,
      "odding": 5519,
      "oddle": 5520,
      "Ġpersonal": 5521,
      "standing": 5522,
      "Ġsquare": 5523,
      "Ġpulled": 5524,
      "Ġrelief": 5525,
      "Ġbarely": 5526,
      "Ġdecent": 5527,
      "Ġlucky": 5528,
      "Ġstrike": 5529,
      "Ġvarious": 5530,
      "Ġconcern": 5531,
      "avern": 5532,
      "ĠMaj": 5533,
      "Ġhoof": 5534,
      "Ġaltar": 5535,
      "Ġsocial": 5536,
      "Ġjoin": 5537,
      "Ġwatching": 5538,
      "ĠKnock": 5539,
      "Ġgentlemen": 5540,
      "Ġsacred": 5541,
      "ĠJohnny": 5542,
      "Ġprecious": 5543,
      "Ġorders": 5544,
      "Ġstreng": 5545,
      "ĠLucan": 5546,
      "borough": 5547,
      "Ġprincip": 5548,
      "maids": 5549,
      "Ġignor": 5550,
      "Ġthorough": 5551,
      "Ġeasily": 5552,
      "ĠMessrs": 5553,
      "Ġpigeon": 5554,
      "Ġ</": 5555,
      "etadata": 5556,
      "Mr": 5557,
      "Metadata": 5558,
      "OR": 5559,
      "TER": 5560,
      "^'": 5561,
      "ault": 5562,
      "avers": 5563,
      "bad": 5564,
      "best": 5565,
      "bound": 5566,
      "cal": 5567,
      "cut": 5568,
      "cur": 5569,
      "cell": 5570,
      "case": 5571,
      "cache": 5572,
      "ege": 5573,
      "fa": 5574,
      "fs": 5575,
      "fest": 5576,
      "fold": 5577,
      "faced": 5578,
      "gut": 5579,
      "gain": 5580,
      "gans": 5581,
      "hom": 5582,
      "hore": 5583,
      "iab": 5584,
      "iour": 5585,
      "iose": 5586,
      "lor": 5587,
      "lier": 5588,
      "love": 5589,
      "mor": 5590,
      "mid": 5591,
      "mun": 5592,
      "mers": 5593,
      "mount": 5594,
      "maker": 5595,
      "nat": 5596,
      "nor": 5597,
      "nal": 5598,
      "noon": 5599,
      "occ": 5600,
      "pin": 5601,
      "pre": 5602,
      "pit": 5603,
      "pock": 5604,
      "pair": 5605,
      "press": 5606,
      "rac": 5607,
      "raw": 5608,
      "rup": 5609,
      "rors": 5610,
      "rums": 5611,
      "ridge": 5612,
      "skin": 5613,
      "turn": 5614,
      "tale": 5615,
      "tics": 5616,
      "wo": 5617,
      "wee": 5618,
      "xy": 5619,
      "yh": 5620,
      "za": 5621,
      "zin": 5622,
      "Ġx": 5623,
      "Ġire": 5624,
      "Ġtide": 5625,
      "Ġtorn": 5626,
      "Ġtickle": 5627,
      "Ġain": 5628,
      "Ġaim": 5629,
      "Ġald": 5630,
      "Ġach": 5631,
      "Ġaqu": 5632,
      "inb": 5633,
      "inth": 5634,
      "Ġoper": 5635,
      "Ġope": 5636,
      "Ġobs": 5637,
      "Ġsot": 5638,
      "Ġsher": 5639,
      "Ġsab": 5640,
      "Ġsite": 5641,
      "Ġsans": 5642,
      "Ġsung": 5643,
      "Ġsyl": 5644,
      "Ġsoup": 5645,
      "Ġsaving": 5646,
      "Ġsisters": 5647,
      "ndt": 5648,
      "Ġwer": 5649,
      "Ġwander": 5650,
      "Ġwedding": 5651,
      "Ġbind": 5652,
      "Ġbail": 5653,
      "Ġbother": 5654,
      "Ġbait": 5655,
      "oum": 5656,
      "Ġhin": 5657,
      "Ġhob": 5658,
      "Ġhats": 5659,
      "Ġhumb": 5660,
      "Ġhyp": 5661,
      "isers": 5662,
      "Ġff": 5663,
      "Ġfed": 5664,
      "Ġfid": 5665,
      "Ġfinn": 5666,
      "Ġfail": 5667,
      "Ġmoo": 5668,
      "Ġmang": 5669,
      "Ġmare": 5670,
      "Ġmug": 5671,
      "Ġmidd": 5672,
      "Ġmasc": 5673,
      "aters": 5674,
      "aties": 5675,
      "athed": 5676,
      "atively": 5677,
      "iture": 5678,
      "ington": 5679,
      "orb": 5680,
      "Ġpt": 5681,
      "Ġpou": 5682,
      "Ġpell": 5683,
      "Ġpaw": 5684,
      "Ġpace": 5685,
      "Ġpian": 5686,
      "Ġpath": 5687,
      "Ġpike": 5688,
      "Ġpont": 5689,
      "Ġpatch": 5690,
      "Ġpause": 5691,
      "Ġpaddy": 5692,
      "Ġpulp": 5693,
      "Ġpomp": 5694,
      "Ġpierce": 5695,
      "Ġcell": 5696,
      "Ġcaw": 5697,
      "Ġcath": 5698,
      "Ġcred": 5699,
      "around": 5700,
      "arily": 5701,
      "aner": 5702,
      "ania": 5703,
      "enst": 5704,
      "eday": 5705,
      "Ġld": 5706,
      "Ġlee": 5707,
      "Ġlub": 5708,
      "Ġlisp": 5709,
      "Ġlazy": 5710,
      "Ġdud": 5711,
      "Ġdull": 5712,
      "Ġdough": 5713,
      "Ġduff": 5714,
      "Ġdyn": 5715,
      "Ġdwell": 5716,
      "Ġdread": 5717,
      "Ġtob": 5718,
      "Ġtopp": 5719,
      "asher": 5720,
      "asons": 5721,
      "ashes": 5722,
      "Ġinfl": 5723,
      "Ġinform": 5724,
      "Ġhee": 5725,
      "Ġhey": 5726,
      "leys": 5727,
      "leaved": 5728,
      "Ġthumb": 5729,
      "Ġthrew": 5730,
      "Ġner": 5731,
      "Ġnull": 5732,
      "Ġnaught": 5733,
      "Ġnamed": 5734,
      "Ġgon": 5735,
      "Ġgape": 5736,
      "Ġgulp": 5737,
      "Ġgorge": 5738,
      "Ġyard": 5739,
      "Ġyester": 5740,
      "icy": 5741,
      "alf": 5742,
      "alittle": 5743,
      "ima": 5744,
      "utty": 5745,
      "uries": 5746,
      "urts": 5747,
      "ĠAcc": 5748,
      "ĠAss": 5749,
      "iry": 5750,
      "iring": 5751,
      "irth": 5752,
      "irish": 5753,
      "oter": 5754,
      "Ġease": 5755,
      "ĠTur": 5756,
      "ayn": 5757,
      "aden": 5758,
      "amel": 5759,
      "Ġbees": 5760,
      "ĠSa": 5761,
      "ĠSor": 5762,
      "ĠSen": 5763,
      "ĠSem": 5764,
      "ĠSweet": 5765,
      "Ġune": 5766,
      "Ġult": 5767,
      "Ġwhither": 5768,
      "oob": 5769,
      "ĠMo": 5770,
      "ĠMic": 5771,
      "ĠMum": 5772,
      "ĠMore": 5773,
      "ĠMass": 5774,
      "sex": 5775,
      "sends": 5776,
      "umbling": 5777,
      "terP": 5778,
      "ĠHand": 5779,
      "ĠHol": 5780,
      "ĠHop": 5781,
      "ĠHung": 5782,
      "ĠHoother": 5783,
      "Ġrer": 5784,
      "Ġrad": 5785,
      "Ġrus": 5786,
      "Ġrere": 5787,
      "Ġrough": 5788,
      "Ġrue": 5789,
      "Ġrib": 5790,
      "Ġrally": 5791,
      "Ġraid": 5792,
      "Ġrudd": 5793,
      "Ġribb": 5794,
      "ĠBes": 5795,
      "ĠBas": 5796,
      "ĠBill": 5797,
      "ĠBear": 5798,
      "ĠBry": 5799,
      "ĠBog": 5800,
      "ĠBook": 5801,
      "ĠBuck": 5802,
      "ĠBott": 5803,
      "ĠBully": 5804,
      "keep": 5805,
      "ĠWar": 5806,
      "ĠWait": 5807,
      "Ġstays": 5808,
      "Ġstomach": 5809,
      "ushed": 5810,
      "una": 5811,
      "unter": 5812,
      "ilty": 5813,
      "ilts": 5814,
      "alla": 5815,
      "Ġreck": 5816,
      "ĠCe": 5817,
      "ersh": 5818,
      "agr": 5819,
      "ĠPre": 5820,
      "ĠProm": 5821,
      "Ġmeg": 5822,
      "aby": 5823,
      "abed": 5824,
      "abul": 5825,
      "aboy": 5826,
      "ability": 5827,
      "ĠOd": 5828,
      "ĠOm": 5829,
      "Ġsober": 5830,
      "uli": 5831,
      "ulous": 5832,
      "Ġshin": 5833,
      "Ġshaking": 5834,
      "Ġshiver": 5835,
      "ĠLi": 5836,
      "ĠLove": 5837,
      "ĠLoud": 5838,
      "ĠLyn": 5839,
      "ĠFall": 5840,
      "ĠFour": 5841,
      "ĠFred": 5842,
      "Ġanny": 5843,
      "Ġkink": 5844,
      "Ġorang": 5845,
      "Ġorange": 5846,
      "olar": 5847,
      "olph": 5848,
      "ĠDa": 5849,
      "ques": 5850,
      "estic": 5851,
      "aine": 5852,
      "aints": 5853,
      "Ġvig": 5854,
      "Ġjud": 5855,
      "Ġjob": 5856,
      "Ġjerry": 5857,
      "Ġjohn": 5858,
      "Ġchast": 5859,
      "ĠNan": 5860,
      "ĠNich": 5861,
      "icken": 5862,
      "Ġhare": 5863,
      "Ġhaul": 5864,
      "anted": 5865,
      "ousers": 5866,
      "ousness": 5867,
      "ipar": 5868,
      "cts": 5869,
      "Ġspoil": 5870,
      "ongs": 5871,
      "odes": 5872,
      "ĠEh": 5873,
      "ĠEv": 5874,
      "ĠEld": 5875,
      "ĠEcc": 5876,
      "ĠEss": 5877,
      "iste": 5878,
      "erend": 5879,
      "avan": 5880,
      "avel": 5881,
      "Ġsund": 5882,
      "Ġsull": 5883,
      "Ġsugar": 5884,
      "ĠRom": 5885,
      "ĠRome": 5886,
      "ĠRock": 5887,
      "ĠRise": 5888,
      "ĠRoder": 5889,
      "artin": 5890,
      "Ġlewd": 5891,
      "Ġdeb": 5892,
      "Ġdece": 5893,
      "Ġdove": 5894,
      "Ġdoct": 5895,
      "Ġsept": 5896,
      "Ġwhence": 5897,
      "ieu": 5898,
      "ishly": 5899,
      "neck": 5900,
      "Ġalmost": 5901,
      "Ġalready": 5902,
      "blood": 5903,
      "Ġtrick": 5904,
      "Ġtrout": 5905,
      "Ġtrade": 5906,
      "ĠThunder": 5907,
      "Ġross": 5908,
      "Ġrocks": 5909,
      "Ġfled": 5910,
      "Ġconce": 5911,
      "Ġconsc": 5912,
      "Ġconvers": 5913,
      "ĠJo": 5914,
      "ĠJan": 5915,
      "ĠJack": 5916,
      "ĠJose": 5917,
      "ĠJarl": 5918,
      "Ġquit": 5919,
      "Ġloft": 5920,
      "Ġloving": 5921,
      "Ġamp": 5922,
      "Ġunivers": 5923,
      "ogan": 5924,
      "Ġarth": 5925,
      "Ġarts": 5926,
      "Ġbru": 5927,
      "Ġgran": 5928,
      "uber": 5929,
      "ĠKate": 5930,
      "ĠKiss": 5931,
      "Ġknot": 5932,
      "Ġswee": 5933,
      "Ġsword": 5934,
      "Ġswank": 5935,
      "Ġpogh": 5936,
      "lesome": 5937,
      "tey": 5938,
      "umped": 5939,
      "Ġagree": 5940,
      "cheon": 5941,
      "Ġfeast": 5942,
      "Ġseemed": 5943,
      "aird": 5944,
      "shot": 5945,
      "anky": 5946,
      "anked": 5947,
      "Ġpeel": 5948,
      "Ġpeck": 5949,
      "obble": 5950,
      "Ġslap": 5951,
      "ĠVul": 5952,
      "ĠVict": 5953,
      "ĠButter": 5954,
      "thed": 5955,
      "Ġgrew": 5956,
      "Ġgoodness": 5957,
      "Ġdru": 5958,
      "Ġdram": 5959,
      "Ġdrunk": 5960,
      "Ġdraught": 5961,
      "Ġcrim": 5962,
      "Ġcrad": 5963,
      "Ġcram": 5964,
      "Ġcrime": 5965,
      "ĠAnita": 5966,
      "Ġstray": 5967,
      "Ġstrange": 5968,
      "been": 5969,
      "Ġsmart": 5970,
      "Ġprett": 5971,
      "ample": 5972,
      "Ġverd": 5973,
      "Ġvers": 5974,
      "afl": 5975,
      "claim": 5976,
      "oths": 5977,
      "Ġimag": 5978,
      "ressed": 5979,
      "aunch": 5980,
      "Ġbrood": 5981,
      "Ġtender": 5982,
      "Ġcheck": 5983,
      "ikin": 5984,
      "iker": 5985,
      "ĠArch": 5986,
      "Ġbreed": 5987,
      "Ġbreach": 5988,
      "Ġelf": 5989,
      "Ġelder": 5990,
      "agging": 5991,
      "eyed": 5992,
      "Ġ20": 5993,
      "ummed": 5994,
      "Ġhearth": 5995,
      "Ġdisp": 5996,
      "Ġapple": 5997,
      "Ġremoved": 5998,
      "Ġlads": 5999,
      "ymph": 6000,
      "ugging": 6001,
      "Ġsalmon": 6002,
      "Ġ38": 6003,
      "Ġguess": 6004,
      "Ġguine": 6005,
      "Ġ42": 6006,
      "Ġ43": 6007,
      "Ġ47": 6008,
      "Ġnorth": 6009,
      "ynine": 6010,
      "quean": 6011,
      "Ġcorp": 6012,
      "ĠIsland": 6013,
      "Ġ52": 6014,
      "Ġburg": 6015,
      "grim": 6016,
      "Ġpersons": 6017,
      "Ġcharac": 6018,
      "Ġcharity": 6019,
      "Ġconsid": 6020,
      "zzle": 6021,
      "Ġlaying": 6022,
      "undered": 6023,
      "Ġnews": 6024,
      "Ġfollowed": 6025,
      "ruct": 6026,
      "Ġmiles": 6027,
      "Ġsigned": 6028,
      "Ġregards": 6029,
      "Ġregular": 6030,
      "Ġodds": 6031,
      "Ġfaul": 6032,
      "liness": 6033,
      "Ġterm": 6034,
      "Ġcommun": 6035,
      "Ġsometimes": 6036,
      "Ġpork": 6037,
      "Ġfunny": 6038,
      "Ġmusk": 6039,
      "Ġpolice": 6040,
      "Ġtroth": 6041,
      "Ġhurt": 6042,
      "Ġwalked": 6043,
      "ĠPlace": 6044,
      "Ġcreation": 6045,
      "Ġcreature": 6046,
      "Ġprayer": 6047,
      "Ġsleeping": 6048,
      "hoen": 6049,
      "Ġbottom": 6050,
      "Ġcalam": 6051,
      "common": 6052,
      "Ġlitter": 6053,
      "Ġsixty": 6054,
      "Ġpleasure": 6055,
      "Ġflee": 6056,
      "Ġprompt": 6057,
      "Ġbloody": 6058,
      "Ġrolled": 6059,
      "Ġpossible": 6060,
      "proof": 6061,
      "TIC": 6062,
      "Ġproperly": 6063,
      "Ġextra": 6064,
      "boat": 6065,
      "Ġwaist": 6066,
      "Ġreflect": 6067,
      "Ġsatisf": 6068,
      "Ġdepart": 6069,
      "Ġtitle": 6070,
      "athered": 6071,
      "Ġtype": 6072,
      "Ġfolk": 6073,
      "Ġcomplex": 6074,
      "Ġcertainly": 6075,
      "Ġpinch": 6076,
      "Ġposition": 6077,
      "Ġmodest": 6078,
      "Ġsteps": 6079,
      "ĠHonuph": 6080,
      "Ġlicence": 6081,
      "Ġrepeating": 6082,
      "ĠBetween": 6083,
      "Ġwelcome": 6084,
      "Ġconstant": 6085,
      "Ġquarter": 6086,
      "ĠEnglish": 6087,
      "Ġbeneath": 6088,
      "Ġpraise": 6089,
      "ĠRemember": 6090,
      "Ġparson": 6091,
      "Ġdrowned": 6092,
      "ĠTarpey": 6093,
      "Ġrequest": 6094,
      "Ġyellow": 6095,
      "Ġconnection": 6096,
      "Ġpardon": 6097,
      "ĠSunday": 6098,
      "Ġneighbour": 6099,
      "ĠQueen": 6100,
      "Ġbranches": 6101,
      "Ġdiamond": 6102,
      "ĠÂ®": 6103,
      "Ġtrespass": 6104,
      "arents": 6105,
      "Ġlipoleums": 6106,
      "Ġmourning": 6107,
      "ĠHonuphrius": 6108,
      "!:": 6109,
      "!^": 6110,
      "/^": 6111,
      "14": 6112,
      "42": 6113,
      "45": 6114,
      "58": 6115,
      "79": 6116,
      "?,": 6117,
      "ATION": 6118,
      "UM": 6119,
      "Uy": 6120,
      "aac": 6121,
      "aise": 6122,
      "bos": 6123,
      "bust": 6124,
      "bbl": 6125,
      "bones": 6126,
      "bells": 6127,
      "cat": 6128,
      "cord": 6129,
      "cape": 6130,
      "dl": 6131,
      "eges": 6132,
      "fF": 6133,
      "fam": 6134,
      "from": 6135,
      "first": 6136,
      "gers": 6137,
      "good": 6138,
      "gare": 6139,
      "hap": 6140,
      "hard": 6141,
      "have": 6142,
      "hoper": 6143,
      "ii": 6144,
      "ja": 6145,
      "ju": 6146,
      "kk": 6147,
      "kar": 6148,
      "kan": 6149,
      "kel": 6150,
      "lit": 6151,
      "lest": 6152,
      "lip": 6153,
      "line": 6154,
      "lang": 6155,
      "luck": 6156,
      "lights": 6157,
      "looking": 6158,
      "mell": 6159,
      "mess": 6160,
      "mate": 6161,
      "mens": 6162,
      "marks": 6163,
      "nom": 6164,
      "nine": 6165,
      "pow": 6166,
      "pur": 6167,
      "pent": 6168,
      "poll": 6169,
      "pins": 6170,
      "pence": 6171,
      "pole": 6172,
      "piece": 6173,
      "rat": 6174,
      "ras": 6175,
      "rain": 6176,
      "rue": 6177,
      "raid": 6178,
      "tot": 6179,
      "tub": 6180,
      "uan": 6181,
      "uine": 6182,
      "vet": 6183,
      "win": 6184,
      "wan": 6185,
      "wel": 6186,
      "wash": 6187,
      "your": 6188,
      "zing": 6189,
      "Ġ_": 6190,
      "Ġice": 6191,
      "Ġeth": 6192,
      "Ġ),": 6193,
      "Ġtout": 6194,
      "Ġtone": 6195,
      "Ġtang": 6196,
      "Ġtiss": 6197,
      "Ġtank": 6198,
      "Ġtact": 6199,
      "Ġtyp": 6200,
      "Ġtiny": 6201,
      "hear": 6202,
      "held": 6203,
      "Ġace": 6204,
      "Ġaub": 6205,
      "Ġapt": 6206,
      "Ġaunt": 6207,
      "Ġapr": 6208,
      "Ġaction": 6209,
      "Ġaux": 6210,
      "inse": 6211,
      "inch": 6212,
      "inating": 6213,
      "inabr": 6214,
      "Ġoy": 6215,
      "Ġoct": 6216,
      "Ġook": 6217,
      "Ġowe": 6218,
      "Ġocean": 6219,
      "Ġss": 6220,
      "Ġster": 6221,
      "Ġsate": 6222,
      "Ġsah": 6223,
      "Ġsunt": 6224,
      "Ġsize": 6225,
      "Ġsighed": 6226,
      "Ġsaints": 6227,
      "nde": 6228,
      "Ġwound": 6229,
      "Ġwool": 6230,
      "Ġbom": 6231,
      "Ġbang": 6232,
      "Ġbib": 6233,
      "Ġbought": 6234,
      "Ġbaff": 6235,
      "Ġbalm": 6236,
      "Ġbishop": 6237,
      "rell": 6238,
      "rels": 6239,
      "Ġhag": 6240,
      "Ġhul": 6241,
      "Ġhound": 6242,
      "Ġhose": 6243,
      "Ġhym": 6244,
      "Ġhyd": 6245,
      "Ġhiding": 6246,
      "isle": 6247,
      "isely": 6248,
      "Ġfay": 6249,
      "Ġfist": 6250,
      "Ġfurn": 6251,
      "Ġfoss": 6252,
      "Ġfix": 6253,
      "Ġfanc": 6254,
      "Ġfires": 6255,
      "Ġmi": 6256,
      "Ġmim": 6257,
      "Ġmam": 6258,
      "Ġmast": 6259,
      "Ġmens": 6260,
      "Ġminn": 6261,
      "Ġmoss": 6262,
      "Ġmoor": 6263,
      "Ġmelt": 6264,
      "Ġmuddy": 6265,
      "ato": 6266,
      "aton": 6267,
      "ito": 6268,
      "itas": 6269,
      "itively": 6270,
      "orc": 6271,
      "oral": 6272,
      "Ġpine": 6273,
      "Ġpree": 6274,
      "Ġpint": 6275,
      "Ġpier": 6276,
      "Ġpunt": 6277,
      "Ġpawn": 6278,
      "Ġpowers": 6279,
      "Ġck": 6280,
      "Ġcart": 6281,
      "Ġcull": 6282,
      "Ġcush": 6283,
      "Ġcopp": 6284,
      "Ġcupp": 6285,
      "Ġcrib": 6286,
      "Ġcyc": 6287,
      "Ġculp": 6288,
      "aras": 6289,
      "arters": 6290,
      "ani": 6291,
      "analy": 6292,
      "Ġlon": 6293,
      "Ġlur": 6294,
      "Ġlion": 6295,
      "Ġlore": 6296,
      "Ġlout": 6297,
      "Ġlake": 6298,
      "Ġlots": 6299,
      "Ġlamb": 6300,
      "Ġdag": 6301,
      "Ġdest": 6302,
      "Ġdaw": 6303,
      "Ġdiss": 6304,
      "Ġdung": 6305,
      "Ġdash": 6306,
      "Ġdrew": 6307,
      "Ġdorm": 6308,
      "Ġdivers": 6309,
      "Ġdainty": 6310,
      "Ġtoff": 6311,
      "Ġtoken": 6312,
      "Ġinvent": 6313,
      "Ġheather": 6314,
      "lev": 6315,
      "leaves": 6316,
      "Ġthur": 6317,
      "Ġthirst": 6318,
      "Ġthrown": 6319,
      "Ġthrees": 6320,
      "rope": 6321,
      "Ġness": 6322,
      "Ġnud": 6323,
      "Ġnets": 6324,
      "Ġnett": 6325,
      "Ġnurse": 6326,
      "Ġgag": 6327,
      "Ġgather": 6328,
      "Ġgrie": 6329,
      "Ġgait": 6330,
      "Ġgigg": 6331,
      "Ġgames": 6332,
      "Ġgodd": 6333,
      "Ġginger": 6334,
      "Ġgaze": 6335,
      "Ġya": 6336,
      "Ġyaw": 6337,
      "ethe": 6338,
      "eted": 6339,
      "star": 6340,
      "stal": 6341,
      "eland": 6342,
      "url": 6343,
      "oty": 6344,
      "oted": 6345,
      "Ġeaster": 6346,
      "Ġecho": 6347,
      "ĠTa": 6348,
      "ĠTis": 6349,
      "ĠTit": 6350,
      "ĠTor": 6351,
      "ĠTot": 6352,
      "ĠTri": 6353,
      "ĠTop": 6354,
      "ĠTob": 6355,
      "ĠTurn": 6356,
      "ĠTalis": 6357,
      "Ġforced": 6358,
      "adam": 6359,
      "adder": 6360,
      "acies": 6361,
      "amon": 6362,
      "Ġbears": 6363,
      "Ġbearing": 6364,
      "ĠSaw": 6365,
      "ĠSull": 6366,
      "ĠSold": 6367,
      "ĠSully": 6368,
      "Ġwhor": 6369,
      "Ġwhim": 6370,
      "Ġwhistle": 6371,
      "iday": 6372,
      "iders": 6373,
      "oost": 6374,
      "oops": 6375,
      "ĠMc": 6376,
      "ĠMost": 6377,
      "ĠMont": 6378,
      "seen": 6379,
      "umer": 6380,
      "uman": 6381,
      "ĠHen": 6382,
      "ĠHad": 6383,
      "ĠHah": 6384,
      "ĠHarry": 6385,
      "Ġrou": 6386,
      "Ġrat": 6387,
      "Ġras": 6388,
      "Ġrif": 6389,
      "Ġrav": 6390,
      "Ġrate": 6391,
      "Ġrice": 6392,
      "Ġrule": 6393,
      "Ġraven": 6394,
      "Ġriding": 6395,
      "child": 6396,
      "chief": 6397,
      "ĠBan": 6398,
      "ĠBay": 6399,
      "ĠBab": 6400,
      "ĠBrown": 6401,
      "kend": 6402,
      "kelly": 6403,
      "ĠWay": 6404,
      "ĠWest": 6405,
      "Ġstol": 6406,
      "Ġstare": 6407,
      "Ġstroll": 6408,
      "using": 6409,
      "Ġist": 6410,
      "ionable": 6411,
      "Ġrear": 6412,
      "Ġreel": 6413,
      "Ġrede": 6414,
      "Ġrent": 6415,
      "Ġrevol": 6416,
      "anded": 6417,
      "ĠCas": 6418,
      "ĠCut": 6419,
      "ĠCam": 6420,
      "ĠCirc": 6421,
      "ĠCopp": 6422,
      "rien": 6423,
      "rive": 6424,
      "ripp": 6425,
      "apterP": 6426,
      "aging": 6427,
      "Ġherring": 6428,
      "ĠPo": 6429,
      "ĠPen": 6430,
      "ĠPom": 6431,
      "ĠPap": 6432,
      "ĠPart": 6433,
      "ĠPass": 6434,
      "ĠPoll": 6435,
      "ĠPhoen": 6436,
      "ckled": 6437,
      "Ġmeed": 6438,
      "Ġmeas": 6439,
      "Ġmeal": 6440,
      "Ġmyst": 6441,
      "abber": 6442,
      "abella": 6443,
      "Ġsos": 6444,
      "thm": 6445,
      "ulo": 6446,
      "ulus": 6447,
      "Ġshut": 6448,
      "Ġshill": 6449,
      "Ġshif": 6450,
      "Ġshift": 6451,
      "Ġshoes": 6452,
      "ĠLand": 6453,
      "ĠLast": 6454,
      "ĠLaw": 6455,
      "ĠLough": 6456,
      "ĠFi": 6457,
      "ĠFire": 6458,
      "ĠFox": 6459,
      "Ġanon": 6460,
      "Ġante": 6461,
      "Ġkit": 6462,
      "Ġken": 6463,
      "Ġkir": 6464,
      "Ġkettle": 6465,
      "Ġorch": 6466,
      "olas": 6467,
      "ĠDou": 6468,
      "ĠDing": 6469,
      "ĠDor": 6470,
      "ĠDal": 6471,
      "ĠDame": 6472,
      "osm": 6473,
      "oser": 6474,
      "open": 6475,
      "igen": 6476,
      "Ġvac": 6477,
      "Ġvoc": 6478,
      "Ġjaw": 6479,
      "Ġjoke": 6480,
      "Ġjenny": 6481,
      "Ġchip": 6482,
      "essor": 6483,
      "ĠNick": 6484,
      "ĠNep": 6485,
      "ĠGh": 6486,
      "ĠGro": 6487,
      "ĠGam": 6488,
      "Ġhaunt": 6489,
      "Ġwealth": 6490,
      "ipt": 6491,
      "Ġspite": 6492,
      "ongue": 6493,
      "oddy": 6494,
      "istically": 6495,
      "Ġblong": 6496,
      "Ġblock": 6497,
      "Ġsuite": 6498,
      "Ġplat": 6499,
      "Ġpluck": 6500,
      "Ġplane": 6501,
      "ĠRub": 6502,
      "ĠRoman": 6503,
      "Ġwholly": 6504,
      "Ġlea": 6505,
      "Ġlep": 6506,
      "Ġlev": 6507,
      "Ġlease": 6508,
      "Ġleather": 6509,
      "Ġdefe": 6510,
      "Ġdoc": 6511,
      "Ġdoff": 6512,
      "Ġseal": 6513,
      "Ġseventh": 6514,
      "Ġwhenever": 6515,
      "angers": 6516,
      "iveness": 6517,
      "ishment": 6518,
      "need": 6519,
      "Ġalas": 6520,
      "blue": 6521,
      "ĠThing": 6522,
      "ĠThor": 6523,
      "Ġflav": 6524,
      "Ġflush": 6525,
      "Ġflowers": 6526,
      "ĠJon": 6527,
      "ĠJimmy": 6528,
      "inker": 6529,
      "Ġloy": 6530,
      "Ġload": 6531,
      "oyd": 6532,
      "reek": 6533,
      "Ġunited": 6534,
      "Ġclover": 6535,
      "Ġclasp": 6536,
      "Ġbrut": 6537,
      "Ġbrass": 6538,
      "Ġgrav": 6539,
      "Ġgrands": 6540,
      "Ġcob": 6541,
      "Ġcoal": 6542,
      "Ġcoff": 6543,
      "Ġextr": 6544,
      "Ġscald": 6545,
      "Ġscrib": 6546,
      "Ġscript": 6547,
      "ĠKersse": 6548,
      "Ġprint": 6549,
      "Ġprison": 6550,
      "Ġproof": 6551,
      "Ġproceed": 6552,
      "Ġknight": 6553,
      "Ġswan": 6554,
      "Ġpose": 6555,
      "Ġpoke": 6556,
      "ugn": 6557,
      "ĠHeaven": 6558,
      "many": 6559,
      "enses": 6560,
      "Ġagn": 6561,
      "Ġfeat": 6562,
      "Ġseeking": 6563,
      "Ġoffic": 6564,
      "ahr": 6565,
      "Ġpea": 6566,
      "Ġpeak": 6567,
      "Ġcann": 6568,
      "Ġcanon": 6569,
      "Ġthrice": 6570,
      "ĠVal": 6571,
      "thered": 6572,
      "Ġperiod": 6573,
      "ĠShall": 6574,
      "Ġworm": 6575,
      "Ġdrawn": 6576,
      "Ġdrinking": 6577,
      "Ġcru": 6578,
      "Ġcrush": 6579,
      "Ġcruc": 6580,
      "beg": 6581,
      "Ġglue": 6582,
      "Ġglob": 6583,
      "ledge": 6584,
      "gger": 6585,
      "anner": 6586,
      "anning": 6587,
      "Ġimpl": 6588,
      "ashing": 6589,
      "Ġfrag": 6590,
      "Ġhoist": 6591,
      "atton": 6592,
      "uchs": 6593,
      "Ġlonger": 6594,
      "Ġ10": 6595,
      "ohns": 6596,
      "brand": 6597,
      "Ġerse": 6598,
      "Ġtele": 6599,
      "ĠChild": 6600,
      "ikes": 6601,
      "iking": 6602,
      "Ġkeys": 6603,
      "axes": 6604,
      "Ġbeloved": 6605,
      "Ġeld": 6606,
      "Ġelbow": 6607,
      "ouls": 6608,
      "Ġsnuff": 6609,
      "Ġ22": 6610,
      "ussy": 6611,
      "usses": 6612,
      "ĠBruno": 6613,
      "Ġforeg": 6614,
      "Ġforen": 6615,
      "Ġparish": 6616,
      "Ġladder": 6617,
      "Ġhalt": 6618,
      "Ġzeal": 6619,
      "Ġwarn": 6620,
      "aughter": 6621,
      "Ġbarn": 6622,
      "Ġbarley": 6623,
      "Ġbarrel": 6624,
      "Ġphys": 6625,
      "lessly": 6626,
      "Ġpassion": 6627,
      "Ġturns": 6628,
      "Ġ30": 6629,
      "Ġ37": 6630,
      "Ġguid": 6631,
      "Ġrecon": 6632,
      "Ġ48": 6633,
      "ertain": 6634,
      "Ġserved": 6635,
      "iggy": 6636,
      "eneral": 6637,
      "ĠMacG": 6638,
      "Ġspeed": 6639,
      "Ġbuoy": 6640,
      "Ġcourts": 6641,
      "Ġ55": 6642,
      "Ġputting": 6643,
      "Ġpurpose": 6644,
      "Ġplayed": 6645,
      "ĠSeven": 6646,
      "Ġmissus": 6647,
      "Ġbelle": 6648,
      "Ġminds": 6649,
      "Ġdesign": 6650,
      "Ġhairs": 6651,
      "Ġpresence": 6652,
      "Ġdelight": 6653,
      "ĠTrue": 6654,
      "Ġcharge": 6655,
      "Ġharm": 6656,
      "Ġamongst": 6657,
      "overs": 6658,
      "Ġminutes": 6659,
      "ĠMargare": 6660,
      "ĠDev": 6661,
      "Ġobsc": 6662,
      "Ġholds": 6663,
      "ennis": 6664,
      "Ġvell": 6665,
      "Ġentr": 6666,
      "Ġould": 6667,
      "Ġfreak": 6668,
      "Ġairs": 6669,
      "Ġairy": 6670,
      "Ġterr": 6671,
      "Ġintrod": 6672,
      "Ġintentions": 6673,
      "ĠGregory": 6674,
      "Ġirish": 6675,
      "Ġbucket": 6676,
      "Ġpalm": 6677,
      "Ġgrandmother": 6678,
      "Ġhomely": 6679,
      "Ġdarkness": 6680,
      "Ġsorts": 6681,
      "Ġsorrow": 6682,
      "Ġmagic": 6683,
      "Ġantip": 6684,
      "Ġanticip": 6685,
      "Ġkindly": 6686,
      "ĠPlay": 6687,
      "ĠPeace": 6688,
      "Ġblew": 6689,
      "Ġpotent": 6690,
      "Ġpapers": 6691,
      "burg": 6692,
      "Ġpurely": 6693,
      "Ġtemple": 6694,
      "ienne": 6695,
      "Ġpromise": 6696,
      "Ġowl": 6697,
      "Ġmaids": 6698,
      "Ġmaiden": 6699,
      "ĠPrim": 6700,
      "ological": 6701,
      "Ġattempt": 6702,
      "Ġleader": 6703,
      "Ġleading": 6704,
      "Ġsimilar": 6705,
      "Ġexcell": 6706,
      "Ġtongues": 6707,
      "Ġhence": 6708,
      "ĠPhil": 6709,
      "Ġcrying": 6710,
      "Ġvisit": 6711,
      "horse": 6712,
      "Ġbounds": 6713,
      "Ġtumble": 6714,
      "Ġwidth": 6715,
      "Ġhammer": 6716,
      "Ġkissing": 6717,
      "Ġtruce": 6718,
      "Ġdrive": 6719,
      "Ġdripping": 6720,
      "Ġroman": 6721,
      "Ġvirg": 6722,
      "Ġdamn": 6723,
      "Ġancest": 6724,
      "Ġcopy": 6725,
      "Ġcopper": 6726,
      "Ġlamps": 6727,
      "Ġmirror": 6728,
      "Ġmotion": 6729,
      "Ġmotto": 6730,
      "Ġwinter": 6731,
      "Ġfemin": 6732,
      "Ġfemale": 6733,
      "ittering": 6734,
      "fallen": 6735,
      "Ġcarrying": 6736,
      "Ġsuspect": 6737,
      "Ġpillow": 6738,
      "Ġsuggestion": 6739,
      "Ġimproper": 6740,
      "Ġlocked": 6741,
      "Ġmeself": 6742,
      "Ġsenses": 6743,
      "Ġpicture": 6744,
      "Ġpockets": 6745,
      "Ġgleam": 6746,
      "ĠPorter": 6747,
      "Ġvillage": 6748,
      "Ġfifty": 6749,
      "Ġfacts": 6750,
      "Ġcandle": 6751,
      "Ġspecial": 6752,
      "urope": 6753,
      "www": 6754,
      "Ġoppos": 6755,
      "ĠWorld": 6756,
      "minded": 6757,
      "Ġcustom": 6758,
      "Ġdeclare": 6759,
      "ĠGracehoper": 6760,
      "Ġpension": 6761,
      "ĠThrough": 6762,
      "Ġmanners": 6763,
      "ĠListen": 6764,
      "ĠJacob": 6765,
      "AdapterP": 6766,
      "Ġhesit": 6767,
      "iffey": 6768,
      "Ġphrase": 6769,
      "Ġphoenix": 6770,
      "Ġpsych": 6771,
      "ĠCourt": 6772,
      "Ġprankquean": 6773,
      "ĠZinzin": 6774,
      "ĠRoderick": 6775,
      "ĠJoseph": 6776,
      "analytics": 6777,
      "AdapterPipeline": 6778,
      "'-": 6779,
      "40": 6780,
      "78": 6781,
      "?:": 6782,
      "AR": 6783,
      "CE": 6784,
      "Conn": 6785,
      "EL": 6786,
      "OT": 6787,
      "Sh": 6788,
      "Twas": 6789,
      "bis": 6790,
      "bes": 6791,
      "brow": 6792,
      "bable": 6793,
      "bye": 6794,
      "bags": 6795,
      "cil": 6796,
      "cull": 6797,
      "cock": 6798,
      "cont": 6799,
      "craft": 6800,
      "did": 6801,
      "eys": 6802,
      "fur": 6803,
      "fly": 6804,
      "filled": 6805,
      "ga": 6806,
      "gre": 6807,
      "gon": 6808,
      "gard": 6809,
      "gia": 6810,
      "hl": 6811,
      "hm": 6812,
      "hou": 6813,
      "hop": 6814,
      "hued": 6815,
      "iw": 6816,
      "iy": 6817,
      "iation": 6818,
      "iate": 6819,
      "lop": 6820,
      "lain": 6821,
      "loss": 6822,
      "loc": 6823,
      "mith": 6824,
      "mill": 6825,
      "mond": 6826,
      "nst": 6827,
      "oak": 6828,
      "pill": 6829,
      "pip": 6830,
      "pack": 6831,
      "port": 6832,
      "pons": 6833,
      "rh": 6834,
      "rass": 6835,
      "rate": 6836,
      "ract": 6837,
      "tu": 6838,
      "tar": 6839,
      "too": 6840,
      "uge": 6841,
      "uance": 6842,
      "vens": 6843,
      "wis": 6844,
      "yous": 6845,
      "zes": 6846,
      "âĢ": 6847,
      "Ġick": 6848,
      "Ġies": 6849,
      "Ġtic": 6850,
      "Ġtal": 6851,
      "Ġtug": 6852,
      "Ġtint": 6853,
      "Ġtaut": 6854,
      "Ġtips": 6855,
      "Ġtilt": 6856,
      "Ġtights": 6857,
      "Ġtune": 6858,
      "Ġtired": 6859,
      "Ġtlie": 6860,
      "heet": 6861,
      "heard": 6862,
      "Ġaj": 6863,
      "Ġail": 6864,
      "Ġahead": 6865,
      "inu": 6866,
      "inally": 6867,
      "Ġond": 6868,
      "Ġoll": 6869,
      "Ġoust": 6870,
      "Ġopt": 6871,
      "Ġther": 6872,
      "Ġses": 6873,
      "Ġsar": 6874,
      "Ġsap": 6875,
      "Ġsine": 6876,
      "Ġsings": 6877,
      "Ġsiss": 6878,
      "Ġsally": 6879,
      "Ġsank": 6880,
      "Ġsax": 6881,
      "Ġsouth": 6882,
      "Ġsabb": 6883,
      "erse": 6884,
      "ndy": 6885,
      "Ġwal": 6886,
      "Ġwom": 6887,
      "Ġwot": 6888,
      "Ġwart": 6889,
      "Ġwoh": 6890,
      "Ġwards": 6891,
      "Ġwives": 6892,
      "Ġwester": 6893,
      "Ġwench": 6894,
      "Ġwipe": 6895,
      "Ġbould": 6896,
      "Ġbust": 6897,
      "Ġbau": 6898,
      "Ġbase": 6899,
      "Ġboon": 6900,
      "Ġbier": 6901,
      "Ġbrie": 6902,
      "Ġbudd": 6903,
      "Ġboose": 6904,
      "Ġbald": 6905,
      "Ġberg": 6906,
      "Ġbattle": 6907,
      "Ġbigger": 6908,
      "reck": 6909,
      "reme": 6910,
      "rection": 6911,
      "oub": 6912,
      "ouc": 6913,
      "outer": 6914,
      "Ġhut": 6915,
      "Ġhod": 6916,
      "Ġhart": 6917,
      "Ġhull": 6918,
      "Ġhank": 6919,
      "isher": 6920,
      "Ġft": 6921,
      "Ġfad": 6922,
      "Ġfoc": 6923,
      "Ġfier": 6924,
      "Ġfont": 6925,
      "Ġfaint": 6926,
      "Ġfears": 6927,
      "Ġfunn": 6928,
      "Ġfaces": 6929,
      "Ġfilled": 6930,
      "Ġfailing": 6931,
      "Ġmit": 6932,
      "Ġming": 6933,
      "Ġmun": 6934,
      "Ġmell": 6935,
      "Ġmak": 6936,
      "Ġmull": 6937,
      "Ġmail": 6938,
      "Ġmouse": 6939,
      "Ġmike": 6940,
      "Ġmax": 6941,
      "Ġmov": 6942,
      "Ġmudd": 6943,
      "Ġmister": 6944,
      "Ġmoved": 6945,
      "Ġmourn": 6946,
      "esse": 6947,
      "aty": 6948,
      "atters": 6949,
      "athes": 6950,
      "iters": 6951,
      "itate": 6952,
      "orious": 6953,
      "orial": 6954,
      "Ġping": 6955,
      "Ġpir": 6956,
      "Ġpent": 6957,
      "Ġpag": 6958,
      "Ġpest": 6959,
      "Ġpud": 6960,
      "Ġpred": 6961,
      "Ġpaint": 6962,
      "Ġpipp": 6963,
      "Ġpottage": 6964,
      "Ġpyre": 6965,
      "Ġcer": 6966,
      "Ġcale": 6967,
      "Ġcors": 6968,
      "Ġcours": 6969,
      "Ġcrew": 6970,
      "Ġcoup": 6971,
      "onian": 6972,
      "arly": 6973,
      "anst": 6974,
      "enk": 6975,
      "enter": 6976,
      "Ġlous": 6977,
      "Ġlone": 6978,
      "Ġlice": 6979,
      "Ġlave": 6980,
      "Ġlaps": 6981,
      "Ġlimp": 6982,
      "Ġlaws": 6983,
      "Ġlodge": 6984,
      "Ġdy": 6985,
      "Ġdan": 6986,
      "Ġdot": 6987,
      "Ġdour": 6988,
      "Ġdish": 6989,
      "Ġdau": 6990,
      "Ġdup": 6991,
      "Ġdoss": 6992,
      "Ġdoth": 6993,
      "Ġdying": 6994,
      "Ġdanger": 6995,
      "Ġdummy": 6996,
      "Ġtoil": 6997,
      "Ġtower": 6998,
      "Ġtolk": 6999,
      "Ġheal": 7000,
      "Ġheight": 7001,
      "Ġheirs": 7002,
      "lex": 7003,
      "leen": 7004,
      "Ġtha": 7005,
      "Ġthon": 7006,
      "Ġthaw": 7007,
      "Ġthorn": 7008,
      "rose": 7009,
      "Ġni": 7010,
      "Ġns": 7011,
      "Ġnt": 7012,
      "Ġny": 7013,
      "Ġnoo": 7014,
      "Ġnun": 7015,
      "Ġnail": 7016,
      "Ġnigg": 7017,
      "Ġnupt": 7018,
      "Ġgy": 7019,
      "Ġgat": 7020,
      "Ġgit": 7021,
      "Ġgor": 7022,
      "Ġgain": 7023,
      "Ġgout": 7024,
      "Ġgush": 7025,
      "Ġgunn": 7026,
      "Ġgibb": 7027,
      "Ġglee": 7028,
      "Ġgurg": 7029,
      "Ġyonder": 7030,
      "Ġyield": 7031,
      "icc": 7032,
      "icle": 7033,
      "icious": 7034,
      "alty": 7035,
      "etter": 7036,
      "etty": 7037,
      "stant": 7038,
      "stra": 7039,
      "elp": 7040,
      "elong": 7041,
      "ĠIts": 7042,
      "urb": 7043,
      "urge": 7044,
      "urious": 7045,
      "ĠAct": 7046,
      "ĠAub": 7047,
      "ĠAsh": 7048,
      "otion": 7049,
      "othed": 7050,
      "Ġeats": 7051,
      "Ġeating": 7052,
      "Ġefter": 7053,
      "Ġells": 7054,
      "ĠTy": 7055,
      "ĠTro": 7056,
      "ĠTil": 7057,
      "ĠTem": 7058,
      "Ġforn": 7059,
      "aders": 7060,
      "amar": 7061,
      "amous": 7062,
      "ampl": 7063,
      "Ġbew": 7064,
      "Ġbeck": 7065,
      "ĠSin": 7066,
      "ĠSim": 7067,
      "ĠSher": 7068,
      "ĠSouth": 7069,
      "Ġwhang": 7070,
      "Ġwhisk": 7071,
      "ooling": 7072,
      "vere": 7073,
      "vern": 7074,
      "ĠMis": 7075,
      "ĠMom": 7076,
      "ĠMus": 7077,
      "ĠMock": 7078,
      "umen": 7079,
      "lyn": 7080,
      "lys": 7081,
      "lying": 7082,
      "ĠHat": 7083,
      "ĠHag": 7084,
      "ĠHail": 7085,
      "ĠHans": 7086,
      "ĠHence": 7087,
      "ĠHaun": 7088,
      "Ġrt": 7089,
      "Ġrhe": 7090,
      "Ġrig": 7091,
      "Ġrite": 7092,
      "Ġribs": 7093,
      "illies": 7094,
      "illery": 7095,
      "char": 7096,
      "chum": 7097,
      "ĠBor": 7098,
      "ĠBad": 7099,
      "ĠBoo": 7100,
      "ĠBul": 7101,
      "ĠBoot": 7102,
      "ĠBuy": 7103,
      "kew": 7104,
      "keley": 7105,
      "ĠWo": 7106,
      "ĠWood": 7107,
      "ĠWoe": 7108,
      "Ġstor": 7109,
      "Ġstab": 7110,
      "Ġstark": 7111,
      "Ġstump": 7112,
      "Ġstoop": 7113,
      "Ġstretch": 7114,
      "unne": 7115,
      "unction": 7116,
      "Ġisle": 7117,
      "Ġitch": 7118,
      "Ġreed": 7119,
      "Ġreign": 7120,
      "Ġready": 7121,
      "Ġrefer": 7122,
      "Ġreform": 7123,
      "Ġreasons": 7124,
      "ĠCow": 7125,
      "ĠCab": 7126,
      "ĠCrow": 7127,
      "ĠCross": 7128,
      "ĠCapt": 7129,
      "ĠCork": 7130,
      "ĠCounty": 7131,
      "rily": 7132,
      "rious": 7133,
      "rift": 7134,
      "aping": 7135,
      "ello": 7136,
      "ellus": 7137,
      "Ġlib": 7138,
      "Ġliver": 7139,
      "Ġliked": 7140,
      "ĠPu": 7141,
      "ĠPel": 7142,
      "ĠPot": 7143,
      "ĠPol": 7144,
      "ĠPig": 7145,
      "ĠPep": 7146,
      "ĠPool": 7147,
      "ĠPopp": 7148,
      "ckle": 7149,
      "Ġmeals": 7150,
      "Ġmyri": 7151,
      "abil": 7152,
      "ĠOp": 7153,
      "ĠOw": 7154,
      "ĠOther": 7155,
      "ĠOpen": 7156,
      "Ġsocks": 7157,
      "Ġsolem": 7158,
      "Ġbyg": 7159,
      "thr": 7160,
      "thro": 7161,
      "thur": 7162,
      "things": 7163,
      "ulent": 7164,
      "ulars": 7165,
      "ulating": 7166,
      "Ġshade": 7167,
      "Ġshuff": 7168,
      "Ġshalt": 7169,
      "Ġshoots": 7170,
      "Ġshades": 7171,
      "ĠLang": 7172,
      "ĠLuck": 7173,
      "ĠLally": 7174,
      "ĠLuk": 7175,
      "ĠLodge": 7176,
      "ĠLeary": 7177,
      "ĠFee": 7178,
      "ĠFoll": 7179,
      "ĠFunny": 7180,
      "Ġanent": 7181,
      "Ġkin": 7182,
      "Ġkicks": 7183,
      "Ġkicking": 7184,
      "olt": 7185,
      "ĠDi": 7186,
      "ĠDer": 7187,
      "osen": 7188,
      "osus": 7189,
      "osity": 7190,
      "Ġwhet": 7191,
      "estone": 7192,
      "opot": 7193,
      "opol": 7194,
      "ainer": 7195,
      "Ġvin": 7196,
      "ĠThese": 7197,
      "Ġjay": 7198,
      "Ġjaun": 7199,
      "Ġcha": 7200,
      "Ġchir": 7201,
      "Ġchain": 7202,
      "Ġchanc": 7203,
      "Ġchalk": 7204,
      "Ġchaps": 7205,
      "Ġchoke": 7206,
      "ĠNom": 7207,
      "ĠNay": 7208,
      "ĠNone": 7209,
      "ĠNumber": 7210,
      "ĠGa": 7211,
      "ĠGot": 7212,
      "ĠGent": 7213,
      "ĠGem": 7214,
      "ĠGold": 7215,
      "Ġhav": 7216,
      "anto": 7217,
      "antes": 7218,
      "Ġweap": 7219,
      "Ġwears": 7220,
      "Ġweary": 7221,
      "ema": 7222,
      "emn": 7223,
      "cta": 7224,
      "Ġspan": 7225,
      "Ġspill": 7226,
      "Ġspear": 7227,
      "Ġspoken": 7228,
      "Ġspoiled": 7229,
      "onger": 7230,
      "aways": 7231,
      "oday": 7232,
      "Ġnote": 7233,
      "acken": 7234,
      "ĠEnd": 7235,
      "inders": 7236,
      "ista": 7237,
      "Ġbutcher": 7238,
      "Ġblond": 7239,
      "Ġblaz": 7240,
      "Ġplot": 7241,
      "oneys": 7242,
      "ĠRob": 7243,
      "ĠRoe": 7244,
      "Ġoutr": 7245,
      "Ġwhoever": 7246,
      "Ġlex": 7247,
      "Ġseed": 7248,
      "Ġsequ": 7249,
      "Ġsepar": 7250,
      "ieur": 7251,
      "ieve": 7252,
      "ounder": 7253,
      "Ġalp": 7254,
      "Ġalive": 7255,
      "Ġaltern": 7256,
      "Ġaloft": 7257,
      "Ġtrad": 7258,
      "Ġtrail": 7259,
      "Ġtricks": 7260,
      "Ġroads": 7261,
      "Ġfloor": 7262,
      "ĠJames": 7263,
      "Ġquid": 7264,
      "Ġolde": 7265,
      "Ġlose": 7266,
      "ppy": 7267,
      "Ġung": 7268,
      "Ġunm": 7269,
      "ilee": 7270,
      "Ġclub": 7271,
      "Ġclimb": 7272,
      "Ġnoes": 7273,
      "Ġnoct": 7274,
      "Ġnoise": 7275,
      "Ġnoble": 7276,
      "Ġbrings": 7277,
      "Ġaft": 7278,
      "Ġgrim": 7279,
      "Ġgrain": 7280,
      "ucked": 7281,
      "ission": 7282,
      "gey": 7283,
      "told": 7284,
      ".''": 7285,
      "ubb": 7286,
      "orde": 7287,
      "order": 7288,
      "Ġsche": 7289,
      "Ġscor": 7290,
      "Ġscen": 7291,
      "Ġscare": 7292,
      "Ġscream": 7293,
      "ĠKeep": 7294,
      "Ġpron": 7295,
      "Ġprick": 7296,
      "Ġproved": 7297,
      "Ġprotest": 7298,
      "Ġswall": 7299,
      "Ġcomme": 7300,
      "Ġcomfort": 7301,
      "Ġgoats": 7302,
      "Ġpond": 7303,
      "thern": 7304,
      "peak": 7305,
      "umption": 7306,
      "Ġagre": 7307,
      "Ġ^^^": 7308,
      "Ġ^^^^": 7309,
      "Ġoffice": 7310,
      "ahom": 7311,
      "inns": 7312,
      ".'^)": 7313,
      "orning": 7314,
      "sha": 7315,
      "shape": 7316,
      "Ġpeat": 7317,
      "Ġslipper": 7318,
      "Ġslipping": 7319,
      "ĠVes": 7320,
      "Ġenter": 7321,
      "Ġenvel": 7322,
      "Ġdowns": 7323,
      "Ġgreater": 7324,
      "Ġperfor": 7325,
      "Ġperfection": 7326,
      "ĠShop": 7327,
      "ĠShould": 7328,
      "Ġdraws": 7329,
      "Ġdragon": 7330,
      "Ġthroughout": 7331,
      "Ġcrux": 7332,
      "ĠAnny": 7333,
      "Ġstrang": 7334,
      "beit": 7335,
      "Ġgloss": 7336,
      "Ġglobe": 7337,
      "Ġanyway": 7338,
      "blem": 7339,
      "Ġbetw": 7340,
      "gging": 7341,
      "othing": 7342,
      "Ġhoar": 7343,
      "atted": 7344,
      "Ġlongs": 7345,
      "ĠInter": 7346,
      "Ġ16": 7347,
      "ucing": 7348,
      "Ġbrogues": 7349,
      "Ġyew": 7350,
      "oho": 7351,
      "actly": 7352,
      "ĠBefore": 7353,
      "Ġerst": 7354,
      "Ġteas": 7355,
      "Ġteach": 7356,
      "Ġtease": 7357,
      "Ġfours": 7358,
      "Ġchee": 7359,
      "Ġchem": 7360,
      "ĠChap": 7361,
      "aney": 7362,
      "ĠArd": 7363,
      "ĠArk": 7364,
      "ĠArm": 7365,
      "Ġbrew": 7366,
      "umbo": 7367,
      "eyn": 7368,
      "Ġsnake": 7369,
      "Ġsnug": 7370,
      "Ġ23": 7371,
      "Ġwrath": 7372,
      "ummel": 7373,
      "ummers": 7374,
      "ussing": 7375,
      "ragh": 7376,
      "Ġapprec": 7377,
      "Ġjustice": 7378,
      "Ġskill": 7379,
      "Ġskull": 7380,
      "Ġskirt": 7381,
      "Ġskirts": 7382,
      "Ġmostly": 7383,
      "ĠBrit": 7384,
      "ĠBridge": 7385,
      "ĠBrinabr": 7386,
      "Ġremains": 7387,
      "Ġfarmer": 7388,
      "Ġending": 7389,
      "Ġended": 7390,
      "iddies": 7391,
      "Ġtrif": 7392,
      "Ġtriple": 7393,
      "Ġparl": 7394,
      "Ġemp": 7395,
      "lso": 7396,
      "Ġsalve": 7397,
      "Ġevening": 7398,
      "Ġwindows": 7399,
      "ĠMeg": 7400,
      "kered": 7401,
      "Ġaccent": 7402,
      "Ġ41": 7403,
      "Ġnorse": 7404,
      "flower": 7405,
      "ĠMacD": 7406,
      "Ġbuilt": 7407,
      "Ġcorks": 7408,
      "Ġcourting": 7409,
      "Ġ58": 7410,
      "Ġ59": 7411,
      "Ġsurely": 7412,
      "Ġmonument": 7413,
      "Ġpurse": 7414,
      "Ġgreatest": 7415,
      "Ġburrow": 7416,
      "ĠClose": 7417,
      "ground": 7418,
      "ammel": 7419,
      "ĠSea": 7420,
      "ĠSend": 7421,
      "Ġmission": 7422,
      "Ġschol": 7423,
      "Ġheavens": 7424,
      "uttered": 7425,
      "ĠLeon": 7426,
      "Ġether": 7427,
      "ĠTrist": 7428,
      "Ġevent": 7429,
      "oosed": 7430,
      "overed": 7431,
      "itional": 7432,
      "Ġturk": 7433,
      "Ġfolly": 7434,
      "Ġdoubling": 7435,
      "ĠAlways": 7436,
      "Ġsteal": 7437,
      "Ġveil": 7438,
      "Ġclever": 7439,
      "Ġumbr": 7440,
      "Ġairly": 7441,
      "Ġfaust": 7442,
      "Ġcommitt": 7443,
      "Ġmurk": 7444,
      "Ġkeeps": 7445,
      "auses": 7446,
      "Ġmorrow": 7447,
      "!!!": 7448,
      "Ġactive": 7449,
      "Ġhappen": 7450,
      "Ġmoving": 7451,
      "ribly": 7452,
      "Ġkindness": 7453,
      "Ġbowed": 7454,
      "Ġgently": 7455,
      "Ġundo": 7456,
      "Ġhurd": 7457,
      "Ġadded": 7458,
      "Ġaddress": 7459,
      "Ġscrap": 7460,
      "Ġscrub": 7461,
      "Ġscratch": 7462,
      "Ġpointing": 7463,
      "Ġbottles": 7464,
      "Ġdrops": 7465,
      "Ġrelig": 7466,
      "Ġtempor": 7467,
      "Ġinfin": 7468,
      "Ġpleasant": 7469,
      "Ġaffirm": 7470,
      "Ġdaily": 7471,
      "Ġoccup": 7472,
      "Ġchapel": 7473,
      "Ġ61": 7474,
      "Ġ62": 7475,
      "Ġwoods": 7476,
      "Ġwonderful": 7477,
      "Ġmistake": 7478,
      "Ġmembers": 7479,
      "ĠGlugg": 7480,
      "asket": 7481,
      "Ġpopular": 7482,
      "tending": 7483,
      "Ġraised": 7484,
      "Ġshortly": 7485,
      "Ġurge": 7486,
      "Ġblessing": 7487,
      "ogging": 7488,
      "Ġcontinued": 7489,
      "guard": 7490,
      "Ġmessage": 7491,
      "Ġstriking": 7492,
      "Ġconcer": 7493,
      "Ġestabl": 7494,
      "Ġopin": 7495,
      "Ġfortun": 7496,
      "semble": 7497,
      "Ġcounting": 7498,
      "ĠBurke": 7499,
      "ĠBurrus": 7500,
      "Ġstarted": 7501,
      "Ġhunter": 7502,
      "Ġmutton": 7503,
      "Ġsociety": 7504,
      "ĠFinne": 7505,
      "oughed": 7506,
      "Ġbuttons": 7507,
      "Ġpressed": 7508,
      "Ġivy": 7509,
      "Ġivory": 7510,
      "Ġcontract": 7511,
      "Ġsummer": 7512,
      "Ġabsol": 7513,
      "washed": 7514,
      "ĠMadame": 7515,
      "ĠHonour": 7516,
      "poise": 7517,
      "Ġlicensed": 7518,
      "ception": 7519,
      "Ġshadows": 7520,
      "ĠLucal": 7521,
      "Ġpictures": 7522,
      "Ġcrowd": 7523,
      "Ġideal": 7524,
      "Ġchampion": 7525,
      "Ġmajor": 7526,
      "Ġmajesty": 7527,
      "Ġutterly": 7528,
      "Ġfingers": 7529,
      "othered": 7530,
      "Ġ1132": 7531,
      "Ġfiery": 7532,
      "Ġaccompl": 7533,
      "Ġaccompan": 7534,
      "Ġhedge": 7535,
      "ĠHello": 7536,
      "Ġgracious": 7537,
      "Ġmasters": 7538,
      "ĠWalker": 7539,
      "Ġinnocent": 7540,
      "Ġcelest": 7541,
      "Ġcardinal": 7542,
      "keeper": 7543,
      "Ġissue": 7544,
      "Ġreceived": 7545,
      "Ġliquid": 7546,
      "ĠCorner": 7547,
      "ĠLimited": 7548,
      "ĠMagrath": 7549,
      "ography": 7550,
      "Ġcabbage": 7551,
      "Ġgossip": 7552,
      "Ġanimal": 7553,
      "Ġvirtue": 7554,
      "Ġbronze": 7555,
      "Ġpremises": 7556,
      "Ġdelivered": 7557,
      "Ġcycl": 7558,
      "Ġobjects": 7559,
      "ĠCaseous": 7560,
      "Ġjiminy": 7561,
      "Ġnaturally": 7562,
      "Ġweren": 7563,
      "ĠCoppinger": 7564,
      "ĠBrinabride": 7565,
      "!,": 7566,
      ".]": 7567,
      "35": 7568,
      "44": 7569,
      ":^": 7570,
      ":_": 7571,
      "=\"": 7572,
      "?^": 7573,
      "?),": 7574,
      "AT": 7575,
      "Ar": 7576,
      "CI": 7577,
      "GEN": 7578,
      "IV": 7579,
      "Item": 7580,
      "^-": 7581,
      "^.": 7582,
      "^-^": 7583,
      "ao": 7584,
      "afe": 7585,
      "aign": 7586,
      "bee": 7587,
      "bob": 7588,
      "balls": 7589,
      "belly": 7590,
      "boots": 7591,
      "borg": 7592,
      "cs": 7593,
      "cor": 7594,
      "core": 7595,
      "cop": 7596,
      "cant": 7597,
      "cake": 7598,
      "di": 7599,
      "dro": 7600,
      "dum": 7601,
      "dled": 7602,
      "dream": 7603,
      "eb": 7604,
      "eer": 7605,
      "eat": 7606,
      "even": 7607,
      "fin": 7608,
      "fit": 7609,
      "fet": 7610,
      "fry": 7611,
      "fare": 7612,
      "fact": 7613,
      "fox": 7614,
      "fired": 7615,
      "fields": 7616,
      "gos": 7617,
      "gang": 7618,
      "gets": 7619,
      "hol": 7620,
      "hist": 7621,
      "hams": 7622,
      "iop": 7623,
      "iens": 7624,
      "iery": 7625,
      "iants": 7626,
      "iations": 7627,
      "ji": 7628,
      "kish": 7629,
      "knees": 7630,
      "lat": 7631,
      "lot": 7632,
      "lum": 7633,
      "lick": 7634,
      "last": 7635,
      "lost": 7636,
      "liv": 7637,
      "lace": 7638,
      "loot": 7639,
      "lins": 7640,
      "laid": 7641,
      "life": 7642,
      "loop": 7643,
      "mis": 7644,
      "mand": 7645,
      "mant": 7646,
      "mail": 7647,
      "moon": 7648,
      "net": 7649,
      "nut": 7650,
      "nation": 7651,
      "oi": 7652,
      "oves": 7653,
      "pa": 7654,
      "pas": 7655,
      "pel": 7656,
      "pay": 7657,
      "page": 7658,
      "pipeline": 7659,
      "rn": 7660,
      "rit": 7661,
      "rad": 7662,
      "run": 7663,
      "rich": 7664,
      "rite": 7665,
      "ricks": 7666,
      "sin": 7667,
      "sen": 7668,
      "say": 7669,
      "tur": 7670,
      "tell": 7671,
      "tone": 7672,
      "times": 7673,
      "uen": 7674,
      "vo": 7675,
      "vat": 7676,
      "vir": 7677,
      "wit": 7678,
      "wick": 7679,
      "wear": 7680,
      "wife": 7681,
      "yj": 7682,
      "yk": 7683,
      "yan": 7684,
      "ych": 7685,
      "yard": 7686,
      "zo": 7687,
      "Ġ:": 7688,
      "Ġ}": 7689,
      "Ġtam": 7690,
      "Ġtent": 7691,
      "Ġtig": 7692,
      "Ġtast": 7693,
      "Ġtaw": 7694,
      "Ġtough": 7695,
      "Ġtitt": 7696,
      "Ġtittle": 7697,
      "Ġtrop": 7698,
      "Ġtarn": 7699,
      "Ġtables": 7700,
      "Ġtarr": 7701,
      "hea": 7702,
      "heres": 7703,
      "hens": 7704,
      "heads": 7705,
      "Ġae": 7706,
      "Ġaz": 7707,
      "Ġaer": 7708,
      "Ġaure": 7709,
      "Ġache": 7710,
      "Ġawn": 7711,
      "Ġastr": 7712,
      "Ġawhile": 7713,
      "Ġauction": 7714,
      "inh": 7715,
      "ini": 7716,
      "inas": 7717,
      "inus": 7718,
      "inated": 7719,
      "inently": 7720,
      "Ġok": 7721,
      "Ġoo": 7722,
      "Ġous": 7723,
      "Ġtheres": 7724,
      "Ġsand": 7725,
      "Ġsass": 7726,
      "Ġsilly": 7727,
      "Ġsyc": 7728,
      "Ġsaddle": 7729,
      "ndar": 7730,
      "Ġwes": 7731,
      "Ġwher": 7732,
      "Ġwire": 7733,
      "Ġwoll": 7734,
      "Ġwold": 7735,
      "Ġwins": 7736,
      "Ġwagg": 7737,
      "Ġwakes": 7738,
      "Ġwider": 7739,
      "Ġwretch": 7740,
      "Ġbin": 7741,
      "Ġbor": 7742,
      "Ġbard": 7743,
      "Ġbass": 7744,
      "Ġboll": 7745,
      "Ġbach": 7746,
      "Ġbats": 7747,
      "Ġbane": 7748,
      "Ġbawn": 7749,
      "Ġbanks": 7750,
      "Ġbened": 7751,
      "Ġbabb": 7752,
      "Ġbunch": 7753,
      "Ġbawl": 7754,
      "rene": 7755,
      "reys": 7756,
      "oucher": 7757,
      "Ġhan": 7758,
      "Ġhid": 7759,
      "Ġhies": 7760,
      "Ġhire": 7761,
      "Ġhark": 7762,
      "Ġhits": 7763,
      "Ġhitch": 7764,
      "Ġhoose": 7765,
      "Ġhips": 7766,
      "isse": 7767,
      "ision": 7768,
      "isies": 7769,
      "isure": 7770,
      "isky": 7771,
      "Ġfus": 7772,
      "Ġfost": 7773,
      "Ġfals": 7774,
      "Ġfunk": 7775,
      "Ġfives": 7776,
      "Ġfoots": 7777,
      "Ġfowl": 7778,
      "Ġfoster": 7779,
      "Ġmap": 7780,
      "Ġmood": 7781,
      "Ġmint": 7782,
      "Ġmater": 7783,
      "Ġmuff": 7784,
      "Ġmole": 7785,
      "Ġmutter": 7786,
      "Ġmales": 7787,
      "Ġmode": 7788,
      "Ġmidden": 7789,
      "Ġmuddle": 7790,
      "Ġmental": 7791,
      "esir": 7792,
      "esus": 7793,
      "atz": 7794,
      "atri": 7795,
      "atives": 7796,
      "itis": 7797,
      "itous": 7798,
      "itated": 7799,
      "itarian": 7800,
      "ingar": 7801,
      "ori": 7802,
      "oras": 7803,
      "Ġpow": 7804,
      "Ġpac": 7805,
      "Ġpse": 7806,
      "Ġpere": 7807,
      "Ġpry": 7808,
      "Ġpne": 7809,
      "Ġpans": 7810,
      "Ġpott": 7811,
      "Ġpiff": 7812,
      "Ġpunk": 7813,
      "Ġpants": 7814,
      "Ġpadd": 7815,
      "Ġpenn": 7816,
      "Ġpimp": 7817,
      "Ġpope": 7818,
      "Ġparent": 7819,
      "Ġcot": 7820,
      "Ġcac": 7821,
      "Ġcun": 7822,
      "Ġcig": 7823,
      "Ġcud": 7824,
      "Ġcake": 7825,
      "Ġcue": 7826,
      "Ġcens": 7827,
      "Ġcinn": 7828,
      "Ġcats": 7829,
      "Ġcudd": 7830,
      "Ġcald": 7831,
      "Ġcuts": 7832,
      "Ġcuddle": 7833,
      "Ġcottage": 7834,
      "oni": 7835,
      "onies": 7836,
      "onia": 7837,
      "aro": 7838,
      "aral": 7839,
      "ano": 7840,
      "anas": 7841,
      "anter": 7842,
      "enary": 7843,
      "enius": 7844,
      "Ġler": 7845,
      "Ġlis": 7846,
      "Ġlut": 7847,
      "Ġlag": 7848,
      "Ġlem": 7849,
      "Ġlown": 7850,
      "Ġlace": 7851,
      "Ġlark": 7852,
      "Ġlax": 7853,
      "Ġluk": 7854,
      "Ġlawn": 7855,
      "Ġlurch": 7856,
      "Ġlubber": 7857,
      "Ġlaird": 7858,
      "Ġdh": 7859,
      "Ġds": 7860,
      "Ġdat": 7861,
      "Ġdal": 7862,
      "Ġdir": 7863,
      "Ġdad": 7864,
      "Ġdong": 7865,
      "Ġdame": 7866,
      "Ġdink": 7867,
      "Ġdug": 7868,
      "Ġdans": 7869,
      "Ġdye": 7870,
      "Ġdane": 7871,
      "Ġdont": 7872,
      "Ġdumm": 7873,
      "Ġdigg": 7874,
      "Ġdames": 7875,
      "Ġduv": 7876,
      "Ġdandy": 7877,
      "Ġdeny": 7878,
      "Ġtoy": 7879,
      "Ġtoom": 7880,
      "Ġtoast": 7881,
      "asis": 7882,
      "asal": 7883,
      "Ġinit": 7884,
      "Ġinher": 7885,
      "Ġinqu": 7886,
      "Ġinex": 7887,
      "Ġheel": 7888,
      "Ġheave": 7889,
      "Ġhens": 7890,
      "lep": 7891,
      "lew": 7892,
      "leaf": 7893,
      "lebr": 7894,
      "lection": 7895,
      "Ġthim": 7896,
      "roth": 7897,
      "Ġnab": 7898,
      "Ġnest": 7899,
      "Ġnich": 7900,
      "Ġnub": 7901,
      "Ġnape": 7902,
      "Ġnuts": 7903,
      "Ġgan": 7904,
      "Ġgee": 7905,
      "Ġgest": 7906,
      "Ġgates": 7907,
      "Ġgutter": 7908,
      "Ġgrip": 7909,
      "Ġgander": 7910,
      "Ġgael": 7911,
      "Ġgasp": 7912,
      "Ġgorse": 7913,
      "icat": 7914,
      "ician": 7915,
      "icult": 7916,
      "owe": 7917,
      "owel": 7918,
      "owls": 7919,
      "alo": 7920,
      "alu": 7921,
      "alds": 7922,
      "stop": 7923,
      "step": 7924,
      "ela": 7925,
      "elike": 7926,
      "elagh": 7927,
      "ĠId": 7928,
      "ĠIll": 7929,
      "ĠIss": 7930,
      "imbs": 7931,
      "utation": 7932,
      "urry": 7933,
      "urity": 7934,
      "ĠAU": 7935,
      "ĠAst": 7936,
      "ĠAth": 7937,
      "ĠAven": 7938,
      "ĠAbr": 7939,
      "omed": 7940,
      "ometer": 7941,
      "Ġej": 7942,
      "Ġeman": 7943,
      "Ġecc": 7944,
      "ĠTull": 7945,
      "ĠTail": 7946,
      "ĠTalk": 7947,
      "aya": 7948,
      "Ġford": 7949,
      "Ġont": 7950,
      "adays": 7951,
      "acer": 7952,
      "amn": 7953,
      "amore": 7954,
      "ambles": 7955,
      "Ġbend": 7956,
      "Ġbeach": 7957,
      "ĠSon": 7958,
      "ĠSan": 7959,
      "ĠSel": 7960,
      "ĠSand": 7961,
      "ĠSul": 7962,
      "ĠSau": 7963,
      "ĠSink": 7964,
      "ĠSwe": 7965,
      "ĠSix": 7966,
      "ĠSuff": 7967,
      "ĠSax": 7968,
      "ĠSyl": 7969,
      "ĠSupp": 7970,
      "ĠSimply": 7971,
      "Ġud": 7972,
      "Ġwha": 7973,
      "Ġwhol": 7974,
      "Ġwhack": 7975,
      "Ġwhisp": 7976,
      "Ġwholes": 7977,
      "idu": 7978,
      "idual": 7979,
      "ĠMi": 7980,
      "ĠMed": 7981,
      "ĠMick": 7982,
      "ĠMak": 7983,
      "ĠMoll": 7984,
      "ĠMush": 7985,
      "ĠMagg": 7986,
      "ĠMerry": 7987,
      "ĠMorg": 7988,
      "ĠMaggy": 7989,
      "ĠMoore": 7990,
      "ĠMartin": 7991,
      "vell": 7992,
      "ĠHes": 7993,
      "ĠHan": 7994,
      "ĠHal": 7995,
      "ĠHoo": 7996,
      "ĠHard": 7997,
      "ĠHug": 7998,
      "ĠHair": 7999,
      "Ġasks": 8000,
      "Ġascend": 8001,
      "Ġrut": 8002,
      "Ġray": 8003,
      "Ġrick": 8004,
      "Ġrang": 8005,
      "Ġrug": 8006,
      "Ġrage": 8007,
      "Ġruddy": 8008,
      "chap": 8009,
      "chant": 8010,
      "ĠBen": 8011,
      "ĠBoth": 8012,
      "ĠBrew": 8013,
      "ĠBarn": 8014,
      "ĠBelle": 8015,
      "ĠBiddy": 8016,
      "ĠBrian": 8017,
      "ĠWa": 8018,
      "ĠWat": 8019,
      "ĠWil": 8020,
      "ĠWind": 8021,
      "ĠWare": 8022,
      "Ġstation": 8023,
      "Ġstink": 8024,
      "Ġstup": 8025,
      "Ġstair": 8026,
      "Ġstamp": 8027,
      "Ġstole": 8028,
      "Ġstrew": 8029,
      "Ġstops": 8030,
      "Ġstumble": 8031,
      "usc": 8032,
      "unty": 8033,
      "unks": 8034,
      "united": 8035,
      "ilk": 8036,
      "ilies": 8037,
      "ilias": 8038,
      "Ġallow": 8039,
      "Ġallab": 8040,
      "Ġallover": 8041,
      "Ġreb": 8042,
      "Ġrecl": 8043,
      "Ġreek": 8044,
      "Ġwashing": 8045,
      "anda": 8046,
      "ĠCO": 8047,
      "ĠCrom": 8048,
      "ĠCain": 8049,
      "ĠCod": 8050,
      "ĠCull": 8051,
      "ĠCass": 8052,
      "ĠCath": 8053,
      "ĠCarl": 8054,
      "riers": 8055,
      "appl": 8056,
      "ellow": 8057,
      "ersen": 8058,
      "agl": 8059,
      "agre": 8060,
      "agher": 8061,
      "agles": 8062,
      "Ġ('": 8063,
      "Ġlipp": 8064,
      "Ġliken": 8065,
      "ĠPun": 8066,
      "ĠPaw": 8067,
      "ĠPull": 8068,
      "ĠPure": 8069,
      "ĠPort": 8070,
      "ĠPict": 8071,
      "ĠPaul": 8072,
      "ĠPaddy": 8073,
      "ĠPlease": 8074,
      "ĠPRO": 8075,
      "cked": 8076,
      "Ġmein": 8077,
      "Ġmear": 8078,
      "Ġmeek": 8079,
      "Ġmeasure": 8080,
      "Ġmyr": 8081,
      "abar": 8082,
      "abelle": 8083,
      "ĠOx": 8084,
      "ĠOsc": 8085,
      "ĠOndt": 8086,
      "Ġsoap": 8087,
      "Ġsock": 8088,
      "thought": 8089,
      "uler": 8090,
      "ulant": 8091,
      "ulia": 8092,
      "ulence": 8093,
      "Ġshap": 8094,
      "Ġshown": 8095,
      "Ġshining": 8096,
      "ĠLou": 8097,
      "ĠLaz": 8098,
      "ĠLily": 8099,
      "ĠLower": 8100,
      "ĠLift": 8101,
      "ĠLuke": 8102,
      "ĠFu": 8103,
      "ĠFat": 8104,
      "ĠFear": 8105,
      "ĠFitz": 8106,
      "ĠFollow": 8107,
      "Ġkenn": 8108,
      "Ġkills": 8109,
      "olon": 8110,
      "olan": 8111,
      "oland": 8112,
      "olate": 8113,
      "ĠDj": 8114,
      "ĠDis": 8115,
      "ĠDee": 8116,
      "ĠDist": 8117,
      "ĠDie": 8118,
      "ĠDub": 8119,
      "ĠDark": 8120,
      "ĠDream": 8121,
      "ĠDonn": 8122,
      "osa": 8123,
      "oso": 8124,
      "osition": 8125,
      "quin": 8126,
      "qual": 8127,
      "quest": 8128,
      "ifl": 8129,
      "ifting": 8130,
      "ifying": 8131,
      "opher": 8132,
      "igo": 8133,
      "igence": 8134,
      "Ġva": 8135,
      "Ġvs": 8136,
      "Ġvine": 8137,
      "Ġvoy": 8138,
      "Ġvale": 8139,
      "Ġvamp": 8140,
      "Ġvener": 8141,
      "ĠThem": 8142,
      "Ġja": 8143,
      "Ġjing": 8144,
      "Ġjon": 8145,
      "Ġjour": 8146,
      "Ġjug": 8147,
      "Ġjung": 8148,
      "Ġjeal": 8149,
      "Ġjudge": 8150,
      "Ġjury": 8151,
      "ouring": 8152,
      "Ġchal": 8153,
      "Ġchill": 8154,
      "Ġchil": 8155,
      "Ġchore": 8156,
      "Ġchaw": 8157,
      "Ġchart": 8158,
      "Ġchaff": 8159,
      "Ġchaste": 8160,
      "Ġchairs": 8161,
      "ĠNat": 8162,
      "ĠNancy": 8163,
      "ĠGar": 8164,
      "ĠGay": 8165,
      "ĠGee": 8166,
      "ĠGob": 8167,
      "ĠGeneral": 8168,
      "Ġhaught": 8169,
      "ouses": 8170,
      "Ġweal": 8171,
      "Ġweighed": 8172,
      "emer": 8173,
      "emper": 8174,
      "iping": 8175,
      "Ġspy": 8176,
      "Ġspun": 8177,
      "Ġspind": 8178,
      "Ġspoor": 8179,
      "Ġspells": 8180,
      "astic": 8181,
      "Ġnoth": 8182,
      "Ġnoted": 8183,
      "Ġnotwith": 8184,
      "early": 8185,
      "ĠEast": 8186,
      "ĠEye": 8187,
      "istol": 8188,
      "istling": 8189,
      "istance": 8190,
      "Ġbutton": 8191
    },
    "merges": [
      [
        "Ġ",
        "t"
      ],
      [
        "h",
        "e"
      ],
      [
        "Ġ",
        "a"
      ],
      [
        "i",
        "n"
      ],
      [
        "Ġ",
        "o"
      ],
      [
        "Ġt",
        "he"
      ],
      [
        "Ġ",
        "s"
      ],
      [
        "e",
        "r"
      ],
      [
        "n",
        "d"
      ],
      [
        "Ġ",
        "w"
      ],
      [
        "Ġ",
        "b"
      ],
      [
        "r",
        "e"
      ],
      [
        "o",
        "u"
      ],
      [
        "Ġ",
        "h"
      ],
      [
        "i",
        "s"
      ],
      [
        "Ġ",
        "f"
      ],
      [
        "l",
        "l"
      ],
      [
        "Ġ",
        "m"
      ],
      [
        "Ġa",
        "nd"
      ],
      [
        "e",
        "s"
      ],
      [
        "Ġo",
        "f"
      ],
      [
        "a",
        "t"
      ],
      [
        "i",
        "t"
      ],
      [
        "in",
        "g"
      ],
      [
        "o",
        "r"
      ],
      [
        "Ġ",
        "p"
      ],
      [
        "Ġ",
        "c"
      ],
      [
        "o",
        "n"
      ],
      [
        "a",
        "r"
      ],
      [
        "a",
        "n"
      ],
      [
        "e",
        "n"
      ],
      [
        "e",
        "d"
      ],
      [
        "Ġ",
        "l"
      ],
      [
        "Ġ",
        "d"
      ],
      [
        "Ġt",
        "o"
      ],
      [
        "a",
        "s"
      ],
      [
        "Ġ",
        "in"
      ],
      [
        "Ġ",
        "he"
      ],
      [
        "l",
        "e"
      ],
      [
        "Ġt",
        "h"
      ],
      [
        "r",
        "o"
      ],
      [
        "Ġ",
        "n"
      ],
      [
        "Ġ",
        "g"
      ],
      [
        "Ġ",
        "Ċ"
      ],
      [
        "Ġ",
        "y"
      ],
      [
        "i",
        "c"
      ],
      [
        "o",
        "w"
      ],
      [
        "a",
        "l"
      ],
      [
        "e",
        "t"
      ],
      [
        "s",
        "t"
      ],
      [
        "e",
        "l"
      ],
      [
        "Ġh",
        "is"
      ],
      [
        "Ġ",
        "I"
      ],
      [
        "i",
        "m"
      ],
      [
        "u",
        "t"
      ],
      [
        "u",
        "r"
      ],
      [
        "Ġ",
        "A"
      ],
      [
        "Ġy",
        "ou"
      ],
      [
        "'",
        "s"
      ],
      [
        "i",
        "r"
      ],
      [
        "o",
        "m"
      ],
      [
        "o",
        "t"
      ],
      [
        "Ġ",
        "e"
      ],
      [
        "Ġ",
        "T"
      ],
      [
        "a",
        "y"
      ],
      [
        "Ġf",
        "or"
      ],
      [
        "Ġo",
        "n"
      ],
      [
        "a",
        "d"
      ],
      [
        "a",
        "c"
      ],
      [
        "g",
        "h"
      ],
      [
        "a",
        "m"
      ],
      [
        "Ġb",
        "e"
      ],
      [
        "Ġ",
        "S"
      ],
      [
        "Ġ",
        "u"
      ],
      [
        "it",
        "h"
      ],
      [
        "l",
        "d"
      ],
      [
        "Ġw",
        "h"
      ],
      [
        "i",
        "d"
      ],
      [
        "o",
        "o"
      ],
      [
        "Ġw",
        "ith"
      ],
      [
        "v",
        "er"
      ],
      [
        "Ġ",
        "M"
      ],
      [
        "s",
        "e"
      ],
      [
        "u",
        "m"
      ],
      [
        "t",
        "er"
      ],
      [
        "l",
        "y"
      ],
      [
        "v",
        "e"
      ],
      [
        "Ġ",
        "H"
      ],
      [
        "Ġa",
        "s"
      ],
      [
        "Ġ",
        "r"
      ],
      [
        "i",
        "ll"
      ],
      [
        "c",
        "h"
      ],
      [
        "Ġ",
        "B"
      ],
      [
        "Ġth",
        "at"
      ],
      [
        "k",
        "e"
      ],
      [
        "Ġ",
        "W"
      ],
      [
        "Ġs",
        "t"
      ],
      [
        "u",
        "s"
      ],
      [
        "u",
        "n"
      ],
      [
        "i",
        "l"
      ],
      [
        "Ġ",
        "is"
      ],
      [
        "en",
        "t"
      ],
      [
        "Ġa",
        "ll"
      ],
      [
        "a",
        "ll"
      ],
      [
        "Ġ",
        "it"
      ],
      [
        "i",
        "on"
      ],
      [
        "Ġ",
        "re"
      ],
      [
        "Ġw",
        "as"
      ],
      [
        "he",
        "r"
      ],
      [
        "a",
        "nd"
      ],
      [
        "Ġ",
        "C"
      ],
      [
        "gh",
        "t"
      ],
      [
        "r",
        "i"
      ],
      [
        "a",
        "p"
      ],
      [
        "e",
        "ll"
      ],
      [
        "er",
        "s"
      ],
      [
        "a",
        "g"
      ],
      [
        "Ġ",
        "("
      ],
      [
        "Ġhe",
        "r"
      ],
      [
        "Ġl",
        "i"
      ],
      [
        "Ġ",
        "P"
      ],
      [
        "ro",
        "m"
      ],
      [
        "c",
        "k"
      ],
      [
        "Ġm",
        "e"
      ],
      [
        "Ġm",
        "y"
      ],
      [
        "a",
        "b"
      ],
      [
        "Ġ",
        "O"
      ],
      [
        "Ġs",
        "o"
      ],
      [
        "c",
        "e"
      ],
      [
        "Ġb",
        "y"
      ],
      [
        "t",
        "h"
      ],
      [
        "u",
        "l"
      ],
      [
        "Ġs",
        "h"
      ],
      [
        "Ġ",
        "L"
      ],
      [
        "Ġ",
        "F"
      ],
      [
        "Ġa",
        "n"
      ],
      [
        "Ġ",
        "k"
      ],
      [
        "Ġo",
        "r"
      ],
      [
        "o",
        "re"
      ],
      [
        "o",
        "l"
      ],
      [
        "Ġ",
        "D"
      ],
      [
        "o",
        "s"
      ],
      [
        "Ġw",
        "he"
      ],
      [
        "Ġf",
        "rom"
      ],
      [
        "Ġa",
        "t"
      ],
      [
        "q",
        "u"
      ],
      [
        "i",
        "f"
      ],
      [
        "e",
        "e"
      ],
      [
        "es",
        "t"
      ],
      [
        "o",
        "p"
      ],
      [
        "i",
        "g"
      ],
      [
        "Ġh",
        "im"
      ],
      [
        "a",
        "in"
      ],
      [
        "Ġ",
        "v"
      ],
      [
        "Ġyou",
        "r"
      ],
      [
        "ĠT",
        "he"
      ],
      [
        "ĠA",
        "nd"
      ],
      [
        "Ġ",
        "j"
      ],
      [
        "ou",
        "r"
      ],
      [
        "Ġc",
        "h"
      ],
      [
        "es",
        "s"
      ],
      [
        "Ġ",
        "N"
      ],
      [
        "Ġ",
        "G"
      ],
      [
        "ic",
        "k"
      ],
      [
        "Ġu",
        "p"
      ],
      [
        "Ġ",
        "â"
      ],
      [
        "Ġh",
        "a"
      ],
      [
        "an",
        "t"
      ],
      [
        "i",
        "ght"
      ],
      [
        "Ġâ",
        "Ģ"
      ],
      [
        "ĠâĢ",
        "Ķ"
      ],
      [
        "ou",
        "s"
      ],
      [
        "i",
        "es"
      ],
      [
        "Ġthe",
        "ir"
      ],
      [
        "Ġw",
        "e"
      ],
      [
        "e",
        "m"
      ],
      [
        "i",
        "p"
      ],
      [
        "a",
        "k"
      ],
      [
        "om",
        "e"
      ],
      [
        "c",
        "t"
      ],
      [
        "Ġs",
        "p"
      ],
      [
        "on",
        "g"
      ],
      [
        "ou",
        "ld"
      ],
      [
        "as",
        "t"
      ],
      [
        "a",
        "w"
      ],
      [
        "o",
        "d"
      ],
      [
        "Ġn",
        "ot"
      ],
      [
        "e",
        "ar"
      ],
      [
        "ac",
        "k"
      ],
      [
        "Ġ",
        "E"
      ],
      [
        "ar",
        "d"
      ],
      [
        "in",
        "d"
      ],
      [
        "is",
        "t"
      ],
      [
        "Ġo",
        "ur"
      ],
      [
        "Ġb",
        "ut"
      ],
      [
        "u",
        "d"
      ],
      [
        "er",
        "e"
      ],
      [
        "Ġs",
        "he"
      ],
      [
        "Ġb",
        "l"
      ],
      [
        "a",
        "v"
      ],
      [
        "r",
        "y"
      ],
      [
        "Ġs",
        "u"
      ],
      [
        "ou",
        "t"
      ],
      [
        "Ġp",
        "l"
      ],
      [
        "on",
        "e"
      ],
      [
        "oo",
        "d"
      ],
      [
        "Ġ",
        "R"
      ],
      [
        "Ġo",
        "ut"
      ],
      [
        "Ġwh",
        "o"
      ],
      [
        "o",
        "st"
      ],
      [
        "ar",
        "t"
      ],
      [
        "Ġl",
        "e"
      ],
      [
        "Ġthe",
        "y"
      ],
      [
        "re",
        "s"
      ],
      [
        "u",
        "st"
      ],
      [
        "Ġd",
        "e"
      ],
      [
        "Ġd",
        "o"
      ],
      [
        "u",
        "ll"
      ],
      [
        "Ġs",
        "e"
      ],
      [
        "Ġon",
        "e"
      ],
      [
        "in",
        "e"
      ],
      [
        "Ġwhe",
        "n"
      ],
      [
        "i",
        "e"
      ],
      [
        "ou",
        "nd"
      ],
      [
        "f",
        "f"
      ],
      [
        "Ġn",
        "e"
      ],
      [
        "as",
        "s"
      ],
      [
        "an",
        "g"
      ],
      [
        "i",
        "v"
      ],
      [
        "is",
        "h"
      ],
      [
        "a",
        "u"
      ],
      [
        "n",
        "e"
      ],
      [
        "ou",
        "gh"
      ],
      [
        "at",
        "ion"
      ],
      [
        "Ġt",
        "w"
      ],
      [
        "Ġa",
        "l"
      ],
      [
        "b",
        "l"
      ],
      [
        "Ġt",
        "r"
      ],
      [
        "ow",
        "n"
      ],
      [
        "a",
        "re"
      ],
      [
        "Ġli",
        "ke"
      ],
      [
        "a",
        "ke"
      ],
      [
        "nd",
        "er"
      ],
      [
        "ĠT",
        "h"
      ],
      [
        "Ġ",
        "ro"
      ],
      [
        "t",
        "y"
      ],
      [
        "Ġ",
        "Y"
      ],
      [
        "am",
        "e"
      ],
      [
        "Ġf",
        "l"
      ],
      [
        "Ġc",
        "on"
      ],
      [
        "Ġ",
        "J"
      ],
      [
        "in",
        "k"
      ],
      [
        "ic",
        "h"
      ],
      [
        "Ġ",
        "qu"
      ],
      [
        "Ġo",
        "ld"
      ],
      [
        "ac",
        "e"
      ],
      [
        "Ġth",
        "is"
      ],
      [
        "Ġa",
        "b"
      ],
      [
        "Ġha",
        "ve"
      ],
      [
        "Ġa",
        "re"
      ],
      [
        "at",
        "e"
      ],
      [
        "Ġl",
        "o"
      ],
      [
        "u",
        "e"
      ],
      [
        "!",
        ")"
      ],
      [
        "p",
        "p"
      ],
      [
        "u",
        "re"
      ],
      [
        "o",
        "y"
      ],
      [
        "ing",
        "s"
      ],
      [
        "Ġa",
        "m"
      ],
      [
        "re",
        "e"
      ],
      [
        "ĠW",
        "h"
      ],
      [
        "t",
        "s"
      ],
      [
        "Ġu",
        "n"
      ],
      [
        "o",
        "g"
      ],
      [
        "Ġe",
        "ver"
      ],
      [
        "oo",
        "k"
      ],
      [
        "Ġm",
        "an"
      ],
      [
        "i",
        "le"
      ],
      [
        "Ġa",
        "r"
      ],
      [
        "Ġc",
        "l"
      ],
      [
        "Ġn",
        "o"
      ],
      [
        "Ġb",
        "r"
      ],
      [
        "i",
        "b"
      ],
      [
        "id",
        "e"
      ],
      [
        "Ġa",
        "f"
      ],
      [
        "ro",
        "w"
      ],
      [
        "Ġg",
        "r"
      ],
      [
        "Ġthe",
        "re"
      ],
      [
        "s",
        "el"
      ],
      [
        "im",
        "e"
      ],
      [
        "u",
        "ck"
      ],
      [
        "is",
        "s"
      ],
      [
        "g",
        "e"
      ],
      [
        "t",
        "o"
      ],
      [
        "Ġc",
        "o"
      ],
      [
        "Ġw",
        "ill"
      ],
      [
        "Ġh",
        "ow"
      ],
      [
        "Ġu",
        "s"
      ],
      [
        ".",
        "'"
      ],
      [
        "u",
        "b"
      ],
      [
        "or",
        "d"
      ],
      [
        "Ġe",
        "x"
      ],
      [
        "Ġs",
        "c"
      ],
      [
        "ay",
        "s"
      ],
      [
        "Ġ",
        "K"
      ],
      [
        "p",
        "er"
      ],
      [
        "Ġp",
        "r"
      ],
      [
        "it",
        "t"
      ],
      [
        "Ġwh",
        "at"
      ],
      [
        "Ġp",
        "ro"
      ],
      [
        "Ġk",
        "n"
      ],
      [
        "Ġs",
        "w"
      ],
      [
        "Ġc",
        "om"
      ],
      [
        "Ġg",
        "o"
      ],
      [
        "Ġw",
        "ere"
      ],
      [
        "i",
        "ve"
      ],
      [
        "it",
        "e"
      ],
      [
        "Ġ",
        "if"
      ],
      [
        "Ġn",
        "ow"
      ],
      [
        "Ġaf",
        "ter"
      ],
      [
        "Ġp",
        "o"
      ],
      [
        "l",
        "es"
      ],
      [
        "t",
        "her"
      ],
      [
        "u",
        "g"
      ],
      [
        "Ġh",
        "ad"
      ],
      [
        "ĠH",
        "e"
      ],
      [
        "i",
        "re"
      ],
      [
        "u",
        "p"
      ],
      [
        "Ġw",
        "ould"
      ],
      [
        "ar",
        "k"
      ],
      [
        "m",
        "an"
      ],
      [
        "Ġthe",
        "m"
      ],
      [
        "en",
        "s"
      ],
      [
        "Ġwhe",
        "re"
      ],
      [
        "p",
        "e"
      ],
      [
        "t",
        "e"
      ],
      [
        "Ġo",
        "ver"
      ],
      [
        "um",
        "p"
      ],
      [
        "Ġa",
        "g"
      ],
      [
        "o",
        "ck"
      ],
      [
        "all",
        "y"
      ],
      [
        "c",
        "he"
      ],
      [
        "b",
        "er"
      ],
      [
        "i",
        "an"
      ],
      [
        "Ġ",
        "^"
      ],
      [
        "ic",
        "e"
      ],
      [
        "Ġf",
        "e"
      ],
      [
        "o",
        "se"
      ],
      [
        "i",
        "a"
      ],
      [
        "o",
        "ll"
      ],
      [
        "Ġs",
        "ee"
      ],
      [
        "ab",
        "le"
      ],
      [
        "at",
        "h"
      ],
      [
        "it",
        "y"
      ],
      [
        "Ġof",
        "f"
      ],
      [
        "a",
        "ir"
      ],
      [
        "a",
        "h"
      ],
      [
        "in",
        "n"
      ],
      [
        "Ġwh",
        "ich"
      ],
      [
        "sel",
        "f"
      ],
      [
        ".'",
        "^"
      ],
      [
        "or",
        "n"
      ],
      [
        "a",
        "ve"
      ],
      [
        "s",
        "h"
      ],
      [
        "v",
        "en"
      ],
      [
        "ou",
        "n"
      ],
      [
        "an",
        "k"
      ],
      [
        "a",
        "il"
      ],
      [
        "Ġp",
        "e"
      ],
      [
        "o",
        "ot"
      ],
      [
        "el",
        "y"
      ],
      [
        "or",
        "t"
      ],
      [
        "Ġc",
        "an"
      ],
      [
        "f",
        "t"
      ],
      [
        "Ġth",
        "r"
      ],
      [
        "i",
        "ous"
      ],
      [
        "o",
        "b"
      ],
      [
        "o",
        "ld"
      ],
      [
        "on",
        "s"
      ],
      [
        "'",
        "t"
      ],
      [
        "e",
        "p"
      ],
      [
        "l",
        "ing"
      ],
      [
        "Ġh",
        "as"
      ],
      [
        "Ġs",
        "l"
      ],
      [
        "'",
        "ll"
      ],
      [
        "Ġ",
        "V"
      ],
      [
        "Ġs",
        "ay"
      ],
      [
        "ur",
        "n"
      ],
      [
        "ĠB",
        "ut"
      ],
      [
        "ag",
        "e"
      ],
      [
        "o",
        "nd"
      ],
      [
        "ac",
        "h"
      ],
      [
        "Ġu",
        "nder"
      ],
      [
        "Ġ",
        "en"
      ],
      [
        "an",
        "s"
      ],
      [
        "Ġ",
        "U"
      ],
      [
        "in",
        "s"
      ],
      [
        "o",
        "k"
      ],
      [
        "Ġd",
        "own"
      ],
      [
        "ir",
        "st"
      ],
      [
        "a",
        "id"
      ],
      [
        "f",
        "e"
      ],
      [
        "Ġm",
        "ay"
      ],
      [
        "Ġm",
        "ore"
      ],
      [
        "Ġtw",
        "o"
      ],
      [
        "re",
        "d"
      ],
      [
        "is",
        "e"
      ],
      [
        "p",
        "l"
      ],
      [
        "Ġab",
        "out"
      ],
      [
        "t",
        "he"
      ],
      [
        "i",
        "gh"
      ],
      [
        "ar",
        "s"
      ],
      [
        "ad",
        "e"
      ],
      [
        "en",
        "ce"
      ],
      [
        "Ġt",
        "ime"
      ],
      [
        "c",
        "c"
      ],
      [
        "as",
        "e"
      ],
      [
        "Ġg",
        "re"
      ],
      [
        "f",
        "ore"
      ],
      [
        "Ġp",
        "er"
      ],
      [
        "ĠS",
        "h"
      ],
      [
        "Ġg",
        "ood"
      ],
      [
        "ter",
        "s"
      ],
      [
        "i",
        "ld"
      ],
      [
        "Ġt",
        "ill"
      ],
      [
        "ar",
        "y"
      ],
      [
        "Ġw",
        "or"
      ],
      [
        "Ġd",
        "r"
      ],
      [
        "Ġthr",
        "ough"
      ],
      [
        "an",
        "ce"
      ],
      [
        "Ġc",
        "r"
      ],
      [
        "ĠA",
        "n"
      ],
      [
        "Ġl",
        "et"
      ],
      [
        "in",
        "t"
      ],
      [
        "Ġ",
        "'"
      ],
      [
        "Ġs",
        "ome"
      ],
      [
        "ĠI",
        "t"
      ],
      [
        "v",
        "es"
      ],
      [
        "Ġst",
        "r"
      ],
      [
        "os",
        "s"
      ],
      [
        "Ġ",
        ","
      ],
      [
        "a",
        "le"
      ],
      [
        "w",
        "e"
      ],
      [
        "Ġwh",
        "ile"
      ],
      [
        "ĠY",
        "ou"
      ],
      [
        "p",
        "t"
      ],
      [
        "Ġa",
        "d"
      ],
      [
        "he",
        "d"
      ],
      [
        "Ġkn",
        "ow"
      ],
      [
        "b",
        "e"
      ],
      [
        "Ġs",
        "m"
      ],
      [
        "er",
        "y"
      ],
      [
        "Ġg",
        "l"
      ],
      [
        "Ġf",
        "irst"
      ],
      [
        "Ġp",
        "re"
      ],
      [
        "ap",
        "p"
      ],
      [
        "s",
        "s"
      ],
      [
        "u",
        "nd"
      ],
      [
        "i",
        "x"
      ],
      [
        "am",
        "p"
      ],
      [
        "Ġan",
        "y"
      ],
      [
        ".",
        "^"
      ],
      [
        "Ġ",
        "ver"
      ],
      [
        "Ġh",
        "and"
      ],
      [
        "Ġto",
        "o"
      ],
      [
        "Ġthe",
        "n"
      ],
      [
        "ĠS",
        "o"
      ],
      [
        "b",
        "le"
      ],
      [
        "l",
        "ed"
      ],
      [
        "t",
        "ing"
      ],
      [
        "Ġbe",
        "fore"
      ],
      [
        "ig",
        "n"
      ],
      [
        "Ġever",
        "y"
      ],
      [
        "w",
        "n"
      ],
      [
        "Ġb",
        "et"
      ],
      [
        "f",
        "ul"
      ],
      [
        "a",
        "f"
      ],
      [
        "m",
        "e"
      ],
      [
        "oo",
        "l"
      ],
      [
        "c",
        "l"
      ],
      [
        "g",
        "g"
      ],
      [
        "at",
        "ed"
      ],
      [
        "ĠS",
        "t"
      ],
      [
        "a",
        "z"
      ],
      [
        "i",
        "al"
      ],
      [
        "or",
        "y"
      ],
      [
        "ot",
        "h"
      ],
      [
        "p",
        "h"
      ],
      [
        "Ġw",
        "ell"
      ],
      [
        "un",
        "g"
      ],
      [
        "d",
        "y"
      ],
      [
        "ou",
        "se"
      ],
      [
        "at",
        "her"
      ],
      [
        "itt",
        "le"
      ],
      [
        "an",
        "n"
      ],
      [
        "us",
        "h"
      ],
      [
        "Ġ",
        "im"
      ],
      [
        "Ġd",
        "id"
      ],
      [
        "i",
        "ly"
      ],
      [
        "at",
        "er"
      ],
      [
        "res",
        "s"
      ],
      [
        "Ġhe",
        "re"
      ],
      [
        "ot",
        "t"
      ],
      [
        "y",
        "e"
      ],
      [
        "Ġc",
        "ould"
      ],
      [
        "Ġin",
        "to"
      ],
      [
        "ĠF",
        "or"
      ],
      [
        "Ġw",
        "ay"
      ],
      [
        "as",
        "h"
      ],
      [
        "Ġ",
        "i"
      ],
      [
        "et",
        "h"
      ],
      [
        "Ġag",
        "ain"
      ],
      [
        "y",
        "s"
      ],
      [
        "Ġf",
        "r"
      ],
      [
        "n",
        "ess"
      ],
      [
        "Ġh",
        "o"
      ],
      [
        "a",
        "un"
      ],
      [
        "i",
        "ed"
      ],
      [
        "Ġb",
        "ack"
      ],
      [
        "ou",
        "ght"
      ],
      [
        "at",
        "t"
      ],
      [
        "an",
        "c"
      ],
      [
        "u",
        "ff"
      ],
      [
        "ee",
        "p"
      ],
      [
        "or",
        "s"
      ],
      [
        "al",
        "k"
      ],
      [
        "w",
        "h"
      ],
      [
        "Ġbe",
        "en"
      ],
      [
        "Ġt",
        "ell"
      ],
      [
        "Ġo",
        "ther"
      ],
      [
        "Ġn",
        "ight"
      ],
      [
        "u",
        "ch"
      ],
      [
        "Ġl",
        "ong"
      ],
      [
        "ĠI",
        "n"
      ],
      [
        "m",
        "er"
      ],
      [
        "v",
        "ing"
      ],
      [
        "Ġ",
        "."
      ],
      [
        "Ġ",
        "1"
      ],
      [
        "d",
        "er"
      ],
      [
        "u",
        "c"
      ],
      [
        "m",
        "ent"
      ],
      [
        "o",
        "on"
      ],
      [
        "Ġb",
        "ro"
      ],
      [
        "Ġy",
        "e"
      ],
      [
        "o",
        "h"
      ],
      [
        "ot",
        "her"
      ],
      [
        "k",
        "s"
      ],
      [
        "o",
        "c"
      ],
      [
        "at",
        "s"
      ],
      [
        "ĠW",
        "he"
      ],
      [
        "ak",
        "ing"
      ],
      [
        "Ġne",
        "ver"
      ],
      [
        "f",
        "or"
      ],
      [
        "w",
        "ay"
      ],
      [
        "Ġl",
        "ook"
      ],
      [
        "ac",
        "t"
      ],
      [
        "ĠB",
        "e"
      ],
      [
        "ĠW",
        "e"
      ],
      [
        "i",
        "z"
      ],
      [
        "et",
        "s"
      ],
      [
        "b",
        "r"
      ],
      [
        "n",
        "y"
      ],
      [
        "Ġe",
        "ar"
      ],
      [
        "Ġup",
        "on"
      ],
      [
        "Ġc",
        "ome"
      ],
      [
        "Ġ",
        "er"
      ],
      [
        "Ġt",
        "e"
      ],
      [
        "Ġf",
        "our"
      ],
      [
        "i",
        "ke"
      ],
      [
        "Ġc",
        "he"
      ],
      [
        "ĠC",
        "h"
      ],
      [
        "i",
        "k"
      ],
      [
        "an",
        "e"
      ],
      [
        "ĠA",
        "r"
      ],
      [
        "Ġth",
        "ree"
      ],
      [
        "Ġ",
        "ke"
      ],
      [
        "Ġb",
        "re"
      ],
      [
        "i",
        "er"
      ],
      [
        "n",
        "g"
      ],
      [
        "Ġit",
        "s"
      ],
      [
        "oun",
        "t"
      ],
      [
        "l",
        "and"
      ],
      [
        "p",
        "s"
      ],
      [
        "at",
        "ter"
      ],
      [
        "ion",
        "s"
      ],
      [
        "Ġp",
        "le"
      ],
      [
        "o",
        "le"
      ],
      [
        "Ġm",
        "ar"
      ],
      [
        "um",
        "b"
      ],
      [
        "Ġr",
        "ound"
      ],
      [
        "a",
        "x"
      ],
      [
        "o",
        "e"
      ],
      [
        "Ġb",
        "el"
      ],
      [
        "ĠA",
        "ll"
      ],
      [
        "^",
        "^"
      ],
      [
        "o",
        "x"
      ],
      [
        "Ġ",
        "el"
      ],
      [
        "Ġc",
        "ur"
      ],
      [
        "'",
        "re"
      ],
      [
        "Ġp",
        "art"
      ],
      [
        "ag",
        "g"
      ],
      [
        "Ġl",
        "ittle"
      ],
      [
        "ĠWh",
        "at"
      ],
      [
        "ou",
        "l"
      ],
      [
        "it",
        "s"
      ],
      [
        "al",
        "s"
      ],
      [
        "e",
        "y"
      ],
      [
        "Ġs",
        "n"
      ],
      [
        "on",
        "t"
      ],
      [
        "Ġst",
        "ill"
      ],
      [
        "Ġ",
        "2"
      ],
      [
        "Ġo",
        "wn"
      ],
      [
        "Ġw",
        "r"
      ],
      [
        "ĠA",
        "s"
      ],
      [
        "um",
        "m"
      ],
      [
        "'",
        "d"
      ],
      [
        "ic",
        "t"
      ],
      [
        "el",
        "s"
      ],
      [
        "ri",
        "e"
      ],
      [
        "us",
        "s"
      ],
      [
        "ard",
        "s"
      ],
      [
        "et",
        "t"
      ],
      [
        "r",
        "a"
      ],
      [
        "Ġhe",
        "ar"
      ],
      [
        "ow",
        "s"
      ],
      [
        ")",
        ","
      ],
      [
        "d",
        "s"
      ],
      [
        "ĠTh",
        "at"
      ],
      [
        "Ġd",
        "is"
      ],
      [
        "ĠM",
        "r"
      ],
      [
        "ĠH",
        "ow"
      ],
      [
        "Ġsu",
        "ch"
      ],
      [
        "d",
        "e"
      ],
      [
        "m",
        "en"
      ],
      [
        "Ġa",
        "pp"
      ],
      [
        "Ġc",
        "all"
      ],
      [
        "Ġj",
        "ust"
      ],
      [
        "in",
        "ce"
      ],
      [
        "Ġon",
        "ly"
      ],
      [
        "Ġs",
        "k"
      ],
      [
        "Ġm",
        "ost"
      ],
      [
        "Ġm",
        "ade"
      ],
      [
        "Ġhim",
        "self"
      ],
      [
        "w",
        "ays"
      ],
      [
        "Ġth",
        "ose"
      ],
      [
        "Ġbe",
        "h"
      ],
      [
        "ĠB",
        "r"
      ],
      [
        "Ġre",
        "m"
      ],
      [
        "Ġsh",
        "all"
      ],
      [
        "m",
        "s"
      ],
      [
        "o",
        "v"
      ],
      [
        "p",
        "le"
      ],
      [
        "re",
        "am"
      ],
      [
        "ĠS",
        "he"
      ],
      [
        "Ġf",
        "ar"
      ],
      [
        "at",
        "ch"
      ],
      [
        "Ġe",
        "nd"
      ],
      [
        "Ġf",
        "ore"
      ],
      [
        "le",
        "y"
      ],
      [
        "Ġth",
        "ink"
      ],
      [
        "id",
        "d"
      ],
      [
        "ain",
        "t"
      ],
      [
        "Ġt",
        "ri"
      ],
      [
        "Ġp",
        "ar"
      ],
      [
        "Ġd",
        "ay"
      ],
      [
        "ent",
        "s"
      ],
      [
        "ear",
        "s"
      ],
      [
        "k",
        "ing"
      ],
      [
        "Ġl",
        "ad"
      ],
      [
        "ĠW",
        "ith"
      ],
      [
        "i",
        "el"
      ],
      [
        "Ġf",
        "ull"
      ],
      [
        "im",
        "es"
      ],
      [
        "Ġbe",
        "ing"
      ],
      [
        "b",
        "y"
      ],
      [
        "i",
        "ver"
      ],
      [
        "ow",
        "er"
      ],
      [
        "y",
        "m"
      ],
      [
        "Ġh",
        "al"
      ],
      [
        "Ġbe",
        "c"
      ],
      [
        "Ġl",
        "ast"
      ],
      [
        "row",
        "n"
      ],
      [
        "he",
        "s"
      ],
      [
        "Ġm",
        "ake"
      ],
      [
        "Ġwho",
        "le"
      ],
      [
        "o",
        "f"
      ],
      [
        "Ġ",
        "z"
      ],
      [
        "Ġw",
        "ar"
      ],
      [
        "Ġe",
        "m"
      ],
      [
        "ip",
        "p"
      ],
      [
        "au",
        "gh"
      ],
      [
        "i",
        "us"
      ],
      [
        "Ġw",
        "ord"
      ],
      [
        "Ġb",
        "ar"
      ],
      [
        "t",
        "r"
      ],
      [
        "Ġs",
        "ame"
      ],
      [
        "Ġm",
        "ight"
      ],
      [
        "Ġm",
        "ust"
      ],
      [
        "e",
        "ct"
      ],
      [
        "re",
        "n"
      ],
      [
        "if",
        "f"
      ],
      [
        "o",
        "ve"
      ],
      [
        "s",
        "c"
      ],
      [
        "Ġb",
        "o"
      ],
      [
        "ĠT",
        "o"
      ],
      [
        "ud",
        "d"
      ],
      [
        "Ġp",
        "h"
      ],
      [
        "on",
        "n"
      ],
      [
        "Ġth",
        "an"
      ],
      [
        "om",
        "an"
      ],
      [
        "ĠTh",
        "is"
      ],
      [
        "ug",
        "g"
      ],
      [
        "Ġver",
        "y"
      ],
      [
        "l",
        "s"
      ],
      [
        "l",
        "ess"
      ],
      [
        "at",
        "es"
      ],
      [
        "Ġp",
        "ass"
      ],
      [
        "Ġli",
        "ght"
      ],
      [
        "g",
        "et"
      ],
      [
        "Ġs",
        "al"
      ],
      [
        "ou",
        "th"
      ],
      [
        "ic",
        "al"
      ],
      [
        "Ġe",
        "ven"
      ],
      [
        "Ġlo",
        "ve"
      ],
      [
        "Ġh",
        "op"
      ],
      [
        "st",
        "er"
      ],
      [
        "our",
        "s"
      ],
      [
        "au",
        "se"
      ],
      [
        "n",
        "ing"
      ],
      [
        "re",
        "t"
      ],
      [
        "Ġf",
        "ell"
      ],
      [
        "Ġc",
        "ar"
      ],
      [
        "ap",
        "s"
      ],
      [
        "we",
        "en"
      ],
      [
        "m",
        "on"
      ],
      [
        "at",
        "ing"
      ],
      [
        "ull",
        "y"
      ],
      [
        "Ġt",
        "urn"
      ],
      [
        "Ġs",
        "aid"
      ],
      [
        "Ġw",
        "ind"
      ],
      [
        "Ġb",
        "oy"
      ],
      [
[...]
