{
  "version": "1.0",
  "truncation": null,
  "padding": null,
  "added_tokens": [
    {
      "id": 0,
      "content": "<|endoftext|>",
      "single_word": false,
      "lstrip": false,
      "rstrip": false,
      "normalized": false,
      "special": true
    }
  ],
  "normalizer": null,
  "pre_tokenizer": {
    "type": "ByteLevel",
    "add_prefix_space": true,
    "trim_offsets": true,
    "use_regex": true
  },
  "post_processor": {
    "type": "ByteLevel",
    "add_prefix_space": true,
    "trim_offsets": false,
    "use_regex": true
  },
  "decoder": {
    "type": "ByteLevel",
    "add_prefix_space": true,
    "trim_offsets": true,
    "use_regex": true
  },
  "model": {
    "type": "BPE",
    "dropout": null,
    "unk_token": null,
    "continuing_subword_prefix": null,
    "end_of_word_suffix": null,
    "fuse_unk": false,
    "byte_fallback": false,
    "ignore_merges": false,
    "vocab": {
      "<|endoftext|>": 0,
      "!": 1,
      "\"": 2,
      "#": 3,
      "$": 4,
      "%": 5,
      "&": 6,
      "'": 7,
      "(": 8,
      ")": 9,
      "*": 10,
      "+": 11,
      ",": 12,
      "-": 13,
      ".": 14,
      "/": 15,
      "0": 16,
      "1": 17,
      "2": 18,
      "3": 19,
      "4": 20,
      "5": 21,
      "6": 22,
      "7": 23,
      "8": 24,
      "9": 25,
      ":": 26,
      ";": 27,
      "<": 28,
      "=": 29,
      ">": 30,
      "?": 31,
      "@": 32,
      "A": 33,
      "B": 34,
      "C": 35,
      "D": 36,
      "E": 37,
      "F": 38,
      "G": 39,
      "H": 40,
      "I": 41,
      "J": 42,
      "K": 43,
      "L": 44,
      "M": 45,
      "N": 46,
      "O": 47,
      "P": 48,
      "Q": 49,
      "R": 50,
      "S": 51,
      "T": 52,
      "U": 53,
      "V": 54,
      "W": 55,
      "X": 56,
      "Y": 57,
      "Z": 58,
      "[": 59,
      "\\": 60,
      "]": 61,
      "^": 62,
      "_": 63,
      "`": 64,
      "a": 65,
      "b": 66,
      "c": 67,
      "d": 68,
      "e": 69,
      "f": 70,
      "g": 71,
      "h": 72,
      "i": 73,
      "j": 74,
      "k": 75,
      "l": 76,
      "m": 77,
      "n": 78,
      "o": 79,
      "p": 80,
      "q": 81,
      "r": 82,
      "s": 83,
      "t": 84,
      "u": 85,
      "v": 86,
      "w": 87,
      "x": 88,
      "y": 89,
      "z": 90,
      "{": 91,
      "|": 92,
      "}": 93,
      "~": 94,
      "¡": 95,
      "¢": 96,
      "£": 97,
      "¤": 98,
      "¥": 99,
      "¦": 100,
      "§": 101,
      "¨": 102,
      "©": 103,
      "ª": 104,
      "«": 105,
      "¬": 106,
      "®": 107,
      "¯": 108,
      "°": 109,
      "±": 110,
      "²": 111,
      "³": 112,
      "´": 113,
      "µ": 114,
      "¶": 115,
      "·": 116,
      "¸": 117,
      "¹": 118,
      "º": 119,
      "»": 120,
      "¼": 121,
      "½": 122,
      "¾": 123,
      "¿": 124,
      "À": 125,
      "Á": 126,
      "Â": 127,
      "Ã": 128,
      "Ä": 129,
      "Å": 130,
      "Æ": 131,
      "Ç": 132,
      "È": 133,
      "É": 134,
      "Ê": 135,
      "Ë": 136,
      "Ì": 137,
      "Í": 138,
      "Î": 139,
      "Ï": 140,
      "Ð": 141,
      "Ñ": 142,
      "Ò": 143,
      "Ó": 144,
      "Ô": 145,
      "Õ": 146,
      "Ö": 147,
      "×": 148,
      "Ø": 149,
      "Ù": 150,
      "Ú": 151,
      "Û": 152,
      "Ü": 153,
      "Ý": 154,
      "Þ": 155,
      "ß": 156,
      "à": 157,
      "á": 158,
      "â": 159,
      "ã": 160,
      "ä": 161,
      "å": 162,
      "æ": 163,
      "ç": 164,
      "è": 165,
      "é": 166,
      "ê": 167,
      "ë": 168,
      "ì": 169,
      "í": 170,
      "î": 171,
      "ï": 172,
      "ð": 173,
      "ñ": 174,
      "ò": 175,
      "ó": 176,
      "ô": 177,
      "õ": 178,
      "ö": 179,
      "÷": 180,
      "ø": 181,
      "ù": 182,
      "ú": 183,
      "û": 184,
      "ü": 185,
      "ý": 186,
      "þ": 187,
      "ÿ": 188,
      "Ā": 189,
      "ā": 190,
      "Ă": 191,
      "ă": 192,
      "Ą": 193,
      "ą": 194,
      "Ć": 195,
      "ć": 196,
      "Ĉ": 197,
      "ĉ": 198,
      "Ċ": 199,
      "ċ": 200,
      "Č": 201,
      "č": 202,
      "Ď": 203,
      "ď": 204,
      "Đ": 205,
      "đ": 206,
      "Ē": 207,
      "ē": 208,
      "Ĕ": 209,
      "ĕ": 210,
      "Ė": 211,
      "ė": 212,
      "Ę": 213,
      "ę": 214,
      "Ě": 215,
      "ě": 216,
      "Ĝ": 217,
      "ĝ": 218,
      "Ğ": 219,
      "ğ": 220,
      "Ġ": 221,
      "ġ": 222,
      "Ģ": 223,
      "ģ": 224,
      "Ĥ": 225,
      "ĥ": 226,
      "Ħ": 227,
      "ħ": 228,
      "Ĩ": 229,
      "ĩ": 230,
      "Ī": 231,
      "ī": 232,
      "Ĭ": 233,
      "ĭ": 234,
      "Į": 235,
      "į": 236,
      "İ": 237,
      "ı": 238,
      "Ĳ": 239,
      "ĳ": 240,
      "Ĵ": 241,
      "ĵ": 242,
      "Ķ": 243,
      "ķ": 244,
      "ĸ": 245,
      "Ĺ": 246,
      "ĺ": 247,
      "Ļ": 248,
      "ļ": 249,
      "Ľ": 250,
      "ľ": 251,
      "Ŀ": 252,
      "ŀ": 253,
      "Ł": 254,
      "ł": 255,
      "Ń": 256,
      "Ġt": 257,
      "he": 258,
      "Ġa": 259,
      "in": 260,
      "Ġo": 261,
      "Ġthe": 262,
      "Ġs": 263,
      "er": 264,
      "nd": 265,
      "Ġw": 266,
      "Ġb": 267,
      "re": 268,
      "ou": 269,
      "Ġh": 270,
      "is": 271,
      "Ġf": 272,
      "ll": 273,
      "Ġm": 274,
      "Ġand": 275,
      "es": 276,
      "Ġof": 277,
      "at": 278,
      "it": 279,
      "ing": 280,
      "or": 281,
      "Ġp": 282,
      "Ġc": 283,
      "on": 284,
      "ar": 285,
      "an": 286,
      "en": 287,
      "ed": 288,
      "Ġl": 289,
      "Ġd": 290,
      "Ġto": 291,
      "as": 292,
      "Ġin": 293,
      "Ġhe": 294,
      "le": 295,
      "Ġth": 296,
      "ro": 297,
      "Ġn": 298,
      "Ġg": 299,
      "ĠĊ": 300,
      "Ġy": 301,
      "ic": 302,
      "ow": 303,
      "al": 304,
      "et": 305,
      "st": 306,
      "el": 307,
      "Ġhis": 308,
      "ĠI": 309,
      "im": 310,
      "ut": 311,
      "ur": 312,
      "ĠA": 313,
      "Ġyou": 314,
      "'s": 315,
      "ir": 316,
      "om": 317,
      "ot": 318,
      "Ġe": 319,
      "ĠT": 320,
      "ay": 321,
      "Ġfor": 322,
      "Ġon": 323,
      "ad": 324,
      "ac": 325,
      "gh": 326,
      "am": 327,
      "Ġbe": 328,
      "ĠS": 329,
      "Ġu": 330,
      "ith": 331,
      "ld": 332,
      "Ġwh": 333,
      "id": 334,
      "oo": 335,
      "Ġwith": 336,
      "ver": 337,
      "ĠM": 338,
      "se": 339,
      "um": 340,
      "ter": 341,
      "ly": 342,
      "ve": 343,
      "ĠH": 344,
      "Ġas": 345,
      "Ġr": 346,
      "ill": 347,
      "ch": 348,
      "ĠB": 349,
      "Ġthat": 350,
      "ke": 351,
      "ĠW": 352,
      "Ġst": 353,
      "us": 354,
      "un": 355,
      "il": 356,
      "Ġis": 357,
      "ent": 358,
      "Ġall": 359,
      "all": 360,
      "Ġit": 361,
      "ion": 362,
      "Ġre": 363,
      "Ġwas": 364,
      "her": 365,
      "and": 366,
      "ĠC": 367,
      "ght": 368,
      "ri": 369,
      "ap": 370,
      "ell": 371,
      "ers": 372,
      "ag": 373,
      "Ġ(": 374,
      "Ġher": 375,
      "Ġli": 376,
      "ĠP": 377,
      "rom": 378,
      "ck": 379,
      "Ġme": 380,
      "Ġmy": 381,
      "ab": 382,
      "ĠO": 383,
      "Ġso": 384,
      "ce": 385,
      "Ġby": 386,
      "th": 387,
      "ul": 388,
      "Ġsh": 389,
      "ĠL": 390,
      "ĠF": 391,
      "Ġan": 392,
      "Ġk": 393,
      "Ġor": 394,
      "ore": 395,
      "ol": 396,
      "ĠD": 397,
      "os": 398,
      "Ġwhe": 399,
      "Ġfrom": 400,
      "Ġat": 401,
      "qu": 402,
      "if": 403,
      "ee": 404,
      "est": 405,
      "op": 406,
      "ig": 407,
      "Ġhim": 408,
      "ain": 409,
      "Ġv": 410,
      "Ġyour": 411,
      "ĠThe": 412,
      "ĠAnd": 413,
      "Ġj": 414,
      "our": 415,
      "Ġch": 416,
      "ess": 417,
      "ĠN": 418,
      "ĠG": 419,
      "ick": 420,
      "Ġup": 421,
      "Ġâ": 422,
      "Ġha": 423,
      "ant": 424,
      "ight": 425,
      "ĠâĢ": 426,
      "ĠâĢĶ": 427,
      "ous": 428,
      "ies": 429,
      "Ġtheir": 430,
      "Ġwe": 431,
      "em": 432,
      "ip": 433,
      "ak": 434,
      "ome": 435,
      "ct": 436,
      "Ġsp": 437,
      "ong": 438,
      "ould": 439,
      "ast": 440,
      "aw": 441,
      "od": 442,
      "Ġnot": 443,
      "ear": 444,
      "ack": 445,
      "ĠE": 446,
      "ard": 447,
      "ind": 448,
      "ist": 449,
      "Ġour": 450,
      "Ġbut": 451,
      "ud": 452,
      "ere": 453,
      "Ġshe": 454,
      "Ġbl": 455,
      "av": 456,
      "ry": 457,
      "Ġsu": 458,
      "out": 459,
      "Ġpl": 460,
      "one": 461,
      "ood": 462,
      "ĠR": 463,
      "Ġout": 464,
      "Ġwho": 465,
      "ost": 466,
      "art": 467,
      "Ġle": 468,
      "Ġthey": 469,
      "res": 470,
      "ust": 471,
      "Ġde": 472,
      "Ġdo": 473,
      "ull": 474,
      "Ġse": 475,
      "Ġone": 476,
      "ine": 477,
      "Ġwhen": 478,
      "ie": 479,
      "ound": 480,
      "ff": 481,
      "Ġne": 482,
      "ass": 483,
      "ang": 484,
      "iv": 485,
      "ish": 486,
      "au": 487,
      "ne": 488,
      "ough": 489,
      "ation": 490,
      "Ġtw": 491,
      "Ġal": 492,
      "bl": 493,
      "Ġtr": 494,
      "own": 495,
      "are": 496,
      "Ġlike": 497,
      "ake": 498,
      "nder": 499,
      "ĠTh": 500,
      "Ġro": 501,
      "ty": 502,
      "ĠY": 503,
      "ame": 504,
      "Ġfl": 505,
      "Ġcon": 506,
      "ĠJ": 507,
      "ink": 508,
      "ich": 509,
      "Ġqu": 510,
      "Ġold": 511,
      "ace": 512,
      "Ġthis": 513,
      "Ġab": 514,
      "Ġhave": 515,
      "Ġare": 516,
      "ate": 517,
      "Ġlo": 518,
      "ue": 519,
      "!)": 520,
      "pp": 521,
      "ure": 522,
      "oy": 523,
      "ings": 524,
      "Ġam": 525,
      "ree": 526,
      "ĠWh": 527,
      "ts": 528,
      "Ġun": 529,
      "og": 530,
      "Ġever": 531,
      "ook": 532,
      "Ġman": 533,
      "ile": 534,
      "Ġar": 535,
      "Ġcl": 536,
      "Ġno": 537,
      "Ġbr": 538,
      "ib": 539,
      "ide": 540,
      "Ġaf": 541,
      "row": 542,
      "Ġgr": 543,
      "Ġthere": 544,
      "sel": 545,
      "ime": 546,
      "uck": 547,
      "iss": 548,
      "ge": 549,
      "to": 550,
      "Ġco": 551,
      "Ġwill": 552,
      "Ġhow": 553,
      "Ġus": 554,
      ".'": 555,
      "ub": 556,
      "ord": 557,
      "Ġex": 558,
      "Ġsc": 559,
      "ays": 560,
      "ĠK": 561,
      "per": 562,
      "Ġpr": 563,
      "itt": 564,
      "Ġwhat": 565,
      "Ġpro": 566,
      "Ġkn": 567,
      "Ġsw": 568,
      "Ġcom": 569,
      "Ġgo": 570,
      "Ġwere": 571,
      "ive": 572,
      "ite": 573,
      "Ġif": 574,
      "Ġnow": 575,
      "Ġafter": 576,
      "Ġpo": 577,
      "les": 578,
      "ther": 579,
      "ug": 580,
      "Ġhad": 581,
      "ĠHe": 582,
      "ire": 583,
      "up": 584,
      "Ġwould": 585,
      "ark": 586,
      "man": 587,
      "Ġthem": 588,
      "ens": 589,
      "Ġwhere": 590,
      "pe": 591,
      "te": 592,
      "Ġover": 593,
      "ump": 594,
      "Ġag": 595,
      "ock": 596,
      "ally": 597,
      "che": 598,
      "ber": 599,
      "ian": 600,
      "Ġ^": 601,
      "ice": 602,
      "Ġfe": 603,
      "ose": 604,
      "ia": 605,
      "oll": 606,
      "Ġsee": 607,
      "able": 608,
      "ath": 609,
      "ity": 610,
      "Ġoff": 611,
      "air": 612,
      "ah": 613,
      "inn": 614,
      "Ġwhich": 615,
      "self": 616,
      ".'^": 617,
      "orn": 618,
      "ave": 619,
      "sh": 620,
      "ven": 621,
      "oun": 622,
      "ank": 623,
      "ail": 624,
      "Ġpe": 625,
      "oot": 626,
      "ely": 627,
      "ort": 628,
      "Ġcan": 629,
      "ft": 630,
      "Ġthr": 631,
      "ious": 632,
      "ob": 633,
      "old": 634,
      "ons": 635,
      "'t": 636,
      "ep": 637,
      "ling": 638,
      "Ġhas": 639,
      "Ġsl": 640,
      "'ll": 641,
      "ĠV": 642,
      "Ġsay": 643,
      "urn": 644,
      "ĠBut": 645,
      "age": 646,
      "ond": 647,
      "ach": 648,
      "Ġunder": 649,
      "Ġen": 650,
      "ans": 651,
      "ĠU": 652,
      "ins": 653,
      "ok": 654,
      "Ġdown": 655,
      "irst": 656,
      "aid": 657,
      "fe": 658,
      "Ġmay": 659,
      "Ġmore": 660,
      "Ġtwo": 661,
      "red": 662,
      "ise": 663,
      "pl": 664,
      "Ġabout": 665,
      "the": 666,
      "igh": 667,
      "ars": 668,
      "ade": 669,
      "ence": 670,
      "Ġtime": 671,
      "cc": 672,
      "ase": 673,
      "Ġgre": 674,
      "fore": 675,
      "Ġper": 676,
      "ĠSh": 677,
      "Ġgood": 678,
      "ters": 679,
      "ild": 680,
      "Ġtill": 681,
      "ary": 682,
      "Ġwor": 683,
      "Ġdr": 684,
      "Ġthrough": 685,
      "ance": 686,
      "Ġcr": 687,
      "ĠAn": 688,
      "Ġlet": 689,
      "int": 690,
      "Ġ'": 691,
      "Ġsome": 692,
      "ĠIt": 693,
      "ves": 694,
      "Ġstr": 695,
      "oss": 696,
      "Ġ,": 697,
      "ale": 698,
      "we": 699,
      "Ġwhile": 700,
      "ĠYou": 701,
      "pt": 702,
      "Ġad": 703,
      "hed": 704,
      "Ġknow": 705,
      "be": 706,
      "Ġsm": 707,
      "ery": 708,
      "Ġgl": 709,
      "Ġfirst": 710,
      "Ġpre": 711,
      "app": 712,
      "ss": 713,
      "und": 714,
      "ix": 715,
      "amp": 716,
      "Ġany": 717,
      ".^": 718,
      "Ġver": 719,
      "Ġhand": 720,
      "Ġtoo": 721,
      "Ġthen": 722,
      "ĠSo": 723,
      "ble": 724,
      "led": 725,
      "ting": 726,
      "Ġbefore": 727,
      "ign": 728,
      "Ġevery": 729,
      "wn": 730,
      "Ġbet": 731,
      "ful": 732,
      "af": 733,
      "me": 734,
      "ool": 735,
      "cl": 736,
      "gg": 737,
      "ated": 738,
      "ĠSt": 739,
      "az": 740,
      "ial": 741,
      "ory": 742,
      "oth": 743,
      "ph": 744,
      "Ġwell": 745,
      "ung": 746,
      "dy": 747,
      "ouse": 748,
      "ather": 749,
      "ittle": 750,
      "ann": 751,
      "ush": 752,
      "Ġim": 753,
      "Ġdid": 754,
      "ily": 755,
      "ater": 756,
      "ress": 757,
      "Ġhere": 758,
      "ott": 759,
      "ye": 760,
      "Ġcould": 761,
      "Ġinto": 762,
      "ĠFor": 763,
      "Ġway": 764,
      "ash": 765,
      "Ġi": 766,
      "eth": 767,
      "Ġagain": 768,
      "ys": 769,
      "Ġfr": 770,
      "ness": 771,
      "Ġho": 772,
      "aun": 773,
      "ied": 774,
      "Ġback": 775,
      "ought": 776,
      "att": 777,
      "anc": 778,
      "uff": 779,
      "eep": 780,
      "ors": 781,
      "alk": 782,
      "wh": 783,
      "Ġbeen": 784,
      "Ġtell": 785,
      "Ġother": 786,
      "Ġnight": 787,
      "uch": 788,
      "Ġlong": 789,
      "ĠIn": 790,
      "mer": 791,
      "ving": 792,
      "Ġ.": 793,
      "Ġ1": 794,
      "der": 795,
      "uc": 796,
      "ment": 797,
      "oon": 798,
      "Ġbro": 799,
      "Ġye": 800,
      "oh": 801,
      "other": 802,
      "ks": 803,
      "oc": 804,
      "ats": 805,
      "ĠWhe": 806,
      "aking": 807,
      "Ġnever": 808,
      "for": 809,
      "way": 810,
      "Ġlook": 811,
      "act": 812,
      "ĠBe": 813,
      "ĠWe": 814,
      "iz": 815,
      "ets": 816,
      "br": 817,
      "ny": 818,
      "Ġear": 819,
      "Ġupon": 820,
      "Ġcome": 821,
      "Ġer": 822,
      "Ġte": 823,
      "Ġfour": 824,
      "ike": 825,
      "Ġche": 826,
      "ĠCh": 827,
      "ik": 828,
      "ane": 829,
      "ĠAr": 830,
      "Ġthree": 831,
      "Ġke": 832,
      "Ġbre": 833,
      "ier": 834,
      "ng": 835,
      "Ġits": 836,
      "ount": 837,
      "land": 838,
      "ps": 839,
      "atter": 840,
      "ions": 841,
      "Ġple": 842,
      "ole": 843,
      "Ġmar": 844,
      "umb": 845,
      "Ġround": 846,
      "ax": 847,
      "oe": 848,
      "Ġbel": 849,
      "ĠAll": 850,
      "^^": 851,
      "ox": 852,
      "Ġel": 853,
      "Ġcur": 854,
      "'re": 855,
      "Ġpart": 856,
      "agg": 857,
      "Ġlittle": 858,
      "ĠWhat": 859,
      "oul": 860,
      "its": 861,
      "als": 862,
      "ey": 863,
      "Ġsn": 864,
      "ont": 865,
      "Ġstill": 866,
      "Ġ2": 867,
      "Ġown": 868,
      "Ġwr": 869,
      "ĠAs": 870,
      "umm": 871,
      "'d": 872,
      "ict": 873,
      "els": 874,
      "rie": 875,
      "uss": 876,
      "ards": 877,
      "ett": 878,
      "ra": 879,
      "Ġhear": 880,
      "ows": 881,
      "),": 882,
      "ds": 883,
      "ĠThat": 884,
      "Ġdis": 885,
      "ĠMr": 886,
      "ĠHow": 887,
      "Ġsuch": 888,
      "de": 889,
      "men": 890,
      "Ġapp": 891,
      "Ġcall": 892,
      "Ġjust": 893,
      "ince": 894,
      "Ġonly": 895,
      "Ġsk": 896,
      "Ġmost": 897,
      "Ġmade": 898,
      "Ġhimself": 899,
      "ways": 900,
      "Ġthose": 901,
      "Ġbeh": 902,
      "ĠBr": 903,
      "Ġrem": 904,
      "Ġshall": 905,
      "ms": 906,
      "ov": 907,
      "ple": 908,
      "ream": 909,
      "ĠShe": 910,
      "Ġfar": 911,
      "atch": 912,
      "Ġend": 913,
      "Ġfore": 914,
      "ley": 915,
      "Ġthink": 916,
      "idd": 917,
      "aint": 918,
      "Ġtri": 919,
      "Ġpar": 920,
      "Ġday": 921,
      "ents": 922,
      "ears": 923,
      "king": 924,
      "Ġlad": 925,
      "ĠWith": 926,
      "iel": 927,
      "Ġfull": 928,
      "imes": 929,
      "Ġbeing": 930,
      "by": 931,
      "iver": 932,
      "ower": 933,
      "ym": 934,
      "Ġhal": 935,
      "Ġbec": 936,
      "Ġlast": 937,
      "rown": 938,
      "hes": 939,
      "Ġmake": 940,
      "Ġwhole": 941,
      "of": 942,
      "Ġz": 943,
      "Ġwar": 944,
      "Ġem": 945,
      "ipp": 946,
      "augh": 947,
      "ius": 948,
      "Ġword": 949,
      "Ġbar": 950,
      "tr": 951,
      "Ġsame": 952,
      "Ġmight": 953,
      "Ġmust": 954,
      "ect": 955,
      "ren": 956,
      "iff": 957,
      "ove": 958,
      "sc": 959,
      "Ġbo": 960,
      "ĠTo": 961,
      "udd": 962,
      "Ġph": 963,
      "onn": 964,
      "Ġthan": 965,
      "oman": 966,
      "ĠThis": 967,
      "ugg": 968,
      "Ġvery": 969,
      "ls": 970,
      "less": 971,
      "ates": 972,
      "Ġpass": 973,
      "Ġlight": 974,
      "get": 975,
      "Ġsal": 976,
      "outh": 977,
      "ical": 978,
      "Ġeven": 979,
      "Ġlove": 980,
      "Ġhop": 981,
      "ster": 982,
      "ours": 983,
      "ause": 984,
      "ning": 985,
      "ret": 986,
      "Ġfell": 987,
      "Ġcar": 988,
      "aps": 989,
      "ween": 990,
      "mon": 991,
      "ating": 992,
      "ully": 993,
      "Ġturn": 994,
      "Ġsaid": 995,
      "Ġwind": 996,
      "Ġboy": 997,
      "Ġfall": 998,
      "ĠMe": 999,
      "Ġright": 1000,
      "akes": 1001,
      "Ġ3": 1002,
      "ĠNo": 1003,
      "Ġworld": 1004,
      "Ġgu": 1005,
      "Ġrec": 1006,
      "Ġres": 1007,
      "ker": 1008,
      "Ġacc": 1009,
      "Ġbeg": 1010,
      "pect": 1011,
      "ait": 1012,
      "Ġ4": 1013,
      "ert": 1014,
      "Ġdear": 1015,
      "ots": 1016,
      "Ġlife": 1017,
      "ĠGr": 1018,
      "cher": 1019,
      "inc": 1020,
      "Ġnor": 1021,
      "Ġalways": 1022,
      "Ġpoor": 1023,
      "ler": 1024,
      "ubl": 1025,
      "Ġac": 1026,
      "Ġser": 1027,
      "igg": 1028,
      "ĠNe": 1029,
      "fl": 1030,
      "ias": 1031,
      "Ġtake": 1032,
      "Ġhead": 1033,
      "ĠNow": 1034,
      "ĠQ": 1035,
      "ised": 1036,
      "ither": 1037,
      "ener": 1038,
      "Ġfeel": 1039,
      "pen": 1040,
      "ton": 1041,
      "ues": 1042,
      "oud": 1043,
      "Ġhigh": 1044,
      "ĠMac": 1045,
      "ĠOr": 1046,
      "Ġspe": 1047,
      "yn": 1048,
      "Ġfair": 1049,
      "ĠBl": 1050,
      "ium": 1051,
      "Ġbu": 1052,
      "ene": 1053,
      "Ġthough": 1054,
      "Ġyet": 1055,
      "ĠMy": 1056,
      "unt": 1057,
      "Ġshow": 1058,
      "que": 1059,
      "Ġmuch": 1060,
      "Ġcor": 1061,
      "Ġcour": 1062,
      "Ġname": 1063,
      "ĠIs": 1064,
      "Ġey": 1065,
      "Ġred": 1066,
      "pr": 1067,
      "ved": 1068,
      "Ġ5": 1069,
      "Ġsle": 1070,
      "aster": 1071,
      "ĠIf": 1072,
      "unk": 1073,
      "ular": 1074,
      "aff": 1075,
      "bs": 1076,
      "Ġput": 1077,
      "ult": 1078,
      "ants": 1079,
      "Ġsure": 1080,
      "Ġswe": 1081,
      "ered": 1082,
      "Ġmon": 1083,
      "Ġwhy": 1084,
      "ction": 1085,
      "Ġsec": 1086,
      "aut": 1087,
      "Ġes": 1088,
      "here": 1089,
      "Ġbed": 1090,
      "itch": 1091,
      "Ġpur": 1092,
      "enc": 1093,
      "let": 1094,
      "ross": 1095,
      "ĠOn": 1096,
      "Ġplay": 1097,
      "Ġgreat": 1098,
      "ĠWhen": 1099,
      "ky": 1100,
      "Ġbur": 1101,
      "Ġbig": 1102,
      "irt": 1103,
      "illy": 1104,
      "ĠCl": 1105,
      "'m": 1106,
      "gr": 1107,
      "ns": 1108,
      "Ġtre": 1109,
      "Ġdon": 1110,
      "Ġheart": 1111,
      "ines": 1112,
      "Ġpri": 1113,
      "Ġhel": 1114,
      "Ġgir": 1115,
      "ute": 1116,
      "amm": 1117,
      "right": 1118,
      "Ġbetween": 1119,
      "Ġimp": 1120,
      "gl": 1121,
      "Ġsil": 1122,
      "Ġmer": 1123,
      "ames": 1124,
      "ands": 1125,
      "Ġshould": 1126,
      "ĠLet": 1127,
      "ouch": 1128,
      "ĠSe": 1129,
      "Ġplace": 1130,
      "ible": 1131,
      "Ġsince": 1132,
      "Ġmiss": 1133,
      "Ġpost": 1134,
      "Ġla": 1135,
      "ĠThere": 1136,
      "Ġcont": 1137,
      "Ġmany": 1138,
      "uk": 1139,
      "Ġthese": 1140,
      "Ġsch": 1141,
      "irc": 1142,
      "Ġbell": 1143,
      "Ġass": 1144,
      "ape": 1145,
      "oor": 1146,
      "Ġsing": 1147,
      "Ġnat": 1148,
      "Ġget": 1149,
      "ations": 1150,
      "ual": 1151,
      "xt": 1152,
      "Ġap": 1153,
      "ister": 1154,
      "Ġmind": 1155,
      "Ġpers": 1156,
      "Ġdes": 1157,
      "opp": 1158,
      "ring": 1159,
      "sw": 1160,
      "Ġwater": 1161,
      "Ġbest": 1162,
      "Ġthing": 1163,
      "ads": 1164,
      "oose": 1165,
      "Ġmean": 1166,
      "Ġhaving": 1167,
      "ted": 1168,
      "Ġhouse": 1169,
      "Ġheav": 1170,
      "rop": 1171,
      "utter": 1172,
      "Ġonce": 1173,
      "add": 1174,
      "ĠLe": 1175,
      "icks": 1176,
      "Ġhair": 1177,
      "Ġet": 1178,
      "ism": 1179,
      "Ġpres": 1180,
      "Ġdel": 1181,
      "ĠTr": 1182,
      "ums": 1183,
      "ĠWell": 1184,
      "Ġchar": 1185,
      "Ġcons": 1186,
      "Ġhar": 1187,
      "ones": 1188,
      "Ġev": 1189,
      "ides": 1190,
      "oos": 1191,
      "awn": 1192,
      "aves": 1193,
      "Ġamong": 1194,
      "over": 1195,
      "zz": 1196,
      "ern": 1197,
      "ering": 1198,
      "Ġwent": 1199,
      "Ġma": 1200,
      "Ġmin": 1201,
      "Ġwhite": 1202,
      "ĠMar": 1203,
      "ĠHis": 1204,
      "Ġret": 1205,
      "ĠDe": 1206,
      "ips": 1207,
      "ody": 1208,
      "ches": 1209,
      "gs": 1210,
      "iet": 1211,
      "ze": 1212,
      "Ġthee": 1213,
      "Ġfin": 1214,
      "Ġmen": 1215,
      "ition": 1216,
      "Ġlay": 1217,
      "omb": 1218,
      "oney": 1219,
      "ange": 1220,
      "Ġbehind": 1221,
      "Ġhalf": 1222,
      "under": 1223,
      "Ġsur": 1224,
      "Ġbit": 1225,
      "Ġhum": 1226,
      "ald": 1227,
      "uth": 1228,
      "ĠFl": 1229,
      "Ġblack": 1230,
      "Ġnew": 1231,
      "wor": 1232,
      "elf": 1233,
      "Ġyoung": 1234,
      "unn": 1235,
      "alls": 1236,
      "ife": 1237,
      "ĠQu": 1238,
      "day": 1239,
      "Ġtur": 1240,
      "Ġfoll": 1241,
      "Ġdou": 1242,
      "Ġins": 1243,
      "imm": 1244,
      "ru": 1245,
      "Ġtimes": 1246,
      "Ġaway": 1247,
      "Ġob": 1248,
      "Ġhold": 1249,
      "enn": 1250,
      "Ġeye": 1251,
      "ĠWill": 1252,
      "ĠThey": 1253,
      ".'*": 1254,
      "ched": 1255,
      "Ġfire": 1256,
      "eng": 1257,
      "Ġthought": 1258,
      "imp": 1259,
      "amb": 1260,
      "Ġsol": 1261,
      "Ġtrue": 1262,
      "anks": 1263,
      "iest": 1264,
      "Ġwant": 1265,
      "Ġfam": 1266,
      "Ġmet": 1267,
      "Ġmil": 1268,
      "Ġcap": 1269,
      "ĠAl": 1270,
      "ady": 1271,
      "Ġste": 1272,
      "Ġking": 1273,
      "ives": 1274,
      "Ġaround": 1275,
      "onder": 1276,
      "yl": 1277,
      "Ġve": 1278,
      "Ġent": 1279,
      "Ġou": 1280,
      "Ġsign": 1281,
      "Ġfre": 1282,
      "Ġcle": 1283,
      "utt": 1284,
      "ĠAm": 1285,
      "ĠRe": 1286,
      "na": 1287,
      "oom": 1288,
      "tt": 1289,
      "head": 1290,
      "Ġgive": 1291,
      "Ġum": 1292,
      "Ġreg": 1293,
      "Ġeyes": 1294,
      "Ġsweet": 1295,
      "ric": 1296,
      "so": 1297,
      "Ġaw": 1298,
      "Ġair": 1299,
      "Ġson": 1300,
      "nds": 1301,
      "ams": 1302,
      "oop": 1303,
      "ĠHere": 1304,
      "ĠBy": 1305,
      "ilt": 1306,
      "ared": 1307,
      "Ġhands": 1308,
      "ked": 1309,
      "ures": 1310,
      "Ġod": 1311,
      "Ġfa": 1312,
      "lly": 1313,
      "ened": 1314,
      "alt": 1315,
      "ird": 1316,
      "umber": 1317,
      "uns": 1318,
      "Ġrep": 1319,
      "thing": 1320,
      "aught": 1321,
      "lin": 1322,
      "pan": 1323,
      "Ġter": 1324,
      "Ġpick": 1325,
      "Ġint": 1326,
      "urs": 1327,
      "ĠHo": 1328,
      "ries": 1329,
      "ĠGre": 1330,
      "ude": 1331,
      "ief": 1332,
      "bles": 1333,
      "Ġcomm": 1334,
      "io": 1335,
      "med": 1336,
      "uv": 1337,
      "yb": 1338,
      "Ġir": 1339,
      "Ġsom": 1340,
      "Ġbes": 1341,
      "ising": 1342,
      "Ġpor": 1343,
      "Ġcol": 1344,
      "Ġland": 1345,
      "Ġtom": 1346,
      "Ġgot": 1347,
      "elt": 1348,
      "Ġchild": 1349,
      "ĠNot": 1350,
      "Ġcoll": 1351,
      "ĠZ": 1352,
      "Ġbad": 1353,
      "rew": 1354,
      "Ġhat": 1355,
      "Ġmur": 1356,
      "aring": 1357,
      "Ġwithout": 1358,
      "Ġsub": 1359,
      "Ġkeep": 1360,
      ").": 1361,
      "aus": 1362,
      "upp": 1363,
      "Ġwoman": 1364,
      "Ġbuck": 1365,
      "Ġhome": 1366,
      "Ġfree": 1367,
      "Ġmor": 1368,
      "Ġmaking": 1369,
      "ited": 1370,
      "Ġpal": 1371,
      "arn": 1372,
      "Ġwhom": 1373,
      "vers": 1374,
      "Ġdev": 1375,
      "Ġconf": 1376,
      "Ġgrand": 1377,
      "ĠWhere": 1378,
      "fully": 1379,
      "ma": 1380,
      "Ġed": 1381,
      "Ġset": 1382,
      "Ġhor": 1383,
      "Ġhom": 1384,
      "Ġfun": 1385,
      "esh": 1386,
      "ĠAh": 1387,
      "rip": 1388,
      "ths": 1389,
      "ope": 1390,
      "yr": 1391,
      "Ġill": 1392,
      "Ġside": 1393,
      "Ġface": 1394,
      "Ġind": 1395,
      "ĠIr": 1396,
      "Ġrun": 1397,
      "ried": 1398,
      "Ġque": 1399,
      "Ġplease": 1400,
      "!!": 1401,
      "ges": 1402,
      "oke": 1403,
      "Ġact": 1404,
      "Ġwee": 1405,
      "Ġhapp": 1406,
      "Ġmis": 1407,
      "Ġpig": 1408,
      "Ġdark": 1409,
      "Ġinc": 1410,
      "Ġleft": 1411,
      "Ġused": 1412,
      "Ġgoing": 1413,
      "ield": 1414,
      "'ve": 1415,
      "Ġsor": 1416,
      "Ġmag": 1417,
      "Ġmouth": 1418,
      "Ġinter": 1419,
      "imb": 1420,
      "Ġeach": 1421,
      "Ġread": 1422,
      "Ġmeet": 1423,
      "ĠOne": 1424,
      "Ġant": 1425,
      "ights": 1426,
      "new": 1427,
      "ĠWhy": 1428,
      "selves": 1429,
      "co": 1430,
      "wards": 1431,
      "Ġwall": 1432,
      "Ġwild": 1433,
      "ished": 1434,
      "Ġfro": 1435,
      "Ġmo": 1436,
      "Ġmus": 1437,
      "Ġpol": 1438,
      "Ġdeep": 1439,
      "ics": 1440,
      "ĠAd": 1441,
      "rib": 1442,
      "abb": 1443,
      "Ġang": 1444,
      "Ġanother": 1445,
      "Ġkind": 1446,
      "ains": 1447,
      "Ġalong": 1448,
      "hing": 1449,
      "kn": 1450,
      "rist": 1451,
      "ying": 1452,
      "Ġtry": 1453,
      "ina": 1454,
      "Ġsa": 1455,
      "Ġbow": 1456,
      "Ġboth": 1457,
      "Ġmom": 1458,
      "ities": 1459,
      "Ġcirc": 1460,
      "Ġgent": 1461,
      "Ġund": 1462,
      "ĠHer": 1463,
      "une": 1464,
      "rig": 1465,
      "elly": 1466,
      "ags": 1467,
      "Ġsoon": 1468,
      "ĠNor": 1469,
      "ĠWho": 1470,
      "olly": 1471,
      "Ġcourse": 1472,
      "lo": 1473,
      "ux": 1474,
      "yd": 1475,
      "Ġ*": 1476,
      "Ġtro": 1477,
      "Ġhon": 1478,
      "Ġfur": 1479,
      "Ġfind": 1480,
      "Ġmorn": 1481,
      "Ġpen": 1482,
      "Ġlow": 1483,
      "Ġdone": 1484,
      "Ġthou": 1485,
      "Ġyears": 1486,
      "str": 1487,
      "uts": 1488,
      "ĠSp": 1489,
      "ĠFrom": 1490,
      "Ġvo": 1491,
      "==": 1492,
      "ient": 1493,
      "kin": 1494,
      "vel": 1495,
      "Ġ-": 1496,
      "Ġhur": 1497,
      "Ġhour": 1498,
      "ites": 1499,
      "Ġpat": 1500,
      "Ġlist": 1501,
      "Ġheard": 1502,
      "Ġnear": 1503,
      "Ġgiv": 1504,
      "ural": 1505,
      "ils": 1506,
      "iled": 1507,
      "aken": 1508,
      "Ġwhose": 1509,
      "Ġbecause": 1510,
      ",^": 1511,
      "ron": 1512,
      "Ġere": 1513,
      "ined": 1514,
      "Ġsays": 1515,
      "Ġwalk": 1516,
      "Ġhard": 1517,
      "Ġlar": 1518,
      "Ġdi": 1519,
      "Ġdiv": 1520,
      "ically": 1521,
      "ette": 1522,
      "Ġele": 1523,
      "ĠPl": 1524,
      "Ġann": 1525,
      "odd": 1526,
      "ired": 1527,
      "Ġadd": 1528,
      "Ġbetter": 1529,
      "Ġagainst": 1530,
      "Ġhelp": 1531,
      "ged": 1532,
      "use": 1533,
      "hen": 1534,
      "Ġah": 1535,
      "Ġpast": 1536,
      "Ġcre": 1537,
      "Ġcame": 1538,
      "ense": 1539,
      "Ġlost": 1540,
      "aces": 1541,
      "cks": 1542,
      "ift": 1543,
      "aws": 1544,
      "iew": 1545,
      "Ġscr": 1546,
      "ming": 1547,
      "Ġfrie": 1548,
      "Ġpet": 1549,
      "Ġdu": 1550,
      "Ġinn": 1551,
      "Ġgro": 1552,
      "Ġgone": 1553,
      "key": 1554,
      "aph": 1555,
      "ĠPe": 1556,
      "ĠOf": 1557,
      "Ġdoes": 1558,
      "Ġseen": 1559,
      "bling": 1560,
      "Ġpray": 1561,
      "Ġpoint": 1562,
      "Ġperson": 1563,
      "bro": 1564,
      "fer": 1565,
      "go": 1566,
      "vent": 1567,
      "Ġ!": 1568,
      "Ġing": 1569,
      "iness": 1570,
      "Ġwat": 1571,
      "Ġwon": 1572,
      "Ġble": 1573,
      "Ġbull": 1574,
      "reet": 1575,
      "Ġfine": 1576,
      "Ġmad": 1577,
      "Ġpot": 1578,
      "Ġpay": 1579,
      "Ġdays": 1580,
      "Ġgar": 1581,
      "stand": 1582,
      "Ġlie": 1583,
      "ably": 1584,
      "ores": 1585,
      "ific": 1586,
      "oots": 1587,
      "Ġsleep": 1588,
      "ew": 1589,
      "ger": 1590,
      "tw": 1591,
      "yp": 1592,
      "you": 1593,
      "Ġsqu": 1594,
      "isk": 1595,
      "Ġpull": 1596,
      "Ġtook": 1597,
      "ĠSaint": 1598,
      "ĠMan": 1599,
      "ills": 1600,
      "icker": 1601,
      "ember": 1602,
      "Ġexp": 1603,
      "ĠUn": 1604,
      "Ġgreen": 1605,
      "cr": 1606,
      "ced": 1607,
      "end": 1608,
      "ho": 1609,
      "most": 1610,
      "well": 1611,
      "Ġbott": 1612,
      "Ġpap": 1613,
      "Ġpair": 1614,
      "Ġcal": 1615,
      "Ġdro": 1616,
      "Ġdream": 1617,
      "Ġgener": 1618,
      "owing": 1619,
      "Ġforget": 1620,
      "Ġrel": 1621,
      "ĠDo": 1622,
      "ops": 1623,
      "ney": 1624,
      "bur": 1625,
      "boy": 1626,
      "cy": 1627,
      "com": 1628,
      "ned": 1629,
      "hem": 1630,
      "Ġsir": 1631,
      "Ġmed": 1632,
      "Ġmid": 1633,
      "orm": 1634,
      "Ġpure": 1635,
      "Ġlit": 1636,
      "ales": 1637,
      "illed": 1638,
      "iles": 1639,
      "ĠOur": 1640,
      "ĠDr": 1641,
      "Ġvol": 1642,
      "bar": 1643,
      "Ġ{": 1644,
      "Ġtem": 1645,
      "Ġay": 1646,
      "iny": 1647,
      "Ġopen": 1648,
      "Ġsix": 1649,
      "Ġbare": 1650,
      "read": 1651,
      "Ġmine": 1652,
      "ester": 1653,
      "Ġcro": 1654,
      "arch": 1655,
      "Ġlaugh": 1656,
      "Ġdur": 1657,
      "Ġinf": 1658,
      "eter": 1659,
      "ĠTw": 1660,
      "ĠCom": 1661,
      "oph": 1662,
      "aved": 1663,
      "Ġnext": 1664,
      "Ġpleas": 1665,
      "Ġhope": 1666,
      "ek": 1667,
      "ever": 1668,
      "ien": 1669,
      "ios": 1670,
      "ken": 1671,
      "Ġ|": 1672,
      "Ġsaw": 1673,
      "Ġsound": 1674,
      "isp": 1675,
      "Ġfle": 1676,
      "Ġfound": 1677,
      "Ġprom": 1678,
      "eds": 1679,
      "Ġgave": 1680,
      "irty": 1681,
      "ider": 1682,
      "ĠMay": 1683,
      "Ġrain": 1684,
      "outs": 1685,
      "!),": 1686,
      "Ġfew": 1687,
      "Ġfriend": 1688,
      "not": 1689,
      "Ġaff": 1690,
      "Ġow": 1691,
      "erry": 1692,
      "rel": 1693,
      "oup": 1694,
      "Ġfear": 1695,
      "Ġmark": 1696,
      "Ġcat": 1697,
      "Ġgh": 1698,
      "idge": 1699,
      "enty": 1700,
      "Ġmyself": 1701,
      "Ġsupp": 1702,
      "Ġleave": 1703,
      "Ġdead": 1704,
      "Ġquite": 1705,
      "Ġknows": 1706,
      "Ġholy": 1707,
      "Ġsecond": 1708,
      "oint": 1709,
      "tis": 1710,
      "ued": 1711,
      "ule": 1712,
      "Ġtail": 1713,
      "Ġtalk": 1714,
      "hel": 1715,
      "Ġsun": 1716,
      "Ġhund": 1717,
      "Ġmaid": 1718,
      "inger": 1719,
      "Ġpan": 1720,
      "Ġda": 1721,
      "Ġdist": 1722,
      "ĠAt": 1723,
      "Ġegg": 1724,
      "Ġones": 1725,
      "ĠMag": 1726,
      "ĠPr": 1727,
      "olog": 1728,
      "osh": 1729,
      "Ġatt": 1730,
      "ĠEx": 1731,
      "Ġblood": 1732,
      "Ġblue": 1733,
      "Ġleg": 1734,
      "Ġdec": 1735,
      "Ġroll": 1736,
      "Ġgold": 1737,
      "ocks": 1738,
      "iously": 1739,
      "ĠShaun": 1740,
      "ohn": 1741,
      "min": 1742,
      "por": 1743,
      "uit": 1744,
      "yg": 1745,
      "Ġid": 1746,
      "Ġocc": 1747,
      "Ġself": 1748,
      "Ġwish": 1749,
      "Ġwait": 1750,
      "rey": 1751,
      "ison": 1752,
      "Ġfo": 1753,
      "Ġfoot": 1754,
      "Ġposs": 1755,
      "ening": 1756,
      "Ġtold": 1757,
      "Ġgod": 1758,
      "ste": 1759,
      "Ġstand": 1760,
      "osed": 1761,
      "Ġchap": 1762,
      "aker": 1763,
      "Ġnothing": 1764,
      "aving": 1765,
      "Ġlead": 1766,
      "Ġsea": 1767,
      "ĠYour": 1768,
      "izz": 1769,
      "Ġpresent": 1770,
      "bed": 1771,
      "ior": 1772,
      "my": 1773,
      "ten": 1774,
      "where": 1775,
      "Ġtouch": 1776,
      "Ġol": 1777,
      "Ġsim": 1778,
      "Ġfact": 1779,
      "Ġmass": 1780,
      "ative": 1781,
      "Ġce": 1782,
      "Ġcast": 1783,
      "Ġlang": 1784,
      "Ġdem": 1785,
      "Ġtop": 1786,
      "ĠBar": 1787,
      "ables": 1788,
      "ĠFinn": 1789,
      "ĠThen": 1790,
      "Ġcold": 1791,
      "Ġexc": 1792,
      "ians": 1793,
      "Ġpeace": 1794,
      "Ġwords": 1795,
      "house": 1796,
      "pro": 1797,
      "uct": 1798,
      "Ġ6": 1799,
      "Ġtong": 1800,
      "Ġwood": 1801,
      "Ġwonder": 1802,
      "Ġbook": 1803,
      "Ġmist": 1804,
      "Ġpubl": 1805,
      "ara": 1806,
      "Ġhen": 1807,
      "Ġthy": 1808,
      "Ġnumber": 1809,
      "irs": 1810,
      "amed": 1811,
      "ĠSc": 1812,
      "ĠPh": 1813,
      "Ġmem": 1814,
      "ĠGl": 1815,
      "Ġquick": 1816,
      "Ġlov": 1817,
      "Ġcock": 1818,
      "Ġwrong": 1819,
      "Ġrespect": 1820,
      "TI": 1821,
      "aul": 1822,
      "how": 1823,
      "ner": 1824,
      "Ġage": 1825,
      "Ġom": 1826,
      "Ġwit": 1827,
      "Ġbir": 1828,
      "Ġbab": 1829,
      "Ġmatter": 1830,
      "Ġcry": 1831,
      "Ġcount": 1832,
      "arr": 1833,
      "ask": 1834,
      "Ġnice": 1835,
      "oms": 1836,
      "ĠSl": 1837,
      "ells": 1838,
      "ĠOld": 1839,
      "Ġvis": 1840,
      "inks": 1841,
      "Ġgoes": 1842,
      "iddle": 1843,
      "Ġmoment": 1844,
      "Ġmorning": 1845,
      "agh": 1846,
      "aud": 1847,
      "body": 1848,
      "ev": 1849,
      "gar": 1850,
      "hor": 1851,
      "ward": 1852,
      "yc": 1853,
      "Ġ\"": 1854,
      "Ġsem": 1855,
      "Ġbound": 1856,
      "Ġmakes": 1857,
      "ator": 1858,
      "ature": 1859,
      "Ġpop": 1860,
      "Ġcert": 1861,
      "Ġthings": 1862,
      "urch": 1863,
      "Ġeff": 1864,
      "ids": 1865,
      "Ġask": 1866,
      "Ġstop": 1867,
      "Ġstone": 1868,
      "Ġrest": 1869,
      "Ġsoft": 1870,
      "Ġorder": 1871,
      "Ġyourself": 1872,
      "ĠYet": 1873,
      "Ġproper": 1874,
      "tend": 1875,
      "fect": 1876,
      "ancy": 1877,
      "down": 1878,
      "ha": 1879,
      "ires": 1880,
      "ience": 1881,
      "lers": 1882,
      "lings": 1883,
      "Ġ0": 1884,
      "Ġten": 1885,
      "Ġtum": 1886,
      "Ġsoul": 1887,
      "Ġwid": 1888,
      "Ġham": 1889,
      "Ġpip": 1890,
      "Ġcare": 1891,
      "ony": 1892,
      "asy": 1893,
      "Ġinv": 1894,
      "Ġyear": 1895,
      "Ġbeaut": 1896,
      "ĠMiss": 1897,
      "usk": 1898,
      "ĠLike": 1899,
      "Ġknew": 1900,
      "Ġplain": 1901,
      "Ġseven": 1902,
      "Ġbring": 1903,
      "Ġext": 1904,
      "itting": 1905,
      "Ġprop": 1906,
      "Ġthemselves": 1907,
      "Ġstrong": 1908,
      "ĠMrs": 1909,
      "Ġhundred": 1910,
      ".,": 1911,
      "bo": 1912,
      "eal": 1913,
      "kins": 1914,
      "oes": 1915,
      "off": 1916,
      "uf": 1917,
      "ws": 1918,
      "Ġwa": 1919,
      "oured": 1920,
      "Ġhot": 1921,
      "ises": 1922,
      "owed": 1923,
      "elve": 1924,
      "Ġeither": 1925,
      "addy": 1926,
      "sey": 1927,
      "Ġra": 1928,
      "Ġref": 1929,
      "hers": 1930,
      "ander": 1931,
      "elle": 1932,
      "ĠPer": 1933,
      "Ġshort": 1934,
      "Ġkiss": 1935,
      "ĠGu": 1936,
      "acks": 1937,
      "ĠEr": 1938,
      "aven": 1939,
      "anger": 1940,
      "ively": 1941,
      "bled": 1942,
      "Ġtru": 1943,
      "Ġart": 1944,
      "Ġcomp": 1945,
      "ooth": 1946,
      "Ġenough": 1947,
      "Ġboys": 1948,
      "bb": 1949,
      "con": 1950,
      "ec": 1951,
      "nt": 1952,
      "ror": 1953,
      "Ġur": 1954,
      "Ġast": 1955,
      "Ġball": 1956,
      "Ġmoon": 1957,
      "Ġluck": 1958,
      "Ġdri": 1959,
      "Ġinde": 1960,
      "ims": 1961,
      "ĠSee": 1962,
      "Ġring": 1963,
      "ages": 1964,
      "ĠDan": 1965,
      "ement": 1966,
      "Ġspr": 1967,
      "aste": 1968,
      "Ġbless": 1969,
      "iece": 1970,
      "ogg": 1971,
      "aze": 1972,
      "Ġlooking": 1973,
      "Ġbelie": 1974,
      "Ġcalled": 1975,
      "Ġcontin": 1976,
      "swer": 1977,
      "Ġfamily": 1978,
      "back": 1979,
      "gu": 1980,
      "him": 1981,
      "kes": 1982,
      "rum": 1983,
      "vy": 1984,
      "Ġ/": 1985,
      "Ġsat": 1986,
      "rem": 1987,
      "Ġmess": 1988,
      "Ġmother": 1989,
      "orrow": 1990,
      "arl": 1991,
      "arry": 1992,
      "Ġly": 1993,
      "Ġgame": 1994,
      "alth": 1995,
      "Ġbey": 1996,
      "Ġrh": 1997,
      "Ġrub": 1998,
      "ĠWas": 1999,
      "Ġstri": 2000,
      "Ġvar": 2001,
      "Ġspl": 2002,
      "uddy": 2003,
      "Ġneed": 2004,
      "Ġconc": 2005,
      "Ġcoming": 2006,
      "ship": 2007,
      "ĠAnn": 2008,
      "Ġlady": 2009,
      "Ġfellow": 2010,
      "aver": 2011,
      "cess": 2012,
      "iar": 2013,
      "lt": 2014,
      "more": 2015,
      "sp": 2016,
      "Ġrom": 2017,
      "Ġest": 2018,
      "Ġav": 2019,
      "Ġsin": 2020,
      "Ġbus": 2021,
      "Ġbul": 2022,
      "Ġhol": 2023,
      "Ġfish": 2024,
      "Ġfather": 2025,
      "Ġmal": 2026,
      "Ġmill": 2027,
      "iter": 2028,
      "Ġcup": 2029,
      "Ġcorn": 2030,
      "Ġlim": 2031,
      "Ġtown": 2032,
      "Ġge": 2033,
      "stone": 2034,
      "ades": 2035,
      "tered": 2036,
      "ĠHump": 2037,
      "ille": 2038,
      "Ġstory": 2039,
      "unch": 2040,
      "alled": 2041,
      "apt": 2042,
      "ĠPro": 2043,
      "ulp": 2044,
      "ode": 2045,
      "Ġdep": 2046,
      "Ġdoor": 2047,
      "Ġroy": 2048,
      "ĠKing": 2049,
      "ments": 2050,
      "Ġbrother": 2051,
      "Ġgirl": 2052,
      "Ġheaven": 2053,
      "ĠIrish": 2054,
      "?)": 2055,
      "ael": 2056,
      "iam": 2057,
      "ject": 2058,
      "like": 2059,
      "uh": 2060,
      "with": 2061,
      "Ġtit": 2062,
      "Ġtree": 2063,
      "Ġop": 2064,
      "Ġwet": 2065,
      "org": 2066,
      "Ġpark": 2067,
      "Ġcut": 2068,
      "edd": 2069,
      "Ġlear": 2070,
      "Ġdom": 2071,
      "Ġnon": 2072,
      "ices": 2073,
      "ache": 2074,
      "ident": 2075,
      "very": 2076,
      "ĠMa": 2077,
      "illa": 2078,
      "unc": 2079,
      "ella": 2080,
      "Ġliv": 2081,
      "Ġlive": 2082,
      "Ġview": 2083,
      "ously": 2084,
      "Ġdoing": 2085,
      "Ġtwelve": 2086,
      "pping": 2087,
      "ured": 2088,
      "Ġunt": 2089,
      "ething": 2090,
      "Ġearth": 2091,
      "Ġremember": 2092,
      "ivers": 2093,
      "Ġwaters": 2094,
      "bel": 2095,
      "pet": 2096,
      "ses": 2097,
      "inal": 2098,
      "Ġways": 2099,
      "Ġfond": 2100,
      "Ġmel": 2101,
      "athe": 2102,
      "itz": 2103,
      "asc": 2104,
      "Ġhem": 2105,
      "Ġhell": 2106,
      "Ġnation": 2107,
      "Ġgard": 2108,
      "omen": 2109,
      "ĠTell": 2110,
      "Ġfort": 2111,
      "sem": 2112,
      "ume": 2113,
      "Ġstay": 2114,
      "Ġvir": 2115,
      "Ġjoy": 2116,
      "icking": 2117,
      "awl": 2118,
      "Ġtrou": 2119,
      "inking": 2120,
      "Ġquest": 2121,
      "Ġabove": 2122,
      "ĠWhile": 2123,
      "Ġunto": 2124,
      "Ġarr": 2125,
      "Ġgrace": 2126,
      "Ġcomes": 2127,
      "Ġsayd": 2128,
      "ĠUp": 2129,
      "what": 2130,
      "Ġspeak": 2131,
      "Ġreturn": 2132,
      "Ġought": 2133,
      "den": 2134,
      "ih": 2135,
      "tty": 2136,
      "wise": 2137,
      "Ġsy": 2138,
      "Ġbog": 2139,
      "Ġborn": 2140,
      "rest": 2141,
      "Ġfres": 2142,
      "Ġport": 2143,
      "Ġcoun": 2144,
      "Ġdam": 2145,
      "lem": 2146,
      "Ġthank": 2147,
      "Ġgall": 2148,
      "Ġgrow": 2149,
      "owl": 2150,
      "ether": 2151,
      "ĠTill": 2152,
      "iding": 2153,
      "tern": 2154,
      "Ġash": 2155,
      "ĠBur": 2156,
      "Ġstart": 2157,
      "ĠCo": 2158,
      "ĠPat": 2159,
      "Ġanc": 2160,
      "ĠDon": 2161,
      "icked": 2162,
      "ĠEn": 2163,
      "Ġknown": 2164,
      "ails": 2165,
      "Ġsaying": 2166,
      "Ġpriv": 2167,
      "Ġpublic": 2168,
      "ER": 2169,
      "fter": 2170,
      "joy": 2171,
      "och": 2172,
      "Ġty": 2173,
      "Ġtub": 2174,
      "Ġtaking": 2175,
      "erg": 2176,
      "Ġwake": 2177,
      "rees": 2178,
      "Ġhoo": 2179,
      "Ġhus": 2180,
      "Ġhun": 2181,
      "isc": 2182,
      "Ġfir": 2183,
      "Ġfol": 2184,
      "ese": 2185,
      "ork": 2186,
      "Ġcop": 2187,
      "Ġcase": 2188,
      "Ġless": 2189,
      "Ġlaw": 2190,
      "Ġlord": 2191,
      "Ġdie": 2192,
      "Ġdiff": 2193,
      "Ġthous": 2194,
      "Ġgen": 2195,
      "ĠAre": 2196,
      "Ġep": 2197,
      "Ġequ": 2198,
      "ĠTH": 2199,
      "aced": 2200,
      "ĠCan": 2201,
      "ĠCome": 2202,
      "aged": 2203,
      "Ġherself": 2204,
      "ĠDid": 2205,
      "ĠGod": 2206,
      "ickle": 2207,
      "Ġalt": 2208,
      "ĠYes": 2209,
      "ĠWhich": 2210,
      "Ġcond": 2211,
      "Ġexpl": 2212,
      "Ġprov": 2213,
      "Ġcomple": 2214,
      "Ġletter": 2215,
      "Ġadv": 2216,
      "oved": 2217,
      "Ġcertain": 2218,
      "dom": 2219,
      "ex": 2220,
      "een": 2221,
      "pot": 2222,
      "rick": 2223,
      "uld": 2224,
      "word": 2225,
      "Ġnd": 2226,
      "eries": 2227,
      "Ġhorn": 2228,
      "Ġfield": 2229,
      "Ġmut": 2230,
      "iting": 2231,
      "Ġcow": 2232,
      "Ġcoo": 2233,
      "Ġcross": 2234,
      "Ġlot": 2235,
      "Ġlamp": 2236,
      "Ġdaugh": 2237,
      "asp": 2238,
      "lect": 2239,
      "alm": 2240,
      "ĠIre": 2241,
      "Ġform": 2242,
      "Ġuse": 2243,
      "andy": 2244,
      "ĠCon": 2245,
      "ript": 2246,
      "Ġlif": 2247,
      "Ġsoc": 2248,
      "ĠFin": 2249,
      "Ġjo": 2250,
      "Ġsuck": 2251,
      "Ġdeath": 2252,
      "ibb": 2253,
      "Ġprof": 2254,
      "umps": 2255,
      "attle": 2256,
      "Ġgiven": 2257,
      "ON": 2258,
      "but": 2259,
      "bour": 2260,
      "hold": 2261,
      "iol": 2262,
      "oil": 2263,
      "ris": 2264,
      "side": 2265,
      "Ġsit": 2266,
      "Ġsag": 2267,
      "Ġsave": 2268,
      "Ġwatch": 2269,
      "Ġbag": 2270,
      "oug": 2271,
      "Ġhost": 2272,
      "Ġhang": 2273,
      "Ġmir": 2274,
      "Ġmot": 2275,
      "ingly": 2276,
      "Ġpin": 2277,
      "Ġpos": 2278,
      "Ġcam": 2279,
      "aling": 2280,
      "ĠTe": 2281,
      "used": 2282,
      "ention": 2283,
      "ĠPar": 2284,
      "Ġsod": 2285,
      "eech": 2286,
      "ĠEl": 2287,
      "Ġbutt": 2288,
      "oster": 2289,
      "Ġrock": 2290,
      "Ġarch": 2291,
      "ĠKn": 2292,
      "Ġprim": 2293,
      "arks": 2294,
      "airs": 2295,
      "inny": 2296,
      "inning": 2297,
      "form": 2298,
      "Ġbreath": 2299,
      "rief": 2300,
      "ublin": 2301,
      "ĠNever": 2302,
      "ĠOnly": 2303,
      "Ġclean": 2304,
      "Ġodd": 2305,
      "Ġgentle": 2306,
      "gin": 2307,
      "ging": 2308,
      "li": 2309,
      "sy": 2310,
      "wed": 2311,
      "zen": 2312,
      "Ġ\\": 2313,
      "Ġtim": 2314,
      "Ġtall": 2315,
      "Ġtaken": 2316,
      "Ġsac": 2317,
      "Ġsake": 2318,
      "Ġsort": 2319,
      "erv": 2320,
      "Ġwin": 2321,
      "Ġwoo": 2322,
      "Ġweep": 2323,
      "Ġfut": 2324,
      "Ġfem": 2325,
      "Ġpink": 2326,
      "Ġcity": 2327,
      "eness": 2328,
      "Ġdar": 2329,
      "ason": 2330,
      "leep": 2331,
      "eling": 2332,
      "oming": 2333,
      "ĠSm": 2334,
      "Ġwithin": 2335,
      "ĠHave": 2336,
      "Ġru": 2337,
      "Ġrever": 2338,
      "Ġlift": 2339,
      "thy": 2340,
      "Ġvan": 2341,
      "Ġchang": 2342,
      "Ġchange": 2343,
      "ĠGo": 2344,
      "ĠGood": 2345,
      "aks": 2346,
      "aked": 2347,
      "Ġrose": 2348,
      "ĠJohn": 2349,
      "Ġunc": 2350,
      "Ġnose": 2351,
      "Ġages": 2352,
      "Ġfeet": 2353,
      "ances": 2354,
      "Ġbroad": 2355,
      "gether": 2356,
      "ency": 2357,
      "ares": 2358,
      "fell": 2359,
      "gn": 2360,
      "uy": 2361,
      "Ġsong": 2362,
      "Ġbon": 2363,
      "Ġhung": 2364,
      "Ġfat": 2365,
      "Ġmod": 2366,
      "Ġoften": 2367,
      "itter": 2368,
      "ingd": 2369,
      "Ġpress": 2370,
      "arp": 2371,
      "eny": 2372,
      "Ġduck": 2373,
      "Ġdire": 2374,
      "Ġtot": 2375,
      "ased": 2376,
      "Ġinst": 2377,
      "lee": 2378,
      "roll": 2379,
      "Ġnames": 2380,
      "aly": 2381,
      "ĠAy": 2382,
      "Ġforty": 2383,
      "ament": 2384,
      "ĠMich": 2385,
      "Ġriver": 2386,
      "Ġstep": 2387,
      "Ġreally": 2388,
      "aper": 2389,
      "ĠLook": 2390,
      "ĠLord": 2391,
      "ained": 2392,
      "ipper": 2393,
      "Ġspir": 2394,
      "ists": 2395,
      "uds": 2396,
      "Ġblank": 2397,
      "Ġsever": 2398,
      "asses": 2399,
      "Ġalso": 2400,
      "ĠJust": 2401,
      "ibly": 2402,
      "^^^": 2403,
      "Ġplaying": 2404,
      "Ġvoice": 2405,
      "Ġgeneral": 2406,
      "Ġlangu": 2407,
      "Ġtongue": 2408,
      "Ġbelieve": 2409,
      "Ġbeyond": 2410,
      "Ġthousand": 2411,
      ".)": 2412,
      "aim": 2413,
      "bt": 2414,
      "bre": 2415,
      "fall": 2416,
      "iant": 2417,
      "mas": 2418,
      "Ġll": 2419,
      "Ġiv": 2420,
      "hee": 2421,
      "Ġsou": 2422,
      "Ġsight": 2423,
      "Ġwife": 2424,
      "Ġbrown": 2425,
      "Ġbright": 2426,
      "Ġhill": 2427,
      "Ġfive": 2428,
      "Ġpu": 2429,
      "Ġpun": 2430,
      "Ġcent": 2431,
      "anes": 2432,
      "anch": 2433,
      "ench": 2434,
      "enny": 2435,
      "Ġlate": 2436,
      "Ġdut": 2437,
      "Ġdust": 2438,
      "Ġdare": 2439,
      "Ġng": 2440,
      "stown": 2441,
      "eless": 2442,
      "ĠIm": 2443,
      "ution": 2444,
      "omp": 2445,
      "Ġears": 2446,
      "ĠTom": 2447,
      "ĠSome": 2448,
      "ĠMor": 2449,
      "ĠMon": 2450,
      "see": 2451,
      "illing": 2452,
      "ently": 2453,
      "Ġreal": 2454,
      "ĠCr": 2455,
      "elled": 2456,
      "Ġlip": 2457,
      "abl": 2458,
      "abit": 2459,
      "Ġyours": 2460,
      "Ġjack": 2461,
      "ipe": 2462,
      "ctor": 2463,
      "Ġours": 2464,
      "Ġblow": 2465,
      "Ġdog": 2466,
      "Ġcontr": 2467,
      "Ġeng": 2468,
      "Ġletters": 2469,
      "Ġprec": 2470,
      "ields": 2471,
      "Ġcarry": 2472,
      "chers": 2473,
      "Ġfeeling": 2474,
      "Ġnatural": 2475,
      "Ġhuman": 2476,
      "Ġduring": 2477,
      "Ġlovely": 2478,
      "00": 2479,
      "hr": 2480,
      "hand": 2481,
      "kers": 2482,
      "pers": 2483,
      "uke": 2484,
      "Ġtip": 2485,
      "Ġsum": 2486,
      "Ġsus": 2487,
      "Ġsumm": 2488,
      "eral": 2489,
      "Ġwise": 2490,
      "Ġbas": 2491,
      "Ġbrow": 2492,
      "Ġburn": 2493,
      "Ġhay": 2494,
      "Ġhind": 2495,
      "Ġfly": 2496,
      "lls": 2497,
      "Ġmat": 2498,
      "Ġmix": 2499,
      "Ġmount": 2500,
      "Ġcou": 2501,
      "Ġcool": 2502,
      "oned": 2503,
      "Ġdim": 2504,
      "Ġthick": 2505,
      "Ġnone": 2506,
      "Ġgay": 2507,
      "eld": 2508,
      "urt": 2509,
      "ote": 2510,
      "otch": 2511,
      "ĠTip": 2512,
      "ĠSch": 2513,
      "iddy": 2514,
      "ĠHar": 2515,
      "iling": 2516,
      "ĠCar": 2517,
      "elling": 2518,
      "uls": 2519,
      "ĠLa": 2520,
      "ĠLiv": 2521,
      "ĠFather": 2522,
      "Ġanswer": 2523,
      "Ġord": 2524,
      "ored": 2525,
      "oles": 2526,
      "Ġate": 2527,
      "ified": 2528,
      "igs": 2529,
      "Ġval": 2530,
      "Ġabs": 2531,
      "pped": 2532,
      "Ġbrought": 2533,
      "Ġgrass": 2534,
      "ugs": 2535,
      "Ġpeop": 2536,
      "Ġdraw": 2537,
      "Ġadm": 2538,
      "aunt": 2539,
      "Ġlooked": 2540,
      "Ġbuy": 2541,
      "iety": 2542,
      "imply": 2543,
      "Ġmilk": 2544,
      "Ġsomething": 2545,
      "====": 2546,
      "ND": 2547,
      "ae": 2548,
      "bing": 2549,
      "band": 2550,
      "fr": 2551,
      "ially": 2552,
      "light": 2553,
      "ugh": 2554,
      "wer": 2555,
      "was": 2556,
      "ints": 2557,
      "Ġsed": 2558,
      "Ġsow": 2559,
      "Ġsav": 2560,
      "Ġsigh": 2561,
      "Ġhall": 2562,
      "ata": 2563,
      "orse": 2564,
      "Ġpill": 2565,
      "Ġled": 2566,
      "Ġlap": 2567,
      "Ġlass": 2568,
      "Ġdry": 2569,
      "Ġtogether": 2570,
      "Ġhero": 2571,
      "Ġthrow": 2572,
      "Ġthanks": 2573,
      "Ġnay": 2574,
      "Ġyes": 2575,
      "icular": 2576,
      "owers": 2577,
      "ety": 2578,
      "Ġhist": 2579,
      "urr": 2580,
      "acy": 2581,
      "Ġbear": 2582,
      "Ġwhate": 2583,
      "ĠMad": 2584,
      "ĠHon": 2585,
      "ĠHigh": 2586,
      "ĠBig": 2587,
      "Ġlives": 2588,
      "Ġmeans": 2589,
      "Ġsold": 2590,
      "ĠFm": 2591,
      "ĠFr": 2592,
      "ods": 2593,
      "ĠEar": 2594,
      "oods": 2595,
      "Ġloc": 2596,
      "Ġground": 2597,
      "itten": 2598,
      "Ġprod": 2599,
      "Ġcommon": 2600,
      "ups": 2601,
      "inner": 2602,
      "ailing": 2603,
      "Ġunderstand": 2604,
      "Ġstra": 2605,
      "ggest": 2606,
      "ettes": 2607,
      "Ġdisc": 2608,
      "Ġturned": 2609,
      "Ġnature": 2610,
      "ĠWillingd": 2611,
      "ripes": 2612,
      "Ġhappy": 2613,
      "Ġcountry": 2614,
      "Ġroyal": 2615,
      "ĠIreland": 2616,
      "ĠWillingdone": 2617,
      "32": 2618,
      "bow": 2619,
      "box": 2620,
      "foot": 2621,
      "his": 2622,
      "po": 2623,
      "sch": 2624,
      "wr": 2625,
      "Ġtears": 2626,
      "Ġaye": 2627,
      "Ġsad": 2628,
      "erd": 2629,
      "reen": 2630,
      "Ġfil": 2631,
      "ital": 2632,
      "itty": 2633,
      "Ġcause": 2634,
      "Ġlic": 2635,
      "Ġline": 2636,
      "Ġlau": 2637,
      "Ġdumb": 2638,
      "ases": 2639,
      "Ġthus": 2640,
      "rog": 2641,
      "Ġforth": 2642,
      "aman": 2643,
      "ĠMount": 2644,
      "ĠHear": 2645,
      "ĠBro": 2646,
      "cept": 2647,
      "ĠFirst": 2648,
      "olo": 2649,
      "Ġwhether": 2650,
      "esses": 2651,
      "ĠNol": 2652,
      "empt": 2653,
      "udge": 2654,
      "Ġsuper": 2655,
      "Ġsuggest": 2656,
      "Ġtruth": 2657,
      "Ġamb": 2658,
      "place": 2659,
      "Ġperfect": 2660,
      "Ġwork": 2661,
      "Ġworth": 2662,
      "Ġpretty": 2663,
      "Ġanything": 2664,
      "ĠStreet": 2665,
      "who": 2666,
      "Ġothers": 2667,
      "ized": 2668,
      "ĠChrist": 2669,
      "ummy": 2670,
      "ĠShem": 2671,
      "ipping": 2672,
      "Ġimpro": 2673,
      "Ġschool": 2674,
      "Ġfaith": 2675,
      "Ġgarden": 2676,
      "Ġfresh": 2677,
      "ai": 2678,
      "aj": 2679,
      "dr": 2680,
      "hy": 2681,
      "hib": 2682,
      "haps": 2683,
      "iers": 2684,
      "pos": 2685,
      "ral": 2686,
      "sk": 2687,
      "she": 2688,
      "Ġtear": 2689,
      "het": 2690,
      "inous": 2691,
      "Ġwo": 2692,
      "Ġwis": 2693,
      "Ġwan": 2694,
      "Ġba": 2695,
      "Ġbill": 2696,
      "Ġband": 2697,
      "Ġhy": 2698,
      "Ġhours": 2699,
      "Ġhoney": 2700,
      "Ġmud": 2701,
      "Ġmere": 2702,
      "Ġmort": 2703,
      "itude": 2704,
      "Ġpee": 2705,
      "Ġpant": 2706,
      "Ġpuff": 2707,
      "any": 2708,
      "Ġtowards": 2709,
      "Ġthro": 2710,
      "Ġga": 2711,
      "ete": 2712,
      "urk": 2713,
      "ury": 2714,
      "ayed": 2715,
      "ĠSk": 2716,
      "Ġwhil": 2717,
      "Ġstre": 2718,
      "ility": 2719,
      "Ġrepe": 2720,
      "Ġliber": 2721,
      "ĠOl": 2722,
      "Ġsore": 2723,
      "Ġshad": 2724,
      "ĠLuc": 2725,
      "ĠDel": 2726,
      "Ġven": 2727,
      "ourn": 2728,
      "eman": 2729,
      "Ġsend": 2730,
      "Ġneck": 2731,
      "Ġtwenty": 2732,
      "arest": 2733,
      "Ġroad": 2734,
      "Ġlock": 2735,
      "ĠKev": 2736,
      "Ġknock": 2737,
      "Ġwouldn": 2738,
      "oking": 2739,
      "ĠAnna": 2740,
      "idden": 2741,
      "uddle": 2742,
      "Ġsecret": 2743,
      "Ġgetting": 2744,
      "Ġfollow": 2745,
      "ength": 2746,
      "ĠHoly": 2747,
      "Ġqueen": 2748,
      "load": 2749,
      "Ġhonour": 2750,
      "ĠTwo": 2751,
      "Ġeffect": 2752,
      "ĠTHE": 2753,
      "Ġwhatever": 2754,
      "-^": 2755,
      "UT": 2756,
      "ba": 2757,
      "bor": 2758,
      "do": 2759,
      "eg": 2760,
      "eh": 2761,
      "eks": 2762,
      "ham": 2763,
      "mar": 2764,
      "par": 2765,
      "pass": 2766,
      "time": 2767,
      "uous": 2768,
      "val": 2769,
      "wing": 2770,
      "Ġ?": 2771,
      "ĠX": 2772,
      "Ġtale": 2773,
      "Ġale": 2774,
      "ining": 2775,
      "Ġsel": 2776,
      "Ġsent": 2777,
      "Ġsense": 2778,
      "Ġwide": 2779,
      "Ġboot": 2780,
      "isy": 2781,
      "isters": 2782,
      "Ġfast": 2783,
      "Ġmes": 2784,
      "esc": 2785,
      "ately": 2786,
      "ora": 2787,
      "Ġcul": 2788,
      "Ġcrown": 2789,
      "Ġthirty": 2790,
      "room": 2791,
      "Ġnin": 2792,
      "Ġnine": 2793,
      "Ġgn": 2794,
      "ican": 2795,
      "alis": 2796,
      "ĠII": 2797,
      "iment": 2798,
      "urg": 2799,
      "Ġeh": 2800,
      "ĠTake": 2801,
      "ĠSure": 2802,
      "Ġwhis": 2803,
      "idence": 2804,
      "ument": 2805,
      "ĠHill": 2806,
      "ĠBre": 2807,
      "ĠBet": 2808,
      "Ġstar": 2809,
      "Ġstock": 2810,
      "ional": 2811,
      "ĠChe": 2812,
      "agon": 2813,
      "ague": 2814,
      "Ġliving": 2815,
      "Ġlips": 2816,
      "about": 2817,
      "Ġshirt": 2818,
      "ĠDublin": 2819,
      "Ġchrist": 2820,
      "Ġsuit": 2821,
      "Ġpled": 2822,
      "ĠRo": 2823,
      "Ġleaves": 2824,
      "Ġdoom": 2825,
      "Ġflash": 2826,
      "Ġarms": 2827,
      "Ġcover": 2828,
      "Ġprinc": 2829,
      "Ġswear": 2830,
      "ailed": 2831,
      "aching": 2832,
      "Ġenc": 2833,
      "apped": 2834,
      "anny": 2835,
      "Ġearly": 2836,
      "Ġbelow": 2837,
      "Ġserv": 2838,
      "igger": 2839,
      "Ġgirls": 2840,
      "ĠGreat": 2841,
      "Ġsorry": 2842,
      "Ġtrying": 2843,
      "Ġuntil": 2844,
      "EN": 2845,
      "IS": 2846,
      "bell": 2847,
      "come": 2848,
      "far": 2849,
      "fort": 2850,
      "gan": 2851,
      "iot": 2852,
      "iqu": 2853,
      "log": 2854,
      "may": 2855,
      "night": 2856,
      "ped": 2857,
      "rs": 2858,
      "uce": 2859,
      "ucc": 2860,
      "vol": 2861,
      "yer": 2862,
      "yed": 2863,
      "Ġut": 2864,
      "heart": 2865,
      "Ġobl": 2866,
      "Ġsens": 2867,
      "Ġwel": 2868,
      "Ġber": 2869,
      "Ġbal": 2870,
      "Ġboo": 2871,
      "Ġbody": 2872,
      "Ġhos": 2873,
      "Ġfig": 2874,
      "orr": 2875,
      "orum": 2876,
      "Ġpul": 2877,
      "Ġpict": 2878,
      "Ġcant": 2879,
      "Ġcrow": 2880,
      "Ġcaught": 2881,
      "Ġcaus": 2882,
      "edly": 2883,
      "Ġloo": 2884,
      "Ġlaid": 2885,
      "Ġloose": 2886,
      "Ġdee": 2887,
      "Ġdub": 2888,
      "Ġdress": 2889,
      "rod": 2890,
      "ĠAfter": 2891,
      "ached": 2892,
      "aches": 2893,
      "Ġul": 2894,
      "ĠMook": 2895,
      "ĠWall": 2896,
      "Ġstream": 2897,
      "ĠCol": 2898,
      "rier": 2899,
      "elles": 2900,
      "again": 2901,
      "ĠOut": 2902,
      "Ġship": 2903,
      "ĠFe": 2904,
      "Ġkick": 2905,
      "eek": 2906,
      "esty": 2907,
      "Ġjolly": 2908,
      "Ġchurch": 2909,
      "Ġspeech": 2910,
      "odge": 2911,
      "ĠEs": 2912,
      "ĠEvery": 2913,
      "blin": 2914,
      "Ġconst": 2915,
      "ĠJer": 2916,
      "Ġquar": 2917,
      "Ġquiet": 2918,
      "ooking": 2919,
      "Ġarm": 2920,
      "Ġclass": 2921,
      "Ġclose": 2922,
      "ibus": 2923,
      "Ġpock": 2924,
      "Ġfeed": 2925,
      "ollow": 2926,
      "Ġslow": 2927,
      "ĠAng": 2928,
      "Ġstruck": 2929,
      "Ġsmall": 2930,
      "ĠStr": 2931,
      "Ġtelling": 2932,
      "Ġlooks": 2933,
      "Ġelse": 2934,
      "Ġparts": 2935,
      "ettle": 2936,
      "Ġthinking": 2937,
      "rench": 2938,
      "ification": 2939,
      "Ġpaper": 2940,
      "Ġgolden": 2941,
      "bus": 2942,
      "cus": 2943,
      "face": 2944,
      "gor": 2945,
      "ij": 2946,
      "maid": 2947,
      "now": 2948,
      "ually": 2949,
      "va": 2950,
      "Ġide": 2951,
      "Ġtar": 2952,
      "Ġtil": 2953,
      "Ġath": 2954,
      "inct": 2955,
      "era": 2956,
      "Ġwest": 2957,
      "Ġwink": 2958,
      "Ġbold": 2959,
      "Ġbird": 2960,
      "Ġhu": 2961,
      "Ġhump": 2962,
      "Ġfal": 2963,
      "Ġfav": 2964,
      "Ġfart": 2965,
      "lla": 2966,
      "Ġpit": 2967,
      "Ġpower": 2968,
      "Ġcum": 2969,
      "Ġcatch": 2970,
      "aned": 2971,
      "enes": 2972,
      "Ġdump": 2973,
      "Ġdrop": 2974,
      "Ġink": 2975,
      "leg": 2976,
      "lets": 2977,
      "Ġgle": 2978,
      "Ġgun": 2979,
      "iced": 2980,
      "ality": 2981,
      "othes": 2982,
      "Ġeast": 2983,
      "ĠSal": 2984,
      "ĠSte": 2985,
      "umble": 2986,
      "ĠHa": 2987,
      "Ġrace": 2988,
      "Ġrather": 2989,
      "cho": 2990,
      "ching": 2991,
      "ĠBo": 2992,
      "ĠBel": 2993,
      "Ġsty": 2994,
      "Ġstick": 2995,
      "Ġstud": 2996,
      "Ġstreet": 2997,
      "unny": 2998,
      "Ġwash": 2999,
      "ĠConn": 3000,
      "rian": 3001,
      "ĠPor": 3002,
      "ĠPet": 3003,
      "cend": 3004,
      "ceed": 3005,
      "ules": 3006,
      "ĠDom": 3007,
      "iful": 3008,
      "oper": 3009,
      "Ġvill": 3010,
      "Ġju": 3011,
      "Ġspot": 3012,
      "away": 3013,
      "ĠEm": 3014,
      "ĠEng": 3015,
      "avy": 3016,
      "Ġleap": 3017,
      "Ġsex": 3018,
      "Ġtrust": 3019,
      "Ġtrans": 3020,
      "Ġflood": 3021,
      "Ġflesh": 3022,
      "Ġloves": 3023,
      "Ġloved": 3024,
      "!).": 3025,
      "pper": 3026,
      "ogr": 3027,
      "Ġcloud": 3028,
      "ucks": 3029,
      "ubber": 3030,
      "Ġcomb": 3031,
      "Ġcompan": 3032,
      "mans": 3033,
      "Ġseem": 3034,
      "obs": 3035,
      "ĠUl": 3036,
      "Ġdrink": 3037,
      "Ġcrack": 3038,
      "Ġsmile": 3039,
      "azz": 3040,
      "ials": 3041,
      "php": 3042,
      "ize": 3043,
      "Ġbreak": 3044,
      "Ġbelong": 3045,
      "Ġcurse": 3046,
      "Ġparty": 3047,
      "Ġsalt": 3048,
      "Ġbegin": 3049,
      "Ġacqu": 3050,
      "Ġhearts": 3051,
      "Ġturf": 3052,
      "Ġdouble": 3053,
      "Ġclear": 3054,
      "Ġhorse": 3055,
      "Ġgiving": 3056,
      "Ġrespectable": 3057,
      "Ġindeed": 3058,
      "Ġcorner": 3059,
      "Ġseveral": 3060,
      "FF": 3061,
      "bers": 3062,
      "bear": 3063,
      "can": 3064,
      "cap": 3065,
      "father": 3066,
      "har": 3067,
      "la": 3068,
      "len": 3069,
      "long": 3070,
      "mark": 3071,
      "oft": 3072,
      "pat": 3073,
      "rim": 3074,
      "rus": 3075,
      "sing": 3076,
      "ta": 3077,
      "tion": 3078,
      "Ġ7": 3079,
      "Ġign": 3080,
      "Ġting": 3081,
      "Ġtor": 3082,
      "Ġtable": 3083,
      "Ġox": 3084,
      "Ġsick": 3085,
      "Ġsister": 3086,
      "Ġwi": 3087,
      "Ġwro": 3088,
      "Ġbol": 3089,
      "Ġbos": 3090,
      "Ġbene": 3091,
      "oust": 3092,
      "isf": 3093,
      "Ġfer": 3094,
      "Ġfif": 3095,
      "Ġfoul": 3096,
      "Ġfelt": 3097,
      "atic": 3098,
      "atory": 3099,
      "ories": 3100,
      "Ġpa": 3101,
      "Ġpon": 3102,
      "Ġpack": 3103,
      "Ġpeep": 3104,
      "Ġcher": 3105,
      "Ġciv": 3106,
      "Ġcash": 3107,
      "Ġdet": 3108,
      "Ġdate": 3109,
      "Ġthor": 3110,
      "Ġna": 3111,
      "Ġnigh": 3112,
      "Ġnought": 3113,
      "eline": 3114,
      "urd": 3115,
      "irr": 3116,
      "irts": 3117,
      "Ġeas": 3118,
      "Ġeight": 3119,
      "aying": 3120,
      "ading": 3121,
      "aded": 3122,
      "acon": 3123,
      "ama": 3124,
      "ĠMal": 3125,
      "send": 3126,
      "ĠHim": 3127,
      "Ġasking": 3128,
      "rif": 3129,
      "ager": 3130,
      "Ġlived": 3131,
      "though": 3132,
      "Ġshame": 3133,
      "olic": 3134,
      "Ġvel": 3135,
      "Ġje": 3136,
      "Ġchamp": 3137,
      "Ġspace": 3138,
      "asts": 3139,
      "ĠEre": 3140,
      "Ġbutter": 3141,
      "Ġplant": 3142,
      "Ġdozen": 3143,
      "ishing": 3144,
      "Ġusual": 3145,
      "ubs": 3146,
      "Ġscar": 3147,
      "Ġpra": 3148,
      "Ġprice": 3149,
      "pend": 3150,
      "innies": 3151,
      "Ġcannot": 3152,
      "okes": 3153,
      "weet": 3154,
      "appy": 3155,
      "apping": 3156,
      "phy": 3157,
      "Ġimm": 3158,
      "Ġhole": 3159,
      "uffs": 3160,
      "ĠArr": 3161,
      "aggy": 3162,
      "Ġguard": 3163,
      "Ġmerry": 3164,
      "Ġheavy": 3165,
      "Ġmaj": 3166,
      "Ġdevil": 3167,
      "Ġweek": 3168,
      "Ġreading": 3169,
      "Ġlisten": 3170,
      "Ġbottle": 3171,
      "Ġancient": 3172,
      "Ġhusband": 3173,
      "Ġdiffer": 3174,
      "aft": 3175,
      "ban": 3176,
      "ces": 3177,
      "full": 3178,
      "gt": 3179,
      "hood": 3180,
      "iod": 3181,
      "iated": 3182,
      "jo": 3183,
      "ka": 3184,
      "oz": 3185,
      "post": 3186,
      "pty": 3187,
      "sed": 3188,
      "uer": 3189,
      "whe": 3190,
      "war": 3191,
      "wall": 3192,
      "wind": 3193,
      "wood": 3194,
      "Ġutter": 3195,
      "Ġtest": 3196,
      "Ġtight": 3197,
      "hest": 3198,
      "ination": 3199,
      "Ġoh": 3200,
      "Ġos": 3201,
      "Ġwand": 3202,
      "Ġwol": 3203,
      "Ġbaw": 3204,
      "Ġbug": 3205,
      "Ġhog": 3206,
      "Ġhide": 3207,
      "Ġhug": 3208,
      "Ġfing": 3209,
      "Ġfac": 3210,
      "Ġfain": 3211,
      "Ġmu": 3212,
      "Ġmand": 3213,
      "Ġmult": 3214,
      "oric": 3215,
      "Ġpf": 3216,
      "Ġpear": 3217,
      "Ġpage": 3218,
      "Ġpiece": 3219,
      "Ġcad": 3220,
      "Ġcand": 3221,
      "arm": 3222,
      "Ġlab": 3223,
      "Ġluc": 3224,
      "Ġdun": 3225,
      "Ġdod": 3226,
      "Ġtoll": 3227,
      "Ġtoot": 3228,
      "Ġthird": 3229,
      "rot": 3230,
      "Ġnav": 3231,
      "ala": 3232,
      "aled": 3233,
      "ura": 3234,
      "ĠAb": 3235,
      "Ġyouth": 3236,
      "irl": 3237,
      "othe": 3238,
      "ĠTA": 3239,
      "aming": 3240,
      "Ġbef": 3241,
      "Ġbeat": 3242,
      "ĠSuch": 3243,
      "ĠMer": 3244,
      "ĠMess": 3245,
      "ĠMark": 3246,
      "ĠMutt": 3247,
      "ĠHouse": 3248,
      "Ġram": 3249,
      "Ġraw": 3250,
      "Ġrise": 3251,
      "chin": 3252,
      "usion": 3253,
      "Ġitself": 3254,
      "Ġrepl": 3255,
      "ĠCast": 3256,
      "apper": 3257,
      "Ġhers": 3258,
      "ĠOh": 3259,
      "Ġsole": 3260,
      "Ġshop": 3261,
      "Ġshake": 3262,
      "Ġkne": 3263,
      "osing": 3264,
      "igan": 3265,
      "ighed": 3266,
      "Ġcho": 3267,
      "Ġchief": 3268,
      "ĠGripes": 3269,
      "icky": 3270,
      "Ġtheirs": 3271,
      "akers": 3272,
      "Ġsucc": 3273,
      "Ġplan": 3274,
      "ĠRem": 3275,
      "arts": 3276,
      "Ġdef": 3277,
      "Ġdeed": 3278,
      "ived": 3279,
      "Ġrow": 3280,
      "Ġroom": 3281,
      "ĠJaun": 3282,
      "Ġable": 3283,
      "Ġuns": 3284,
      "Ġclo": 3285,
      "Ġcloth": 3286,
      "Ġbrand": 3287,
      "ibs": 3288,
      "issim": 3289,
      "Ġgoat": 3290,
      "upon": 3291,
      "Ġseek": 3292,
      "Ġgrey": 3293,
      "Ġperhaps": 3294,
      "ools": 3295,
      "ĠStill": 3296,
      "azy": 3297,
      "Ġfront": 3298,
      "while": 3299,
      "white": 3300,
      "Ġ11": 3301,
      "Ġbread": 3302,
      "ierce": 3303,
      "Ġsnow": 3304,
      "Ġbecome": 3305,
      "Ġbecoming": 3306,
      "Ġwarm": 3307,
      "rent": 3308,
      "Ġspec": 3309,
      "ĠBlack": 3310,
      "Ġcourt": 3311,
      "Ġsilence": 3312,
      "Ġbeside": 3313,
      "Ġporter": 3314,
      "Ġcircum": 3315,
      "boys": 3316,
      "Ġwaiting": 3317,
      "stead": 3318,
      "download": 3319,
      "ĠHumph": 3320,
      "Ġtrouble": 3321,
      "Ġdaughter": 3322,
      "Ġsagd": 3323,
      "ĠKevin": 3324,
      "IN": 3325,
      "Tis": 3326,
      "bal": 3327,
      "gue": 3328,
      "hill": 3329,
      "lar": 3330,
      "mother": 3331,
      "oly": 3332,
      "ping": 3333,
      "rine": 3334,
      "ua": 3335,
      "yst": 3336,
      "Ġ&": 3337,
      "Ġil": 3338,
      "Ġers": 3339,
      "Ġta": 3340,
      "Ġtu": 3341,
      "Ġton": 3342,
      "Ġtay": 3343,
      "Ġtour": 3344,
      "Ġtick": 3345,
      "Ġaut": 3346,
      "Ġoil": 3347,
      "Ġsimply": 3348,
      "Ġbark": 3349,
      "Ġbank": 3350,
      "Ġbush": 3351,
      "Ġhi": 3352,
      "Ġhook": 3353,
      "Ġfi": 3354,
      "Ġfum": 3355,
      "Ġfill": 3356,
      "Ġfox": 3357,
      "Ġmaster": 3358,
      "atty": 3359,
      "orous": 3360,
      "Ġps": 3361,
      "Ġpour": 3362,
      "Ġpars": 3363,
      "Ġpatter": 3364,
      "Ġcong": 3365,
      "aries": 3366,
      "ana": 3367,
      "anz": 3368,
      "enly": 3369,
      "Ġlust": 3370,
      "Ġlump": 3371,
      "Ġlength": 3372,
      "Ġdrown": 3373,
      "Ġheld": 3374,
      "Ġthre": 3375,
      "road": 3376,
      "Ġnum": 3377,
      "etime": 3378,
      "elic": 3379,
      "uta": 3380,
      "utes": 3381,
      "Ġec": 3382,
      "Ġeat": 3383,
      "Ġeve": 3384,
      "ĠTar": 3385,
      "Ġforg": 3386,
      "acul": 3387,
      "amin": 3388,
      "amer": 3389,
      "ĠSw": 3390,
      "ĠSing": 3391,
      "Ġwhit": 3392,
      "ĠMatt": 3393,
      "ĠHom": 3394,
      "Ġran": 3395,
      "Ġrich": 3396,
      "ĠBUT": 3397,
      "Ġstat": 3398,
      "Ġstood": 3399,
      "ili": 3400,
      "alling": 3401,
      "Ġrequ": 3402,
      "abs": 3403,
      "Ġshoot": 3404,
      "ĠFing": 3405,
      "ĠDun": 3406,
      "ĠDear": 3407,
      "oses": 3408,
      "ifer": 3409,
      "aining": 3410,
      "ĠTheir": 3411,
      "Ġspring": 3412,
      "earch": 3413,
      "inder": 3414,
      "isted": 3415,
      "udg": 3416,
      "Ġsheep": 3417,
      "Ġalone": 3418,
      "bler": 3419,
      "ĠThou": 3420,
      "ogue": 3421,
      "Ġbride": 3422,
      "ucky": 3423,
      "Ġexpect": 3424,
      "Ġscene": 3425,
      "itted": 3426,
      "Ġcompl": 3427,
      "ahs": 3428,
      "Ġdidn": 3429,
      "oult": 3430,
      "ugger": 3431,
      "Ġpassing": 3432,
      "Ġfalls": 3433,
      "Ġaccom": 3434,
      "Ġaccord": 3435,
      "ĠNew": 3436,
      "ences": 3437,
      "Ġburst": 3438,
      "Ġdoubt": 3439,
      "immy": 3440,
      "Ġcapt": 3441,
      "Ġentire": 3442,
      "Ġtomorrow": 3443,
      "Ġmusic": 3444,
      "ĠAdam": 3445,
      "Ġsafe": 3446,
      "Ġlarge": 3447,
      "Ġeleven": 3448,
      "ology": 3449,
      "Ġoccas": 3450,
      "Ġprivate": 3451,
      "Ġfuture": 3452,
      "ĠMichael": 3453,
      "Ġpeople": 3454,
      "ĠMookse": 3455,
      "ĠTAFF": 3456,
      "ĠBUTT": 3457,
      "',": 3458,
      "'^": 3459,
      "ES": 3460,
      "bag": 3461,
      "cle": 3462,
      "cent": 3463,
      "lock": 3464,
      "mo": 3465,
      "no": 3466,
      "py": 3467,
      "rin": 3468,
      "ray": 3469,
      "rant": 3470,
      "ser": 3471,
      "some": 3472,
      "tle": 3473,
      "town": 3474,
      "uro": 3475,
      "uction": 3476,
      "ww": 3477,
      "yf": 3478,
      "Ġ8": 3479,
      "Ġess": 3480,
      "Ġtakes": 3481,
      "Ġax": 3482,
      "inter": 3483,
      "Ġore": 3484,
      "Ġopp": 3485,
      "Ġsen": 3486,
      "Ġsul": 3487,
      "Ġsang": 3488,
      "Ġsail": 3489,
      "Ġsons": 3490,
      "Ġwing": 3491,
      "Ġward": 3492,
      "Ġwine": 3493,
      "Ġbox": 3494,
      "Ġhath": 3495,
      "Ġfou": 3496,
      "Ġmeth": 3497,
      "Ġmoney": 3498,
      "Ġmiddle": 3499,
      "itor": 3500,
      "orge": 3501,
      "Ġcost": 3502,
      "Ġcree": 3503,
      "arse": 3504,
      "edy": 3505,
      "Ġlat": 3506,
      "Ġdirty": 3507,
      "Ġtoss": 3508,
      "Ġhed": 3509,
      "Ġhealth": 3510,
      "Ġthin": 3511,
      "rock": 3512,
      "Ġgross": 3513,
      "Ġyell": 3514,
      "ico": 3515,
      "ĠAtt": 3516,
      "ĠAND": 3517,
      "otty": 3518,
      "Ġbee": 3519,
      "Ġbegg": 3520,
      "ĠSom": 3521,
      "ĠMake": 3522,
      "ĠMoy": 3523,
      "umper": 3524,
      "ĠHel": 3525,
      "ĠHell": 3526,
      "Ġris": 3527,
      "Ġrum": 3528,
      "Ġriv": 3529,
      "Ġrush": 3530,
      "ĠWor": 3531,
      "Ġstout": 3532,
      "Ġstate": 3533,
      "usp": 3534,
      "ilar": 3535,
      "aped": 3536,
      "ersse": 3537,
      "ĠOF": 3538,
      "ulation": 3539,
      "Ġshr": 3540,
      "ĠDown": 3541,
      "opper": 3542,
      "Ġvict": 3543,
      "essed": 3544,
      "ickers": 3545,
      "Ġhaw": 3546,
      "ante": 3547,
      "Ġweight": 3548,
      "eme": 3549,
      "ctions": 3550,
      "oder": 3551,
      "ĠEven": 3552,
      "istle": 3553,
      "Ġblind": 3554,
      "Ġleaf": 3555,
      "Ġdeaf": 3556,
      "ounded": 3557,
      "Ġtwin": 3558,
      "Ġconne": 3559,
      "ĠJute": 3560,
      "Ġamid": 3561,
      "ooks": 3562,
      "iley": 3563,
      "Ġclou": 3564,
      "iber": 3565,
      "Ġgrac": 3566,
      "Ġgrave": 3567,
      "Ġpeer": 3568,
      "oother": 3569,
      "obe": 3570,
      "Ġenjoy": 3571,
      "ĠUnder": 3572,
      "ĠAny": 3573,
      "Ġsmell": 3574,
      "Ġglow": 3575,
      "Ġglad": 3576,
      "Ġglory": 3577,
      "Ġeverything": 3578,
      "gged": 3579,
      "anned": 3580,
      "action": 3581,
      "Ġtea": 3582,
      "Ġcheek": 3583,
      "Ġkey": 3584,
      "umbs": 3585,
      "Ġwrite": 3586,
      "iction": 3587,
      "Ġturning": 3588,
      "ĠGrand": 3589,
      "Ġacross": 3590,
      "Ġpurs": 3591,
      "Ġpriest": 3592,
      "addle": 3593,
      "Ġinside": 3594,
      "Ġpige": 3595,
      "Ġmagn": 3596,
      "Ġlistening": 3597,
      "Ġtruly": 3598,
      "Ġbusiness": 3599,
      "Ġquestion": 3600,
      "Ġfirm": 3601,
      "Ġdarling": 3602,
      "OM": 3603,
      "bu": 3604,
      "ding": 3605,
      "dress": 3606,
      "hal": 3607,
      "hoo": 3608,
      "hole": 3609,
      "lan": 3610,
      "lish": 3611,
      "mind": 3612,
      "master": 3613,
      "nis": 3614,
      "nes": 3615,
      "pond": 3616,
      "ties": 3617,
      "uU": 3618,
      "vin": 3619,
      "will": 3620,
      "Ġ;": 3621,
      "Ġ<": 3622,
      "Ġic": 3623,
      "Ġtin": 3624,
      "Ġorig": 3625,
      "Ġsell": 3626,
      "Ġsie": 3627,
      "Ġsitting": 3628,
      "nders": 3629,
      "Ġwore": 3630,
      "Ġware": 3631,
      "Ġwants": 3632,
      "Ġwaves": 3633,
      "Ġbou": 3634,
      "Ġbay": 3635,
      "Ġbod": 3636,
      "Ġbree": 3637,
      "Ġbub": 3638,
      "Ġbrief": 3639,
      "rec": 3640,
      "Ġhit": 3641,
      "Ġfee": 3642,
      "Ġfight": 3643,
      "Ġfancy": 3644,
      "Ġmas": 3645,
      "Ġmart": 3646,
      "Ġmagg": 3647,
      "itary": 3648,
      "Ġped": 3649,
      "Ġpard": 3650,
      "Ġpie": 3651,
      "Ġpale": 3652,
      "Ġpool": 3653,
      "Ġca": 3654,
      "Ġcas": 3655,
      "Ġcod": 3656,
      "Ġcust": 3657,
      "onk": 3658,
      "aning": 3659,
      "ena": 3660,
      "Ġles": 3661,
      "Ġlav": 3662,
      "Ġlater": 3663,
      "Ġlatter": 3664,
      "Ġloud": 3665,
      "Ġder": 3666,
      "Ġdor": 3667,
      "Ġtow": 3668,
      "Ġtooth": 3669,
      "asing": 3670,
      "Ġgang": 3671,
      "ica": 3672,
      "ication": 3673,
      "imus": 3674,
      "utch": 3675,
      "uring": 3676,
      "urse": 3677,
      "otter": 3678,
      "ĠTer": 3679,
      "ĠTim": 3680,
      "acle": 3681,
      "Ġbeau": 3682,
      "ĠSat": 3683,
      "vert": 3684,
      "ĠMary": 3685,
      "umed": 3686,
      "ĠHum": 3687,
      "Ġrare": 3688,
      "Ġrising": 3689,
      "ĠWalk": 3690,
      "Ġreason": 3691,
      "ĠCap": 3692,
      "ĠColl": 3693,
      "riv": 3694,
      "apes": 3695,
      "agan": 3696,
      "ĠPa": 3697,
      "ĠPoor": 3698,
      "Ġshy": 3699,
      "Ġshot": 3700,
      "ĠLy": 3701,
      "ĠFar": 3702,
      "ĠFair": 3703,
      "Ġvent": 3704,
      "Ġjew": 3705,
      "Ġchor": 3706,
      "Ġchance": 3707,
      "ession": 3708,
      "ĠGill": 3709,
      "ĠGive": 3710,
      "Ġhaven": 3711,
      "Ġwear": 3712,
      "emen": 3713,
      "iph": 3714,
      "asty": 3715,
      "Ġsup": 3716,
      "Ġplus": 3717,
      "Ġleast": 3718,
      "uster": 3719,
      "Ġdecl": 3720,
      "assed": 3721,
      "ĠThough": 3722,
      "ĠThree": 3723,
      "Ġrob": 3724,
      "Ġflat": 3725,
      "ĠWhite": 3726,
      "Ġunl": 3727,
      "ogether": 3728,
      "Ġbrid": 3729,
      "Ġbridge": 3730,
      "Ġcoat": 3731,
      "Ġproud": 3732,
      "Ġprob": 3733,
      "Ġpoll": 3734,
      "upt": 3735,
      "mann": 3736,
      "ensed": 3737,
      "teen": 3738,
      "orted": 3739,
      "ĠUs": 3740,
      "oker": 3741,
      "oken": 3742,
      "ixed": 3743,
      "igned": 3744,
      "after": 3745,
      "ggs": 3746,
      "anced": 3747,
      "ĠInn": 3748,
      "uced": 3749,
      "Ġteeth": 3750,
      "Ġcheeks": 3751,
      "ĠArth": 3752,
      "Ġmarch": 3753,
      "Ġparticular": 3754,
      "Ġwriting": 3755,
      "Ġsky": 3756,
      "Ġremind": 3757,
      "ainted": 3758,
      "Ġtrip": 3759,
      "Ġladies": 3760,
      "ippy": 3761,
      "ipped": 3762,
      "Ġfalling": 3763,
      "Ġaccount": 3764,
      "Ġbegan": 3765,
      "ĠGrace": 3766,
      "Ġhighly": 3767,
      "Ġmeaning": 3768,
      "Ġfollowing": 3769,
      "!!!!": 3770,
      "Ġinnoc": 3771,
      "two": 3772,
      "Ġmemory": 3773,
      "Ġbirds": 3774,
      "Ġbeauty": 3775,
      "Ġnational": 3776,
      "Ġduty": 3777,
      "Ġadmir": 3778,
      "Ġstraight": 3779,
      "):": 3780,
      "born": 3781,
      "cre": 3782,
      "col": 3783,
      "da": 3784,
      "ded": 3785,
      "ford": 3786,
      "gues": 3787,
      "hat": 3788,
      "ique": 3789,
      "kiss": 3790,
      "low": 3791,
      "lay": 3792,
      "mes": 3793,
      "made": 3794,
      "oat": 3795,
      "oen": 3796,
      "oed": 3797,
      "ogh": 3798,
      "oons": 3799,
      "rid": 3800,
      "top": 3801,
      "tem": 3802,
      "tree": 3803,
      "vious": 3804,
      "water": 3805,
      "Ġtun": 3806,
      "Ġtab": 3807,
      "Ġaur": 3808,
      "ino": 3809,
      "inary": 3810,
      "Ġsi": 3811,
      "Ġsink": 3812,
      "Ġsearch": 3813,
      "Ġwre": 3814,
      "Ġwave": 3815,
      "Ġwax": 3816,
      "Ġboots": 3817,
      "Ġbooth": 3818,
      "Ġhig": 3819,
      "Ġhue": 3820,
      "Ġhoy": 3821,
      "Ġhabit": 3822,
      "isation": 3823,
      "Ġfund": 3824,
      "Ġfool": 3825,
      "Ġmove": 3826,
      "itation": 3827,
      "Ġpain": 3828,
      "Ġpound": 3829,
      "Ġpens": 3830,
      "Ġpump": 3831,
      "Ġpuss": 3832,
      "Ġpitch": 3833,
      "Ġcel": 3834,
      "Ġcard": 3835,
      "Ġcub": 3836,
      "Ġcream": 3837,
      "arian": 3838,
      "Ġling": 3839,
      "Ġlack": 3840,
      "Ġlung": 3841,
      "Ġlying": 3842,
      "Ġden": 3843,
      "Ġdue": 3844,
      "Ġdirt": 3845,
      "ashed": 3846,
      "Ġheat": 3847,
      "legs": 3848,
      "Ġthunder": 3849,
      "rol": 3850,
      "Ġnic": 3851,
      "Ġnom": 3852,
      "Ġgoo": 3853,
      "icul": 3854,
      "etch": 3855,
      "sts": 3856,
      "ĠIN": 3857,
      "imate": 3858,
      "omy": 3859,
      "omes": 3860,
      "Ġeasy": 3861,
      "acc": 3862,
      "ĠSol": 3863,
      "ĠSund": 3864,
      "ĠSince": 3865,
      "ĠMin": 3866,
      "sec": 3867,
      "sell": 3868,
      "umn": 3869,
      "ummer": 3870,
      "vey": 3871,
      "ĠHor": 3872,
      "ĠHas": 3873,
      "ĠHost": 3874,
      "Ġrag": 3875,
      "Ġramp": 3876,
      "ĠBa": 3877,
      "ĠBrow": 3878,
      "kee": 3879,
      "keys": 3880,
      "ĠWould": 3881,
      "ĠWoman": 3882,
      "Ġiss": 3883,
      "alley": 3884,
      "Ġrece": 3885,
      "ĠCor": 3886,
      "ĠCal": 3887,
      "ĠCur": 3888,
      "Ġliqu": 3889,
      "ĠPost": 3890,
      "ĠPark": 3891,
      "Ġmeat": 3892,
      "Ġmead": 3893,
      "that": 3894,
      "Ġshape": 3895,
      "ĠLo": 3896,
      "ĠLong": 3897,
      "ĠLady": 3898,
      "osc": 3899,
      "Ġwheel": 3900,
      "Ġvit": 3901,
      "Ġviv": 3902,
      "Ġvice": 3903,
      "oused": 3904,
      "emp": 3905,
      "emon": 3906,
      "asting": 3907,
      "Ġnotice": 3908,
      "acking": 3909,
      "istr": 3910,
      "udder": 3911,
      "Ġblush": 3912,
      "Ġsuff": 3913,
      "arty": 3914,
      "Ġleaving": 3915,
      "Ġneg": 3916,
      "Ġneigh": 3917,
      "ĠThr": 3918,
      "Ġrot": 3919,
      "Ġflu": 3920,
      "Ġflow": 3921,
      "Ġflower": 3922,
      "Ġconcl": 3923,
      "Ġquad": 3924,
      "Ġunf": 3925,
      "Ġmann": 3926,
      "Ġmans": 3927,
      "Ġpride": 3928,
      "uph": 3929,
      "berry": 3930,
      "Ġ^^": 3931,
      "Ġseeing": 3932,
      "airy": 3933,
      "orns": 3934,
      "ĠVer": 3935,
      "oked": 3936,
      "Ġprep": 3937,
      "ixt": 3938,
      "ĠStop": 3939,
      "azing": 3940,
      "Ġimper": 3941,
      "otted": 3942,
      "Ġfrank": 3943,
      "Ġfruit": 3944,
      "Ġnights": 3945,
      "atsch": 3946,
      "Ġerr": 3947,
      "Ġbreast": 3948,
      "Ġmarried": 3949,
      "Ġbelt": 3950,
      "agger": 3951,
      "Ġhearing": 3952,
      "Ġbehold": 3953,
      "Ġtrib": 3954,
      "Ġboard": 3955,
      "ĠQue": 3956,
      "Ġbuild": 3957,
      "Ġslee": 3958,
      "ammy": 3959,
      "Ġsilk": 3960,
      "Ġsilver": 3961,
      "Ġsilent": 3962,
      "Ġbitter": 3963,
      "worth": 3964,
      "Ġmeeting": 3965,
      "coat": 3966,
      "known": 3967,
      "Ġhonest": 3968,
      "Ġforgetting": 3969,
      "Ġpleased": 3970,
      "Ġtalking": 3971,
      "Ġomn": 3972,
      "Ġblessed": 3973,
      "Ġsplit": 3974,
      "words": 3975,
      "ĠNolan": 3976,
      "Ġfarther": 3977,
      "Ġstyle": 3978,
      "Ġreplied": 3979,
      "..": 3980,
      "22": 3981,
      "IT": 3982,
      "RE": 3983,
      "aa": 3984,
      "burn": 3985,
      "ees": 3986,
      "fle": 3987,
      "fire": 3988,
      "gle": 3989,
      "lies": 3990,
      "mat": 3991,
      "mal": 3992,
      "miss": 3993,
      "oiled": 3994,
      "tic": 3995,
      "uation": 3996,
      "uary": 3997,
      "vis": 3998,
      "view": 3999,
      "ville": 4000,
      "wicker": 4001,
      "yne": 4002,
      "Ġ)": 4003,
      "Ġ9": 4004,
      "Ġ[": 4005,
      "Ġith": 4006,
      "ĸł": 4007,
      "Ġts": 4008,
      "Ġtan": 4009,
      "Ġtap": 4010,
      "hew": 4011,
      "Ġaro": 4012,
      "Ġaug": 4013,
      "Ġauld": 4014,
      "Ġot": 4015,
      "Ġov": 4016,
      "Ġsam": 4017,
      "Ġsau": 4018,
      "Ġsaz": 4019,
      "erman": 4020,
      "Ġwail": 4021,
      "Ġbat": 4022,
      "Ġbath": 4023,
      "Ġbob": 4024,
      "Ġbully": 4025,
      "Ġbomb": 4026,
      "rect": 4027,
      "Ġhills": 4028,
      "Ġfit": 4029,
      "Ġfan": 4030,
      "Ġfright": 4031,
      "Ġfields": 4032,
      "Ġmac": 4033,
      "Ġmos": 4034,
      "Ġmau": 4035,
      "Ġmuck": 4036,
      "Ġmale": 4037,
      "Ġmatch": 4038,
      "Ġmention": 4039,
      "orts": 4040,
      "Ġpad": 4041,
      "Ġpoo": 4042,
      "Ġpudd": 4043,
      "Ġcook": 4044,
      "ari": 4045,
      "anth": 4046,
      "Ġlam": 4047,
      "Ġlane": 4048,
      "Ġdamp": 4049,
      "Ġtod": 4050,
      "asure": 4051,
      "Ġincl": 4052,
      "Ġnod": 4053,
      "Ġgal": 4054,
      "Ġgets": 4055,
      "Ġgiant": 4056,
      "Ġyu": 4057,
      "etic": 4058,
      "sters": 4059,
      "eler": 4060,
      "ĠInd": 4061,
      "ĠAg": 4062,
      "ĠAp": 4063,
      "Ġyous": 4064,
      "Ġee": 4065,
      "Ġeg": 4066,
      "amber": 4067,
      "Ġbeast": 4068,
      "ĠSn": 4069,
      "ĠSir": 4070,
      "ĠSay": 4071,
      "ĠSam": 4072,
      "ĠMir": 4073,
      "ĠMind": 4074,
      "umes": 4075,
      "ĠHun": 4076,
      "ĠHold": 4077,
      "Ġrann": 4078,
      "ĠBu": 4079,
      "ĠBer": 4080,
      "ĠWere": 4081,
      "Ġstro": 4082,
      "Ġstuff": 4083,
      "Ġstiff": 4084,
      "uno": 4085,
      "unct": 4086,
      "unning": 4087,
      "Ġisland": 4088,
      "Ġren": 4089,
      "ando": 4090,
      "ĠCle": 4091,
      "ĠCorn": 4092,
      "agn": 4093,
      "Ġlik": 4094,
      "Ġlies": 4095
    },
    "merges": [
      [
        "Ġ",
        "t"
      ],
      [
        "h",
        "e"
      ],
      [
        "Ġ",
        "a"
      ],
      [
        "i",
        "n"
      ],
      [
        "Ġ",
        "o"
      ],
      [
        "Ġt",
        "he"
      ],
      [
        "Ġ",
        "s"
      ],
      [
        "e",
        "r"
      ],
      [
        "n",
        "d"
      ],
      [
        "Ġ",
        "w"
      ],
      [
        "Ġ",
        "b"
      ],
      [
        "r",
        "e"
      ],
      [
        "o",
        "u"
      ],
      [
        "Ġ",
        "h"
      ],
      [
        "i",
        "s"
      ],
      [
        "Ġ",
        "f"
      ],
      [
        "l",
        "l"
      ],
      [
        "Ġ",
        "m"
      ],
      [
        "Ġa",
        "nd"
      ],
      [
        "e",
        "s"
      ],
      [
        "Ġo",
        "f"
      ],
      [
        "a",
        "t"
      ],
      [
        "i",
        "t"
      ],
      [
        "in",
        "g"
      ],
      [
        "o",
        "r"
      ],
      [
        "Ġ",
        "p"
      ],
      [
        "Ġ",
        "c"
      ],
      [
        "o",
        "n"
      ],
      [
        "a",
        "r"
      ],
      [
        "a",
        "n"
      ],
      [
        "e",
        "n"
      ],
      [
        "e",
        "d"
      ],
      [
        "Ġ",
        "l"
      ],
      [
        "Ġ",
        "d"
      ],
      [
        "Ġt",
        "o"
      ],
      [
        "a",
        "s"
      ],
      [
        "Ġ",
        "in"
      ],
      [
        "Ġ",
        "he"
      ],
      [
        "l",
        "e"
      ],
      [
        "Ġt",
        "h"
      ],
      [
        "r",
        "o"
      ],
      [
        "Ġ",
        "n"
      ],
      [
        "Ġ",
        "g"
      ],
      [
        "Ġ",
        "Ċ"
      ],
      [
        "Ġ",
        "y"
      ],
      [
        "i",
        "c"
      ],
      [
        "o",
        "w"
      ],
      [
        "a",
        "l"
      ],
      [
        "e",
        "t"
      ],
      [
        "s",
        "t"
      ],
      [
        "e",
        "l"
      ],
      [
        "Ġh",
        "is"
      ],
      [
        "Ġ",
        "I"
      ],
      [
        "i",
        "m"
      ],
      [
        "u",
        "t"
      ],
      [
        "u",
        "r"
      ],
      [
        "Ġ",
        "A"
      ],
      [
        "Ġy",
        "ou"
      ],
      [
        "'",
        "s"
      ],
      [
        "i",
        "r"
      ],
      [
        "o",
        "m"
      ],
      [
        "o",
        "t"
      ],
      [
        "Ġ",
        "e"
      ],
      [
        "Ġ",
        "T"
      ],
      [
        "a",
        "y"
      ],
      [
        "Ġf",
        "or"
      ],
      [
        "Ġo",
        "n"
      ],
      [
        "a",
        "d"
      ],
      [
        "a",
        "c"
      ],
      [
        "g",
        "h"
      ],
      [
        "a",
        "m"
      ],
      [
        "Ġb",
        "e"
      ],
      [
        "Ġ",
        "S"
      ],
      [
        "Ġ",
        "u"
      ],
      [
        "it",
        "h"
      ],
      [
        "l",
        "d"
      ],
      [
        "Ġw",
        "h"
      ],
      [
        "i",
        "d"
      ],
      [
        "o",
        "o"
      ],
      [
        "Ġw",
        "ith"
      ],
      [
        "v",
        "er"
      ],
      [
        "Ġ",
        "M"
      ],
      [
        "s",
        "e"
      ],
      [
        "u",
        "m"
      ],
      [
        "t",
        "er"
      ],
      [
        "l",
        "y"
      ],
      [
        "v",
        "e"
      ],
      [
        "Ġ",
        "H"
      ],
      [
        "Ġa",
        "s"
      ],
      [
        "Ġ",
        "r"
      ],
      [
        "i",
        "ll"
      ],
      [
        "c",
        "h"
      ],
      [
        "Ġ",
        "B"
      ],
      [
        "Ġth",
        "at"
      ],
      [
        "k",
        "e"
      ],
      [
        "Ġ",
        "W"
      ],
      [
        "Ġs",
        "t"
      ],
      [
        "u",
        "s"
      ],
      [
        "u",
        "n"
      ],
      [
        "i",
        "l"
      ],
      [
        "Ġ",
        "is"
      ],
      [
        "en",
        "t"
      ],
      [
        "Ġa",
        "ll"
      ],
      [
        "a",
        "ll"
      ],
      [
        "Ġ",
        "it"
      ],
      [
        "i",
        "on"
      ],
      [
        "Ġ",
        "re"
      ],
      [
        "Ġw",
        "as"
      ],
      [
        "he",
        "r"
      ],
      [
        "a",
        "nd"
      ],
      [
        "Ġ",
        "C"
      ],
      [
        "gh",
        "t"
      ],
      [
        "r",
        "i"
      ],
      [
        "a",
        "p"
      ],
      [
        "e",
        "ll"
      ],
      [
        "er",
        "s"
      ],
      [
        "a",
        "g"
      ],
      [
        "Ġ",
        "("
      ],
      [
        "Ġhe",
        "r"
      ],
      [
        "Ġl",
        "i"
      ],
      [
        "Ġ",
        "P"
      ],
      [
        "ro",
        "m"
      ],
      [
        "c",
        "k"
      ],
      [
        "Ġm",
        "e"
      ],
      [
        "Ġm",
        "y"
      ],
      [
        "a",
        "b"
      ],
      [
        "Ġ",
        "O"
      ],
      [
        "Ġs",
        "o"
      ],
      [
        "c",
        "e"
      ],
      [
        "Ġb",
        "y"
      ],
      [
        "t",
        "h"
      ],
      [
        "u",
        "l"
      ],
      [
        "Ġs",
        "h"
      ],
      [
        "Ġ",
        "L"
      ],
      [
        "Ġ",
        "F"
      ],
      [
        "Ġa",
        "n"
      ],
      [
        "Ġ",
        "k"
      ],
      [
        "Ġo",
        "r"
      ],
      [
        "o",
        "re"
      ],
      [
        "o",
        "l"
      ],
      [
        "Ġ",
        "D"
      ],
      [
        "o",
        "s"
      ],
      [
        "Ġw",
        "he"
      ],
      [
        "Ġf",
        "rom"
      ],
      [
        "Ġa",
        "t"
      ],
      [
        "q",
        "u"
      ],
      [
        "i",
        "f"
      ],
      [
        "e",
        "e"
      ],
      [
        "es",
        "t"
      ],
      [
        "o",
        "p"
      ],
      [
        "i",
        "g"
      ],
      [
        "Ġh",
        "im"
      ],
      [
        "a",
        "in"
      ],
      [
        "Ġ",
        "v"
      ],
      [
        "Ġyou",
        "r"
      ],
      [
        "ĠT",
        "he"
      ],
      [
        "ĠA",
        "nd"
      ],
      [
        "Ġ",
        "j"
      ],
      [
        "ou",
        "r"
      ],
      [
        "Ġc",
        "h"
      ],
      [
        "es",
        "s"
      ],
      [
        "Ġ",
        "N"
      ],
      [
        "Ġ",
        "G"
      ],
      [
        "ic",
        "k"
      ],
      [
        "Ġu",
        "p"
      ],
      [
        "Ġ",
        "â"
      ],
      [
        "Ġh",
        "a"
      ],
      [
        "an",
        "t"
      ],
      [
        "i",
        "ght"
      ],
      [
        "Ġâ",
        "Ģ"
      ],
      [
        "ĠâĢ",
        "Ķ"
      ],
      [
        "ou",
        "s"
      ],
      [
        "i",
        "es"
      ],
      [
        "Ġthe",
        "ir"
      ],
      [
        "Ġw",
        "e"
      ],
      [
        "e",
        "m"
      ],
      [
        "i",
        "p"
      ],
      [
        "a",
        "k"
      ],
      [
        "om",
        "e"
      ],
      [
        "c",
        "t"
      ],
      [
        "Ġs",
        "p"
      ],
      [
        "on",
        "g"
      ],
      [
        "ou",
        "ld"
      ],
      [
        "as",
        "t"
      ],
      [
        "a",
        "w"
      ],
      [
        "o",
        "d"
      ],
      [
        "Ġn",
        "ot"
      ],
      [
        "e",
        "ar"
      ],
      [
        "ac",
        "k"
      ],
      [
        "Ġ",
        "E"
      ],
      [
        "ar",
        "d"
      ],
      [
        "in",
        "d"
      ],
      [
        "is",
        "t"
      ],
      [
        "Ġo",
        "ur"
      ],
      [
        "Ġb",
        "ut"
      ],
      [
        "u",
        "d"
      ],
      [
        "er",
        "e"
      ],
      [
        "Ġs",
        "he"
      ],
      [
        "Ġb",
        "l"
      ],
      [
        "a",
        "v"
      ],
      [
        "r",
        "y"
      ],
      [
        "Ġs",
        "u"
      ],
      [
        "ou",
        "t"
      ],
      [
        "Ġp",
        "l"
      ],
      [
        "on",
        "e"
      ],
      [
        "oo",
        "d"
      ],
      [
        "Ġ",
        "R"
      ],
      [
        "Ġo",
        "ut"
      ],
      [
        "Ġwh",
        "o"
      ],
      [
        "o",
        "st"
      ],
      [
        "ar",
        "t"
      ],
      [
        "Ġl",
        "e"
      ],
      [
        "Ġthe",
        "y"
      ],
      [
        "re",
        "s"
      ],
      [
        "u",
        "st"
      ],
      [
        "Ġd",
        "e"
      ],
      [
        "Ġd",
        "o"
      ],
      [
        "u",
        "ll"
      ],
      [
        "Ġs",
        "e"
      ],
      [
        "Ġon",
        "e"
      ],
      [
        "in",
        "e"
      ],
      [
        "Ġwhe",
        "n"
      ],
      [
        "i",
        "e"
      ],
      [
        "ou",
        "nd"
      ],
      [
        "f",
        "f"
      ],
      [
        "Ġn",
        "e"
      ],
      [
        "as",
        "s"
      ],
      [
        "an",
        "g"
      ],
      [
        "i",
        "v"
      ],
      [
        "is",
        "h"
      ],
      [
        "a",
        "u"
      ],
      [
        "n",
        "e"
      ],
      [
        "ou",
        "gh"
      ],
      [
        "at",
        "ion"
      ],
      [
        "Ġt",
        "w"
      ],
      [
        "Ġa",
        "l"
      ],
      [
        "b",
        "l"
      ],
      [
        "Ġt",
        "r"
      ],
      [
        "ow",
        "n"
      ],
      [
        "a",
        "re"
      ],
      [
        "Ġli",
        "ke"
      ],
      [
        "a",
        "ke"
      ],
      [
        "nd",
        "er"
      ],
      [
        "ĠT",
        "h"
      ],
      [
        "Ġ",
        "ro"
      ],
      [
        "t",
        "y"
      ],
      [
        "Ġ",
        "Y"
      ],
      [
        "am",
        "e"
      ],
      [
        "Ġf",
        "l"
      ],
      [
        "Ġc",
        "on"
      ],
      [
        "Ġ",
        "J"
      ],
      [
        "in",
        "k"
      ],
      [
        "ic",
        "h"
      ],
      [
        "Ġ",
        "qu"
      ],
      [
        "Ġo",
        "ld"
      ],
      [
        "ac",
        "e"
      ],
      [
        "Ġth",
        "is"
      ],
      [
        "Ġa",
        "b"
      ],
      [
        "Ġha",
        "ve"
      ],
      [
        "Ġa",
        "re"
      ],
      [
        "at",
        "e"
      ],
      [
        "Ġl",
        "o"
      ],
      [
        "u",
        "e"
      ],
      [
        "!",
        ")"
      ],
      [
        "p",
        "p"
      ],
      [
        "u",
        "re"
      ],
      [
        "o",
        "y"
      ],
      [
        "ing",
        "s"
      ],
      [
        "Ġa",
        "m"
      ],
      [
        "re",
        "e"
      ],
      [
        "ĠW",
        "h"
      ],
      [
        "t",
        "s"
      ],
      [
        "Ġu",
        "n"
      ],
      [
        "o",
        "g"
      ],
      [
        "Ġe",
        "ver"
      ],
      [
        "oo",
        "k"
      ],
      [
        "Ġm",
        "an"
      ],
      [
        "i",
        "le"
      ],
      [
        "Ġa",
        "r"
      ],
      [
        "Ġc",
        "l"
      ],
      [
        "Ġn",
        "o"
      ],
      [
        "Ġb",
        "r"
      ],
      [
        "i",
        "b"
      ],
      [
        "id",
        "e"
      ],
      [
        "Ġa",
        "f"
      ],
      [
        "ro",
        "w"
      ],
      [
        "Ġg",
        "r"
      ],
      [
        "Ġthe",
        "re"
      ],
      [
        "s",
        "el"
      ],
      [
        "im",
        "e"
      ],
      [
        "u",
        "ck"
      ],
      [
        "is",
        "s"
      ],
      [
        "g",
        "e"
      ],
      [
        "t",
        "o"
      ],
      [
        "Ġc",
        "o"
      ],
      [
        "Ġw",
        "ill"
      ],
      [
        "Ġh",
        "ow"
      ],
      [
        "Ġu",
        "s"
      ],
      [
        ".",
        "'"
      ],
      [
        "u",
        "b"
      ],
      [
        "or",
        "d"
      ],
      [
        "Ġe",
        "x"
      ],
      [
        "Ġs",
        "c"
      ],
      [
        "ay",
        "s"
      ],
      [
        "Ġ",
        "K"
      ],
      [
        "p",
        "er"
      ],
      [
        "Ġp",
        "r"
      ],
      [
        "it",
        "t"
      ],
      [
        "Ġwh",
        "at"
      ],
      [
        "Ġp",
        "ro"
      ],
      [
        "Ġk",
        "n"
      ],
      [
        "Ġs",
        "w"
      ],
      [
        "Ġc",
        "om"
      ],
      [
        "Ġg",
        "o"
      ],
      [
        "Ġw",
        "ere"
      ],
      [
        "i",
        "ve"
      ],
      [
        "it",
        "e"
      ],
      [
        "Ġ",
        "if"
      ],
      [
        "Ġn",
        "ow"
      ],
      [
        "Ġaf",
        "ter"
      ],
      [
        "Ġp",
        "o"
      ],
      [
        "l",
        "es"
      ],
      [
        "t",
        "her"
      ],
      [
        "u",
        "g"
      ],
      [
        "Ġh",
        "ad"
      ],
      [
        "ĠH",
        "e"
      ],
      [
        "i",
        "re"
      ],
      [
        "u",
        "p"
      ],
      [
        "Ġw",
        "ould"
      ],
      [
        "ar",
        "k"
      ],
      [
        "m",
        "an"
      ],
      [
        "Ġthe",
        "m"
      ],
      [
        "en",
        "s"
      ],
      [
        "Ġwhe",
        "re"
      ],
      [
        "p",
        "e"
      ],
      [
        "t",
        "e"
      ],
      [
        "Ġo",
        "ver"
      ],
      [
        "um",
        "p"
      ],
      [
        "Ġa",
        "g"
      ],
      [
        "o",
        "ck"
      ],
      [
        "all",
        "y"
      ],
      [
        "c",
        "he"
      ],
      [
        "b",
        "er"
      ],
      [
        "i",
        "an"
      ],
      [
        "Ġ",
        "^"
      ],
      [
        "ic",
        "e"
      ],
      [
        "Ġf",
        "e"
      ],
      [
        "o",
        "se"
      ],
      [
        "i",
        "a"
      ],
      [
        "o",
        "ll"
      ],
      [
        "Ġs",
        "ee"
      ],
      [
        "ab",
        "le"
      ],
      [
        "at",
        "h"
      ],
      [
        "it",
        "y"
      ],
      [
        "Ġof",
        "f"
      ],
      [
        "a",
        "ir"
      ],
      [
        "a",
        "h"
      ],
      [
        "in",
        "n"
      ],
      [
        "Ġwh",
        "ich"
      ],
      [
        "sel",
        "f"
      ],
      [
        ".'",
        "^"
      ],
      [
        "or",
        "n"
      ],
      [
        "a",
        "ve"
      ],
      [
        "s",
        "h"
      ],
      [
        "v",
        "en"
      ],
      [
        "ou",
        "n"
      ],
      [
        "an",
        "k"
      ],
      [
        "a",
        "il"
      ],
      [
        "Ġp",
        "e"
      ],
      [
        "o",
        "ot"
      ],
      [
        "el",
        "y"
      ],
      [
        "or",
        "t"
      ],
      [
        "Ġc",
        "an"
      ],
      [
        "f",
        "t"
      ],
      [
        "Ġth",
        "r"
      ],
      [
        "i",
        "ous"
      ],
      [
        "o",
        "b"
      ],
      [
        "o",
        "ld"
      ],
      [
        "on",
        "s"
      ],
      [
        "'",
        "t"
      ],
      [
        "e",
        "p"
      ],
      [
        "l",
        "ing"
      ],
      [
        "Ġh",
        "as"
      ],
      [
        "Ġs",
        "l"
      ],
      [
        "'",
        "ll"
      ],
      [
        "Ġ",
        "V"
      ],
      [
        "Ġs",
        "ay"
      ],
      [
        "ur",
        "n"
      ],
      [
        "ĠB",
        "ut"
      ],
      [
        "ag",
        "e"
      ],
      [
        "o",
        "nd"
      ],
      [
        "ac",
        "h"
      ],
      [
        "Ġu",
        "nder"
      ],
      [
        "Ġ",
        "en"
      ],
      [
        "an",
        "s"
      ],
      [
        "Ġ",
        "U"
      ],
      [
        "in",
        "s"
      ],
      [
        "o",
        "k"
      ],
      [
        "Ġd",
        "own"
      ],
      [
        "ir",
        "st"
      ],
      [
        "a",
        "id"
      ],
      [
        "f",
        "e"
      ],
      [
        "Ġm",
        "ay"
      ],
      [
        "Ġm",
        "ore"
      ],
      [
        "Ġtw",
        "o"
      ],
      [
        "re",
        "d"
      ],
      [
        "is",
        "e"
      ],
      [
        "p",
        "l"
      ],
      [
        "Ġab",
        "out"
      ],
      [
        "t",
        "he"
      ],
      [
        "i",
        "gh"
      ],
      [
        "ar",
        "s"
      ],
      [
        "ad",
        "e"
      ],
      [
        "en",
        "ce"
      ],
      [
        "Ġt",
        "ime"
      ],
      [
        "c",
        "c"
      ],
      [
        "as",
        "e"
      ],
      [
        "Ġg",
        "re"
      ],
      [
        "f",
        "ore"
      ],
      [
        "Ġp",
        "er"
      ],
      [
        "ĠS",
        "h"
      ],
      [
        "Ġg",
        "ood"
      ],
      [
        "ter",
        "s"
      ],
      [
        "i",
        "ld"
      ],
      [
        "Ġt",
        "ill"
      ],
      [
        "ar",
        "y"
      ],
      [
        "Ġw",
        "or"
      ],
      [
        "Ġd",
        "r"
      ],
      [
        "Ġthr",
        "ough"
      ],
      [
        "an",
        "ce"
      ],
      [
        "Ġc",
        "r"
      ],
      [
        "ĠA",
        "n"
      ],
      [
        "Ġl",
        "et"
      ],
      [
        "in",
        "t"
      ],
      [
        "Ġ",
        "'"
      ],
      [
        "Ġs",
        "ome"
      ],
      [
        "ĠI",
        "t"
      ],
      [
        "v",
        "es"
      ],
      [
        "Ġst",
        "r"
      ],
      [
        "os",
        "s"
      ],
      [
        "Ġ",
        ","
      ],
      [
        "a",
        "le"
      ],
      [
        "w",
        "e"
      ],
      [
        "Ġwh",
        "ile"
      ],
      [
        "ĠY",
        "ou"
      ],
      [
        "p",
        "t"
      ],
      [
        "Ġa",
        "d"
      ],
      [
        "he",
        "d"
      ],
      [
        "Ġkn",
        "ow"
      ],
      [
        "b",
        "e"
      ],
      [
        "Ġs",
        "m"
      ],
      [
        "er",
        "y"
      ],
      [
        "Ġg",
        "l"
      ],
      [
        "Ġf",
        "irst"
      ],
      [
        "Ġp",
        "re"
      ],
      [
        "ap",
        "p"
      ],
      [
        "s",
        "s"
      ],
      [
        "u",
        "nd"
      ],
      [
        "i",
        "x"
      ],
      [
        "am",
        "p"
      ],
      [
        "Ġan",
        "y"
      ],
      [
        ".",
        "^"
      ],
      [
        "Ġ",
        "ver"
      ],
      [
        "Ġh",
        "and"
      ],
      [
        "Ġto",
        "o"
      ],
      [
        "Ġthe",
        "n"
      ],
      [
        "ĠS",
        "o"
      ],
      [
        "b",
        "le"
      ],
      [
        "l",
        "ed"
      ],
      [
        "t",
        "ing"
      ],
      [
        "Ġbe",
        "fore"
      ],
      [
        "ig",
        "n"
      ],
      [
        "Ġever",
        "y"
      ],
      [
        "w",
        "n"
      ],
      [
        "Ġb",
        "et"
      ],
      [
        "f",
        "ul"
      ],
      [
        "a",
        "f"
      ],
      [
        "m",
        "e"
      ],
      [
        "oo",
        "l"
      ],
      [
        "c",
        "l"
      ],
      [
        "g",
        "g"
      ],
      [
        "at",
        "ed"
      ],
      [
        "ĠS",
        "t"
      ],
      [
        "a",
        "z"
      ],
      [
        "i",
        "al"
      ],
      [
        "or",
        "y"
      ],
      [
        "ot",
        "h"
      ],
      [
        "p",
        "h"
      ],
      [
        "Ġw",
        "ell"
      ],
      [
        "un",
        "g"
      ],
      [
        "d",
        "y"
      ],
      [
        "ou",
        "se"
      ],
      [
        "at",
        "her"
      ],
      [
        "itt",
        "le"
      ],
      [
        "an",
        "n"
      ],
      [
        "us",
        "h"
      ],
      [
        "Ġ",
        "im"
      ],
      [
        "Ġd",
        "id"
      ],
      [
        "i",
        "ly"
      ],
      [
        "at",
        "er"
      ],
      [
        "res",
        "s"
      ],
      [
        "Ġhe",
        "re"
      ],
      [
        "ot",
        "t"
      ],
      [
        "y",
        "e"
      ],
      [
        "Ġc",
        "ould"
      ],
      [
        "Ġin",
        "to"
      ],
      [
        "ĠF",
        "or"
      ],
      [
        "Ġw",
        "ay"
      ],
      [
        "as",
        "h"
      ],
      [
        "Ġ",
        "i"
      ],
      [
        "et",
        "h"
      ],
      [
        "Ġag",
        "ain"
      ],
      [
        "y",
        "s"
      ],
      [
        "Ġf",
        "r"
      ],
      [
        "n",
        "ess"
      ],
      [
        "Ġh",
        "o"
      ],
      [
        "a",
        "un"
      ],
      [
        "i",
        "ed"
      ],
      [
        "Ġb",
        "ack"
      ],
      [
        "ou",
        "ght"
      ],
      [
        "at",
        "t"
      ],
      [
        "an",
        "c"
      ],
      [
        "u",
        "ff"
      ],
      [
        "ee",
        "p"
      ],
      [
        "or",
        "s"
      ],
      [
        "al",
        "k"
      ],
      [
        "w",
        "h"
      ],
      [
        "Ġbe",
        "en"
      ],
      [
        "Ġt",
        "ell"
      ],
      [
        "Ġo",
        "ther"
      ],
      [
        "Ġn",
        "ight"
      ],
      [
        "u",
        "ch"
      ],
      [
        "Ġl",
        "ong"
      ],
      [
        "ĠI",
        "n"
      ],
      [
        "m",
        "er"
      ],
      [
        "v",
        "ing"
      ],
      [
        "Ġ",
        "."
      ],
      [
        "Ġ",
        "1"
      ],
      [
        "d",
        "er"
      ],
      [
        "u",
        "c"
      ],
      [
        "m",
        "ent"
      ],
      [
        "o",
        "on"
      ],
      [
        "Ġb",
        "ro"
      ],
      [
        "Ġy",
        "e"
      ],
      [
        "o",
        "h"
      ],
      [
        "ot",
        "her"
      ],
      [
        "k",
        "s"
      ],
      [
        "o",
        "c"
      ],
      [
        "at",
        "s"
      ],
      [
        "ĠW",
        "he"
      ],
      [
        "ak",
        "ing"
      ],
      [
        "Ġne",
        "ver"
      ],
      [
        "f",
        "or"
      ],
      [
        "w",
        "ay"
      ],
      [
        "Ġl",
        "ook"
      ],
      [
        "ac",
        "t"
      ],
      [
        "ĠB",
        "e"
      ],
      [
        "ĠW",
        "e"
      ],
      [
        "i",
        "z"
      ],
      [
        "et",
        "s"
      ],
      [
        "b",
        "r"
      ],
      [
        "n",
        "y"
      ],
      [
        "Ġe",
        "ar"
      ],
      [
        "Ġup",
        "on"
      ],
      [
        "Ġc",
        "ome"
      ],
      [
        "Ġ",
        "er"
      ],
      [
        "Ġt",
        "e"
      ],
      [
        "Ġf",
        "our"
      ],
      [
        "i",
        "ke"
      ],
      [
        "Ġc",
        "he"
      ],
      [
        "ĠC",
        "h"
      ],
      [
        "i",
        "k"
      ],
      [
        "an",
        "e"
      ],
      [
        "ĠA",
        "r"
      ],
      [
        "Ġth",
        "ree"
      ],
      [
        "Ġ",
        "ke"
      ],
      [
        "Ġb",
        "re"
      ],
      [
        "i",
        "er"
      ],
      [
        "n",
        "g"
      ],
      [
        "Ġit",
        "s"
      ],
      [
        "oun",
        "t"
      ],
      [
        "l",
        "and"
      ],
      [
        "p",
        "s"
      ],
      [
        "at",
        "ter"
      ],
      [
        "ion",
        "s"
      ],
      [
        "Ġp",
        "le"
      ],
      [
        "o",
        "le"
      ],
      [
        "Ġm",
        "ar"
      ],
      [
        "um",
        "b"
      ],
      [
        "Ġr",
        "ound"
      ],
      [
        "a",
        "x"
      ],
      [
        "o",
        "e"
      ],
      [
        "Ġb",
        "el"
      ],
      [
        "ĠA",
        "ll"
      ],
      [
        "^",
        "^"
      ],
      [
        "o",
        "x"
      ],
      [
        "Ġ",
        "el"
      ],
      [
        "Ġc",
        "ur"
      ],
      [
        "'",
        "re"
      ],
      [
        "Ġp",
        "art"
      ],
      [
        "ag",
        "g"
      ],
      [
        "Ġl",
        "ittle"
      ],
      [
        "ĠWh",
        "at"
      ],
      [
        "ou",
        "l"
      ],
      [
        "it",
        "s"
      ],
      [
        "al",
        "s"
      ],
      [
        "e",
        "y"
      ],
      [
        "Ġs",
        "n"
      ],
      [
        "on",
        "t"
      ],
      [
        "Ġst",
        "ill"
      ],
      [
        "Ġ",
        "2"
      ],
      [
        "Ġo",
        "wn"
      ],
      [
        "Ġw",
        "r"
      ],
      [
        "ĠA",
        "s"
      ],
      [
        "um",
        "m"
      ],
      [
        "'",
        "d"
      ],
      [
        "ic",
        "t"
      ],
      [
        "el",
        "s"
      ],
      [
        "ri",
        "e"
      ],
      [
        "us",
        "s"
      ],
      [
        "ard",
        "s"
      ],
      [
        "et",
        "t"
      ],
      [
        "r",
        "a"
      ],
      [
        "Ġhe",
        "ar"
      ],
      [
        "ow",
        "s"
      ],
      [
        ")",
        ","
      ],
      [
        "d",
        "s"
      ],
      [
        "ĠTh",
        "at"
      ],
      [
        "Ġd",
        "is"
      ],
      [
        "ĠM",
        "r"
      ],
      [
        "ĠH",
        "ow"
      ],
      [
        "Ġsu",
        "ch"
      ],
      [
        "d",
        "e"
      ],
      [
        "m",
        "en"
      ],
      [
        "Ġa",
        "pp"
      ],
      [
        "Ġc",
        "all"
      ],
      [
        "Ġj",
        "ust"
      ],
      [
        "in",
        "ce"
      ],
      [
        "Ġon",
        "ly"
      ],
      [
        "Ġs",
        "k"
      ],
      [
        "Ġm",
        "ost"
      ],
      [
        "Ġm",
        "ade"
      ],
      [
        "Ġhim",
        "self"
      ],
      [
        "w",
        "ays"
      ],
      [
        "Ġth",
        "ose"
      ],
      [
        "Ġbe",
        "h"
      ],
      [
        "ĠB",
        "r"
      ],
      [
        "Ġre",
        "m"
      ],
      [
        "Ġsh",
        "all"
      ],
      [
        "m",
        "s"
      ],
      [
        "o",
        "v"
      ],
      [
        "p",
        "le"
      ],
      [
        "re",
        "am"
      ],
      [
        "ĠS",
        "he"
      ],
      [
        "Ġf",
        "ar"
      ],
      [
        "at",
        "ch"
      ],
      [
        "Ġe",
        "nd"
      ],
      [
        "Ġf",
        "ore"
      ],
      [
        "le",
        "y"
      ],
      [
        "Ġth",
        "ink"
      ],
      [
        "id",
        "d"
      ],
      [
        "ain",
        "t"
      ],
      [
        "Ġt",
        "ri"
      ],
      [
        "Ġp",
        "ar"
      ],
      [
        "Ġd",
        "ay"
      ],
      [
        "ent",
        "s"
      ],
      [
        "ear",
        "s"
      ],
      [
        "k",
        "ing"
      ],
      [
        "Ġl",
        "ad"
      ],
      [
        "ĠW",
        "ith"
      ],
      [
        "i",
        "el"
      ],
      [
        "Ġf",
        "ull"
      ],
      [
        "im",
        "es"
      ],
      [
        "Ġbe",
        "ing"
      ],
      [
        "b",
        "y"
      ],
      [
        "i",
        "ver"
      ],
      [
        "ow",
        "er"
      ],
      [
        "y",
        "m"
      ],
      [
        "Ġh",
        "al"
      ],
      [
        "Ġbe",
        "c"
      ],
      [
        "Ġl",
        "ast"
      ],
      [
        "row",
        "n"
      ],
      [
        "he",
        "s"
      ],
      [
        "Ġm",
        "ake"
      ],
      [
        "Ġwho",
        "le"
      ],
      [
        "o",
        "f"
      ],
      [
        "Ġ",
        "z"
      ],
      [
        "Ġw",
        "ar"
      ],
      [
        "Ġe",
        "m"
      ],
      [
        "ip",
        "p"
      ],
      [
        "au",
        "gh"
      ],
      [
        "i",
        "us"
      ],
      [
        "Ġw",
        "ord"
      ],
      [
        "Ġb",
        "ar"
      ],
      [
        "t",
        "r"
      ],
      [
        "Ġs",
        "ame"
      ],
      [
        "Ġm",
        "ight"
      ],
      [
        "Ġm",
        "ust"
      ],
      [
        "e",
        "ct"
      ],
      [
        "re",
        "n"
      ],
      [
        "if",
        "f"
      ],
      [
        "o",
        "ve"
      ],
      [
        "s",
        "c"
      ],
      [
        "Ġb",
        "o"
      ],
      [
        "ĠT",
        "o"
      ],
      [
        "ud",
        "d"
      ],
      [
        "Ġp",
        "h"
      ],
      [
        "on",
        "n"
      ],
      [
        "Ġth",
        "an"
      ],
      [
        "om",
        "an"
      ],
      [
        "ĠTh",
        "is"
      ],
      [
        "ug",
        "g"
      ],
      [
        "Ġver",
        "y"
      ],
      [
        "l",
        "s"
      ],
      [
        "l",
        "ess"
      ],
      [
        "at",
        "es"
      ],
      [
        "Ġp",
        "ass"
      ],
      [
        "Ġli",
        "ght"
      ],
      [
        "g",
        "et"
      ],
      [
        "Ġs",
        "al"
      ],
      [
        "ou",
        "th"
      ],
      [
        "ic",
        "al"
      ],
      [
        "Ġe",
        "ven"
      ],
      [
        "Ġlo",
        "ve"
      ],
      [
        "Ġh",
        "op"
      ],
      [
        "st",
        "er"
      ],
      [
        "our",
        "s"
      ],
      [
        "au",
        "se"
      ],
      [
        "n",
        "ing"
      ],
      [
        "re",
        "t"
      ],
      [
        "Ġf",
        "ell"
      ],
      [
        "Ġc",
        "ar"
      ],
      [
        "ap",
        "s"
      ],
      [
        "we",
        "en"
      ],
      [
        "m",
        "on"
      ],
      [
        "at",
        "ing"
      ],
      [
        "ull",
        "y"
      ],
      [
        "Ġt",
        "urn"
      ],
      [
        "Ġs",
        "aid"
      ],
      [
        "Ġw",
        "ind"
      ],
      [
        "Ġb",
        "oy"
      ],
      [
        "Ġf",
        "all"
      ],
      [
        "ĠM",
        "e"
      ],
      [
        "Ġr",
        "ight"
      ],
      [
        "ak",
        "es"
      ],
      [
        "Ġ",
        "3"
      ],
      [
        "ĠN",
        "o"
      ],
      [
        "Ġwor",
        "ld"
      ],
      [
        "Ġg",
        "u"
      ],
      [
        "Ġre",
        "c"
      ],
      [
        "Ġre",
        "s"
      ],
      [
        "k",
        "er"
      ],
      [
        "Ġa",
        "cc"
      ],
      [
        "Ġbe",
        "g"
      ],
      [
        "pe",
        "ct"
      ],
      [
        "a",
        "it"
      ],
      [
        "Ġ",
        "4"
      ],
      [
        "er",
        "t"
      ],
      [
        "Ġd",
        "ear"
      ],
      [
        "ot",
        "s"
      ],
      [
        "Ġli",
        "fe"
      ],
      [
        "ĠG",
        "r"
      ],
      [
        "c",
        "her"
      ],
      [
        "in",
        "c"
      ],
      [
        "Ġn",
        "or"
      ],
      [
        "Ġal",
        "ways"
      ],
      [
        "Ġpo",
        "or"
      ],
      [
        "l",
        "er"
      ],
      [
        "u",
        "bl"
      ],
      [
        "Ġa",
        "c"
      ],
      [
        "Ġs",
        "er"
      ],
      [
        "ig",
        "g"
      ],
      [
        "ĠN",
        "e"
      ],
      [
        "f",
        "l"
      ],
      [
        "i",
        "as"
      ],
      [
        "Ġt",
        "ake"
      ],
      [
        "Ġhe",
        "ad"
      ],
      [
        "ĠN",
        "ow"
      ],
      [
        "Ġ",
        "Q"
      ],
      [
        "is",
        "ed"
      ],
      [
        "it",
        "her"
      ],
      [
        "en",
        "er"
      ],
      [
        "Ġfe",
        "el"
      ],
      [
        "p",
        "en"
      ],
      [
        "t",
        "on"
      ],
      [
        "u",
        "es"
      ],
      [
        "ou",
        "d"
      ],
      [
        "Ġh",
        "igh"
      ],
      [
        "ĠM",
        "ac"
      ],
      [
        "ĠO",
        "r"
      ],
      [
        "Ġsp",
        "e"
      ],
      [
        "y",
        "n"
      ],
      [
        "Ġf",
        "air"
      ],
      [
        "ĠB",
        "l"
      ],
      [
        "i",
        "um"
      ],
      [
        "Ġb",
        "u"
      ],
      [
        "en",
        "e"
      ],
      [
        "Ġth",
        "ough"
      ],
      [
        "Ġy",
        "et"
      ],
      [
        "ĠM",
        "y"
      ],
      [
        "un",
        "t"
      ],
      [
        "Ġsh",
        "ow"
      ],
      [
        "qu",
        "e"
      ],
      [
        "Ġm",
        "uch"
      ],
      [
        "Ġc",
        "or"
      ],
      [
        "Ġc",
        "our"
      ],
      [
        "Ġn",
        "ame"
      ],
      [
        "ĠI",
        "s"
      ],
      [
        "Ġe",
        "y"
      ],
      [
        "Ġre",
        "d"
      ],
      [
        "p",
        "r"
      ],
      [
        "v",
        "ed"
      ],
      [
        "Ġ",
        "5"
      ],
      [
        "Ġs",
        "le"
      ],
      [
        "as",
        "ter"
      ],
      [
        "ĠI",
        "f"
      ],
      [
        "un",
        "k"
      ],
      [
        "ul",
        "ar"
      ],
      [
        "a",
        "ff"
      ],
      [
        "b",
        "s"
      ],
      [
        "Ġp",
        "ut"
      ],
      [
        "ul",
        "t"
      ],
      [
        "ant",
        "s"
      ],
      [
        "Ġsu",
        "re"
      ],
      [
        "Ġsw",
        "e"
      ],
      [
        "er",
        "ed"
      ],
      [
        "Ġm",
        "on"
      ],
      [
        "Ġwh",
        "y"
      ],
      [
        "ct",
        "ion"
      ],
      [
        "Ġse",
        "c"
      ],
      [
        "a",
        "ut"
      ],
      [
        "Ġ",
        "es"
      ],
      [
        "he",
        "re"
      ],
      [
        "Ġb",
        "ed"
      ],
      [
        "it",
        "ch"
      ],
      [
        "Ġp",
        "ur"
      ],
      [
        "en",
        "c"
      ],
      [
        "le",
        "t"
      ],
      [
        "ro",
        "ss"
      ],
      [
        "ĠO",
        "n"
      ],
      [
        "Ġpl",
        "ay"
      ],
      [
        "Ġgre",
        "at"
      ],
      [
        "ĠWhe",
        "n"
      ],
      [
        "k",
        "y"
      ],
      [
        "Ġb",
        "ur"
      ],
      [
        "Ġb",
        "ig"
      ],
      [
        "ir",
        "t"
      ],
      [
        "ill",
        "y"
      ],
      [
        "ĠC",
        "l"
      ],
      [
        "'",
        "m"
      ],
      [
        "g",
        "r"
      ],
      [
        "n",
        "s"
      ],
      [
        "Ġt",
        "re"
      ],
      [
        "Ġd",
        "on"
      ],
      [
        "Ġhe",
        "art"
      ],
      [
        "in",
        "es"
      ],
      [
        "Ġp",
        "ri"
      ],
      [
        "Ġhe",
        "l"
      ],
      [
        "Ġg",
        "ir"
      ],
      [
        "ut",
        "e"
      ],
      [
        "am",
        "m"
      ],
      [
        "ri",
        "ght"
      ],
      [
        "Ġbet",
        "ween"
      ],
      [
        "Ġim",
        "p"
      ],
      [
        "g",
        "l"
      ],
      [
        "Ġs",
        "il"
      ],
      [
        "Ġm",
        "er"
      ],
      [
        "am",
        "es"
      ],
      [
        "and",
        "s"
      ],
      [
        "Ġsh",
        "ould"
      ],
      [
        "ĠL",
        "et"
      ],
      [
        "ou",
        "ch"
      ],
      [
        "ĠS",
        "e"
      ],
      [
        "Ġpl",
        "ace"
      ],
      [
        "ib",
        "le"
      ],
      [
        "Ġs",
        "ince"
      ],
      [
        "Ġm",
        "iss"
      ],
      [
        "Ġp",
        "ost"
      ],
      [
        "Ġl",
        "a"
      ],
      [
        "ĠThe",
        "re"
      ],
      [
        "Ġcon",
        "t"
      ],
      [
        "Ġman",
        "y"
      ],
      [
        "u",
        "k"
      ],
      [
        "Ġthe",
        "se"
      ],
      [
        "Ġs",
        "ch"
      ],
      [
        "ir",
        "c"
      ],
      [
        "Ġbe",
        "ll"
      ],
      [
        "Ġas",
        "s"
      ],
      [
        "ap",
        "e"
      ],
      [
        "o",
        "or"
      ],
      [
        "Ġs",
        "ing"
      ],
      [
        "Ġn",
        "at"
      ],
      [
        "Ġg",
        "et"
      ],
      [
        "ation",
        "s"
      ],
      [
        "u",
        "al"
      ],
      [
        "x",
        "t"
      ],
      [
        "Ġa",
        "p"
      ],
      [
        "is",
        "ter"
      ],
      [
        "Ġm",
        "ind"
      ],
      [
        "Ġp",
        "ers"
      ],
      [
        "Ġd",
        "es"
      ],
      [
        "op",
        "p"
      ],
      [
        "r",
        "ing"
      ],
      [
        "s",
        "w"
      ],
      [
        "Ġw",
        "ater"
      ],
      [
        "Ġb",
        "est"
      ],
      [
        "Ġth",
        "ing"
      ],
      [
        "ad",
        "s"
      ],
      [
        "oo",
        "se"
      ],
      [
        "Ġme",
        "an"
      ],
      [
        "Ġha",
        "ving"
      ],
      [
        "t",
        "ed"
      ],
      [
        "Ġh",
        "ouse"
      ],
      [
        "Ġhe",
        "av"
      ],
      [
        "ro",
        "p"
      ],
      [
        "ut",
        "ter"
      ],
      [
        "Ġon",
        "ce"
      ],
      [
        "ad",
        "d"
      ],
      [
        "ĠL",
        "e"
      ],
      [
        "ick",
        "s"
      ],
      [
        "Ġha",
        "ir"
      ],
      [
        "Ġ",
        "et"
      ],
      [
        "is",
        "m"
      ],
      [
        "Ġp",
        "res"
      ],
      [
        "Ġd",
        "el"
      ],
      [
        "ĠT",
        "r"
      ],
      [
        "um",
        "s"
      ],
      [
        "ĠW",
        "ell"
      ],
      [
        "Ġch",
        "ar"
      ],
      [
        "Ġcon",
        "s"
      ],
      [
        "Ġh",
        "ar"
      ],
      [
        "on",
        "es"
      ],
      [
        "Ġe",
        "v"
      ],
      [
        "id",
        "es"
      ],
      [
        "oo",
        "s"
      ],
      [
        "aw",
        "n"
      ],
      [
        "av",
        "es"
      ],
      [
        "Ġam",
        "ong"
      ],
      [
        "o",
        "ver"
      ],
      [
        "z",
        "z"
      ],
      [
        "er",
        "n"
      ],
      [
        "er",
        "ing"
      ],
      [
        "Ġw",
        "ent"
      ],
      [
        "Ġm",
        "a"
      ],
      [
        "Ġm",
        "in"
      ],
      [
        "Ġwh",
        "ite"
      ],
      [
        "ĠM",
        "ar"
      ],
      [
        "ĠH",
        "is"
      ],
      [
        "Ġre",
        "t"
      ],
      [
        "ĠD",
        "e"
      ],
      [
        "ip",
        "s"
      ],
      [
        "od",
        "y"
      ],
      [
        "che",
        "s"
      ],
      [
        "g",
        "s"
      ],
      [
        "i",
        "et"
      ],
      [
        "z",
        "e"
      ],
      [
        "Ġthe",
        "e"
      ],
      [
        "Ġf",
        "in"
      ],
      [
        "Ġm",
        "en"
      ],
      [
        "it",
        "ion"
      ],
      [
        "Ġl",
        "ay"
      ],
      [
        "om",
        "b"
      ],
      [
        "one",
        "y"
      ],
      [
        "ang",
        "e"
      ],
      [
        "Ġbeh",
        "ind"
      ],
      [
        "Ġhal",
        "f"
      ],
      [
        "u",
        "nder"
      ],
      [
        "Ġs",
        "ur"
      ],
      [
        "Ġb",
        "it"
      ],
      [
        "Ġh",
        "um"
      ],
      [
        "al",
        "d"
      ],
      [
        "ut",
        "h"
      ],
      [
        "ĠF",
        "l"
      ],
      [
        "Ġbl",
        "ack"
      ],
      [
        "Ġne",
        "w"
      ],
      [
        "w",
        "or"
      ],
      [
        "el",
        "f"
      ],
      [
        "Ġyou",
        "ng"
      ],
      [
        "un",
        "n"
      ],
      [
        "all",
        "s"
      ],
      [
        "if",
        "e"
      ],
      [
        "ĠQ",
        "u"
      ],
      [
        "d",
        "ay"
      ],
      [
        "Ġt",
        "ur"
      ],
      [
        "Ġf",
        "oll"
      ],
      [
        "Ġd",
        "ou"
      ],
      [
        "Ġin",
        "s"
      ],
      [
        "im",
        "m"
      ],
      [
        "r",
        "u"
      ],
      [
        "Ġt",
        "imes"
      ],
      [
        "Ġa",
        "way"
      ],
      [
        "Ġo",
        "b"
      ],
      [
        "Ġh",
        "old"
      ],
      [
        "en",
        "n"
      ],
      [
        "Ġe",
        "ye"
      ],
      [
        "ĠW",
        "ill"
      ],
      [
        "ĠThe",
        "y"
      ],
      [
        ".'",
        "*"
      ],
      [
        "che",
        "d"
      ],
      [
        "Ġf",
        "ire"
      ],
      [
        "en",
        "g"
      ],
      [
        "Ġth",
        "ought"
      ],
      [
        "im",
        "p"
      ],
      [
        "am",
        "b"
      ],
      [
        "Ġso",
        "l"
      ],
      [
        "Ġtr",
        "ue"
      ],
      [
        "ank",
        "s"
      ],
      [
        "i",
        "est"
      ],
      [
        "Ġw",
        "ant"
      ],
      [
        "Ġf",
        "am"
      ],
      [
        "Ġm",
        "et"
      ],
      [
        "Ġm",
        "il"
      ],
      [
        "Ġc",
        "ap"
      ],
      [
        "ĠA",
        "l"
      ],
      [
        "ad",
        "y"
      ],
      [
        "Ġst",
        "e"
      ],
      [
        "Ġk",
        "ing"
      ],
      [
        "iv",
        "es"
      ],
      [
        "Ġar",
        "ound"
      ],
      [
        "o",
        "nder"
      ],
      [
        "y",
        "l"
      ],
      [
        "Ġ",
        "ve"
      ],
      [
        "Ġ",
        "ent"
      ],
      [
        "Ġo",
        "u"
      ],
      [
        "Ġs",
        "ign"
      ],
      [
        "Ġf",
        "re"
      ],
      [
        "Ġc",
        "le"
      ],
      [
        "ut",
        "t"
      ],
      [
        "ĠA",
        "m"
      ],
      [
        "ĠR",
        "e"
      ],
      [
        "n",
        "a"
      ],
      [
        "o",
        "om"
      ],
      [
        "t",
        "t"
      ],
      [
        "he",
        "ad"
      ],
      [
        "Ġg",
        "ive"
      ],
      [
        "Ġu",
        "m"
      ],
      [
        "Ġre",
        "g"
      ],
      [
        "Ġey",
        "es"
      ],
      [
        "Ġswe",
        "et"
      ],
      [
        "r",
        "ic"
      ],
      [
        "s",
        "o"
      ],
      [
        "Ġa",
        "w"
      ],
      [
        "Ġa",
        "ir"
      ],
      [
        "Ġs",
        "on"
      ],
      [
        "nd",
        "s"
      ],
      [
        "am",
        "s"
      ],
      [
        "oo",
        "p"
      ],
      [
        "ĠH",
        "ere"
      ],
      [
        "ĠB",
        "y"
      ],
      [
        "il",
        "t"
      ],
      [
        "are",
        "d"
      ],
      [
        "Ġhand",
        "s"
      ],
      [
        "k",
        "ed"
      ],
      [
        "u",
        "res"
      ],
      [
        "Ġo",
        "d"
      ],
      [
        "Ġf",
        "a"
      ],
      [
        "ll",
        "y"
      ],
      [
        "en",
        "ed"
      ],
      [
        "al",
        "t"
      ],
      [
        "ir",
        "d"
      ],
      [
        "um",
        "ber"
      ],
      [
        "un",
        "s"
      ],
      [
        "Ġre",
        "p"
      ],
      [
        "th",
        "ing"
      ],
      [
        "au",
        "ght"
      ],
      [
        "l",
        "in"
      ],
      [
        "p",
        "an"
      ],
      [
        "Ġt",
        "er"
      ],
      [
        "Ġp",
        "ick"
      ],
      [
        "Ġin",
        "t"
      ],
      [
        "ur",
        "s"
      ],
      [
        "ĠH",
        "o"
      ],
      [
        "ri",
        "es"
      ],
      [
        "ĠG",
        "re"
      ],
      [
        "ud",
        "e"
      ],
      [
        "ie",
        "f"
      ],
      [
        "bl",
        "es"
      ],
      [
        "Ġcom",
        "m"
      ],
      [
        "i",
        "o"
      ],
      [
        "m",
        "ed"
      ],
      [
        "u",
        "v"
      ],
      [
        "y",
        "b"
      ],
      [
        "Ġ",
        "ir"
      ],
      [
        "Ġs",
        "om"
      ],
      [
        "Ġb",
        "es"
      ],
      [
        "is",
        "ing"
      ],
      [
        "Ġp",
        "or"
      ],
      [
        "Ġc",
        "ol"
      ],
      [
        "Ġl",
        "and"
      ],
      [
        "Ġto",
        "m"
      ],
      [
        "Ġg",
        "ot"
      ],
      [
        "el",
        "t"
      ],
      [
        "Ġch",
        "ild"
      ],
      [
        "ĠN",
        "ot"
      ],
      [
        "Ġco",
        "ll"
      ],
      [
        "Ġ",
        "Z"
      ],
      [
        "Ġb",
        "ad"
      ],
      [
        "re",
        "w"
      ],
      [
        "Ġh",
        "at"
      ],
      [
        "Ġm",
        "ur"
      ],
      [
        "ar",
        "ing"
      ],
      [
        "Ġwith",
        "out"
      ],
      [
        "Ġsu",
        "b"
      ],
      [
        "Ġke",
        "ep"
      ],
      [
        ")",
        "."
      ],
      [
        "a",
        "us"
      ],
      [
        "u",
        "pp"
      ],
      [
        "Ġw",
        "oman"
      ],
      [
        "Ġb",
        "uck"
      ],
      [
        "Ġh",
        "ome"
      ],
      [
        "Ġf",
        "ree"
      ],
      [
        "Ġm",
        "or"
      ],
      [
        "Ġm",
        "aking"
      ],
      [
        "it",
        "ed"
      ],
      [
        "Ġp",
        "al"
      ],
      [
        "ar",
        "n"
      ],
      [
        "Ġwh",
        "om"
      ],
      [
        "ver",
        "s"
      ],
      [
        "Ġde",
        "v"
      ],
      [
        "Ġcon",
        "f"
      ],
      [
        "Ġgr",
        "and"
      ],
      [
        "ĠWhe",
        "re"
      ],
      [
        "f",
        "ully"
      ],
      [
        "m",
        "a"
      ],
      [
        "Ġ",
        "ed"
      ],
      [
        "Ġs",
        "et"
      ],
      [
        "Ġh",
        "or"
      ],
      [
        "Ġh",
        "om"
      ],
      [
        "Ġf",
        "un"
      ],
      [
        "es",
        "h"
      ],
      [
        "ĠA",
        "h"
      ],
      [
        "ri",
        "p"
      ],
      [
        "th",
        "s"
      ],
      [
        "op",
        "e"
      ],
      [
        "y",
        "r"
      ],
      [
        "Ġ",
        "ill"
      ],
      [
        "Ġs",
        "ide"
      ],
      [
        "Ġf",
        "ace"
      ],
      [
        "Ġin",
        "d"
      ],
      [
        "ĠI",
        "r"
      ],
      [
        "Ġr",
        "un"
      ],
      [
        "ri",
        "ed"
      ],
      [
        "Ġqu",
        "e"
      ],
      [
        "Ġple",
        "ase"
      ],
      [
        "!",
        "!"
      ],
      [
        "g",
        "es"
      ],
      [
        "o",
        "ke"
      ],
      [
        "Ġa",
        "ct"
      ],
      [
        "Ġw",
        "ee"
      ],
      [
        "Ġh",
        "app"
      ],
      [
        "Ġm",
        "is"
      ],
      [
        "Ġp",
        "ig"
      ],
      [
        "Ġd",
        "ark"
      ],
      [
        "Ġin",
        "c"
      ],
      [
        "Ġle",
        "ft"
      ],
      [
        "Ġus",
        "ed"
      ],
      [
        "Ġgo",
        "ing"
      ],
      [
        "iel",
        "d"
      ],
      [
        "'",
        "ve"
      ],
      [
        "Ġs",
        "or"
      ],
      [
        "Ġm",
        "ag"
      ],
      [
        "Ġm",
        "outh"
      ],
      [
        "Ġin",
        "ter"
      ],
      [
        "im",
        "b"
      ],
      [
        "Ġe",
        "ach"
      ],
      [
        "Ġre",
        "ad"
      ],
      [
        "Ġme",
        "et"
      ],
      [
        "ĠO",
        "ne"
      ],
      [
        "Ġan",
        "t"
      ],
      [
        "ight",
        "s"
      ],
      [
        "ne",
        "w"
      ],
      [
        "ĠWh",
        "y"
      ],
      [
        "sel",
        "ves"
      ],
      [
        "c",
        "o"
      ],
      [
        "w",
        "ards"
      ],
      [
        "Ġw",
        "all"
      ],
      [
        "Ġw",
        "ild"
      ],
      [
        "is",
        "hed"
      ],
      [
        "Ġf",
        "ro"
      ],
      [
        "Ġm",
        "o"
      ],
      [
        "Ġm",
        "us"
      ],
      [
        "Ġp",
        "ol"
      ],
      [
        "Ġd",
        "eep"
      ],
      [
        "ic",
        "s"
      ],
      [
        "ĠA",
        "d"
      ],
      [
        "ri",
        "b"
      ],
      [
        "ab",
        "b"
      ],
      [
        "Ġan",
        "g"
      ],
      [
        "Ġan",
        "other"
      ],
      [
        "Ġk",
        "ind"
      ],
      [
        "ain",
        "s"
      ],
      [
        "Ġal",
        "ong"
      ],
      [
        "h",
        "ing"
      ],
      [
        "k",
        "n"
      ],
      [
        "r",
        "ist"
      ],
      [
        "y",
        "ing"
      ],
      [
        "Ġt",
        "ry"
      ],
      [
        "in",
        "a"
      ],
      [
        "Ġs",
        "a"
      ],
      [
        "Ġb",
        "ow"
      ],
      [
        "Ġb",
        "oth"
      ],
      [
        "Ġm",
        "om"
      ],
      [
        "it",
        "ies"
      ],
      [
        "Ġc",
        "irc"
      ],
      [
        "Ġg",
        "ent"
      ],
      [
        "Ġu",
        "nd"
      ],
      [
        "ĠH",
        "er"
      ],
      [
        "un",
        "e"
      ],
      [
        "ri",
        "g"
      ],
      [
        "ell",
        "y"
      ],
      [
        "ag",
        "s"
      ],
      [
        "Ġso",
        "on"
      ],
      [
        "ĠN",
        "or"
      ],
      [
        "ĠWh",
        "o"
      ],
      [
        "oll",
        "y"
      ],
      [
        "Ġcour",
        "se"
      ],
      [
        "l",
        "o"
      ],
      [
        "u",
        "x"
      ],
      [
        "y",
        "d"
      ],
      [
        "Ġ",
        "*"
      ],
      [
        "Ġt",
        "ro"
      ],
      [
        "Ġh",
        "on"
      ],
      [
        "Ġf",
        "ur"
      ],
      [
        "Ġf",
        "ind"
      ],
      [
        "Ġm",
        "orn"
      ],
      [
        "Ġp",
        "en"
      ],
      [
        "Ġl",
        "ow"
      ],
      [
        "Ġd",
        "one"
      ],
      [
        "Ġth",
        "ou"
      ],
      [
        "Ġy",
        "ears"
      ],
      [
        "st",
        "r"
      ],
      [
        "ut",
        "s"
      ],
      [
        "ĠS",
        "p"
      ],
      [
        "ĠF",
        "rom"
      ],
      [
        "Ġv",
        "o"
      ],
      [
        "=",
        "="
      ],
      [
        "i",
        "ent"
      ],
      [
        "k",
        "in"
      ],
      [
        "v",
        "el"
      ],
      [
        "Ġ",
        "-"
      ],
      [
        "Ġh",
        "ur"
      ],
      [
        "Ġh",
        "our"
      ],
      [
        "it",
        "es"
      ],
      [
        "Ġp",
        "at"
      ],
      [
        "Ġl",
        "ist"
      ],
      [
        "Ġhe",
        "ard"
      ],
      [
        "Ġn",
        "ear"
      ],
      [
        "Ġg",
        "iv"
      ],
      [
        "ur",
        "al"
      ],
      [
        "il",
        "s"
      ],
      [
        "il",
        "ed"
      ],
      [
        "ak",
        "en"
      ],
      [
        "Ġwho",
        "se"
      ],
      [
        "Ġbec",
        "ause"
      ],
      [
        ",",
        "^"
      ],
      [
        "r",
        "on"
      ],
      [
        "Ġ",
        "ere"
      ],
      [
        "in",
        "ed"
      ],
      [
        "Ġs",
        "ays"
      ],
      [
        "Ġw",
        "alk"
      ],
      [
        "Ġh",
        "ard"
      ],
      [
        "Ġl",
        "ar"
      ],
      [
        "Ġd",
        "i"
      ],
      [
        "Ġd",
        "iv"
      ],
      [
        "ic",
        "ally"
      ],
      [
        "et",
        "te"
      ],
      [
        "Ġe",
        "le"
      ],
      [
        "ĠP",
        "l"
      ],
      [
        "Ġan",
        "n"
      ],
      [
        "od",
        "d"
      ],
      [
        "ire",
        "d"
      ],
      [
        "Ġad",
        "d"
      ],
      [
        "Ġbet",
        "ter"
      ],
      [
        "Ġagain",
        "st"
      ],
      [
        "Ġhel",
        "p"
      ],
      [
        "g",
        "ed"
      ],
      [
        "u",
        "se"
      ],
      [
        "he",
        "n"
      ],
      [
        "Ġa",
        "h"
      ],
      [
        "Ġp",
        "ast"
      ],
      [
        "Ġc",
        "re"
      ],
      [
        "Ġc",
        "ame"
      ],
      [
        "en",
        "se"
      ],
      [
        "Ġl",
        "ost"
      ],
      [
        "ac",
        "es"
      ],
      [
        "ck",
        "s"
      ],
      [
        "if",
        "t"
      ],
      [
        "aw",
        "s"
      ],
      [
        "ie",
        "w"
      ],
      [
        "Ġsc",
        "r"
      ],
      [
        "m",
        "ing"
      ],
      [
        "Ġf",
        "rie"
      ],
      [
        "Ġp",
        "et"
      ],
      [
        "Ġd",
        "u"
      ],
      [
        "Ġin",
        "n"
      ],
      [
        "Ġg",
        "ro"
      ],
      [
        "Ġg",
        "one"
      ],
      [
        "ke",
        "y"
      ],
      [
        "ap",
        "h"
      ],
      [
        "ĠP",
        "e"
      ],
      [
        "ĠO",
        "f"
      ],
      [
        "Ġdo",
        "es"
      ],
      [
        "Ġse",
        "en"
      ],
      [
        "bl",
        "ing"
      ],
      [
        "Ġpr",
        "ay"
      ],
      [
        "Ġpo",
        "int"
      ],
      [
        "Ġpers",
        "on"
      ],
      [
        "b",
        "ro"
      ],
      [
        "f",
        "er"
      ],
      [
        "g",
        "o"
      ],
      [
        "v",
        "ent"
      ],
      [
        "Ġ",
        "!"
      ],
      [
        "Ġ",
        "ing"
      ],
      [
        "in",
        "ess"
      ],
      [
        "Ġw",
        "at"
      ],
      [
        "Ġw",
        "on"
      ],
      [
        "Ġb",
        "le"
      ],
      [
        "Ġb",
        "ull"
      ],
      [
        "re",
        "et"
      ],
      [
        "Ġf",
        "ine"
      ],
      [
        "Ġm",
        "ad"
      ],
      [
        "Ġp",
        "ot"
      ],
      [
        "Ġp",
        "ay"
      ],
      [
        "Ġd",
        "ays"
      ],
      [
        "Ġg",
        "ar"
      ],
      [
        "st",
        "and"
      ],
      [
        "Ġli",
        "e"
      ],
      [
        "ab",
        "ly"
      ],
      [
        "ore",
        "s"
      ],
      [
        "if",
        "ic"
      ],
      [
        "oot",
        "s"
      ],
      [
        "Ġsle",
        "ep"
      ],
      [
        "e",
        "w"
      ],
      [
        "g",
        "er"
      ],
      [
        "t",
        "w"
      ],
      [
        "y",
        "p"
      ],
      [
        "y",
        "ou"
      ],
      [
        "Ġs",
        "qu"
      ],
      [
        "is",
        "k"
      ],
      [
        "Ġp",
        "ull"
      ],
      [
        "Ġto",
        "ok"
      ],
      [
        "ĠS",
        "aint"
      ],
      [
        "ĠM",
        "an"
      ],
      [
        "ill",
        "s"
      ],
      [
        "ick",
        "er"
      ],
      [
        "em",
        "ber"
      ],
      [
        "Ġex",
        "p"
      ],
      [
        "ĠU",
        "n"
      ],
      [
        "Ġgre",
        "en"
      ],
      [
        "c",
        "r"
      ],
      [
        "c",
        "ed"
      ],
      [
        "e",
        "nd"
      ],
      [
        "h",
        "o"
      ],
      [
        "m",
        "ost"
      ],
      [
        "w",
        "ell"
      ],
      [
        "Ġb",
        "ott"
      ],
      [
        "Ġp",
        "ap"
      ],
      [
        "Ġp",
        "air"
      ],
      [
        "Ġc",
        "al"
      ],
      [
        "Ġd",
        "ro"
      ],
      [
        "Ġd",
        "ream"
      ],
      [
        "Ġg",
        "ener"
      ],
      [
        "ow",
        "ing"
      ],
      [
        "Ġfor",
        "get"
      ],
      [
        "Ġre",
        "l"
      ],
      [
        "ĠD",
        "o"
      ],
      [
        "op",
        "s"
      ],
      [
        "ne",
        "y"
      ],
      [
        "b",
        "ur"
      ],
      [
        "b",
        "oy"
      ],
      [
        "c",
        "y"
      ],
      [
        "c",
        "om"
      ],
      [
        "n",
        "ed"
      ],
      [
        "he",
        "m"
      ],
      [
        "Ġs",
        "ir"
      ],
      [
        "Ġm",
        "ed"
      ],
      [
        "Ġm",
        "id"
      ],
      [
        "or",
        "m"
      ],
      [
        "Ġp",
        "ure"
      ],
      [
        "Ġl",
        "it"
      ],
      [
        "al",
        "es"
      ],
      [
        "ill",
        "ed"
      ],
      [
        "il",
        "es"
      ],
      [
        "ĠO",
        "ur"
      ],
      [
        "ĠD",
        "r"
      ],
      [
        "Ġv",
        "ol"
      ],
      [
        "b",
        "ar"
      ],
      [
        "Ġ",
        "{"
      ],
      [
        "Ġt",
        "em"
      ],
      [
        "Ġa",
        "y"
      ],
      [
        "in",
        "y"
      ],
      [
        "Ġo",
        "pen"
      ],
      [
        "Ġs",
        "ix"
      ],
      [
        "Ġb",
        "are"
      ],
      [
        "re",
        "ad"
      ],
      [
        "Ġm",
        "ine"
      ],
      [
        "es",
        "ter"
      ],
      [
        "Ġc",
        "ro"
      ],
      [
        "ar",
        "ch"
      ],
      [
        "Ġl",
        "augh"
      ],
      [
        "Ġd",
        "ur"
      ],
      [
        "Ġin",
        "f"
      ],
      [
        "et",
        "er"
      ],
      [
        "ĠT",
        "w"
      ],
      [
        "ĠC",
        "om"
      ],
      [
        "op",
        "h"
      ],
      [
        "av",
        "ed"
      ],
      [
        "Ġne",
        "xt"
      ],
      [
        "Ġple",
        "as"
      ],
      [
        "Ġhop",
        "e"
      ],
      [
        "e",
        "k"
      ],
      [
        "e",
        "ver"
      ],
      [
        "i",
        "en"
      ],
      [
        "i",
        "os"
      ],
      [
        "k",
        "en"
      ],
      [
        "Ġ",
        "|"
      ],
      [
        "Ġs",
        "aw"
      ],
      [
        "Ġs",
        "ound"
      ],
      [
        "is",
        "p"
      ],
      [
        "Ġf",
        "le"
      ],
      [
        "Ġf",
        "ound"
      ],
      [
        "Ġp",
        "rom"
      ],
      [
        "ed",
        "s"
      ],
      [
        "Ġg",
        "ave"
      ],
      [
        "ir",
        "ty"
      ],
      [
        "id",
        "er"
      ],
      [
        "ĠM",
        "ay"
      ],
      [
        "Ġr",
        "ain"
      ],
      [
        "out",
        "s"
      ],
      [
        "!)",
        ","
      ],
      [
        "Ġfe",
        "w"
      ],
      [
        "Ġfrie",
        "nd"
      ],
      [
        "n",
        "ot"
      ],
      [
        "Ġa",
        "ff"
      ],
      [
        "Ġo",
        "w"
      ],
      [
        "er",
        "ry"
      ],
      [
        "re",
        "l"
      ],
      [
        "ou",
        "p"
      ],
      [
        "Ġf",
        "ear"
      ],
      [
        "Ġm",
        "ark"
      ],
      [
        "Ġc",
        "at"
      ],
      [
        "Ġg",
        "h"
      ],
      [
        "id",
        "ge"
      ],
      [
        "ent",
        "y"
      ],
      [
        "Ġmy",
        "self"
      ],
      [
        "Ġsu",
        "pp"
      ],
      [
        "Ġle",
        "ave"
      ],
      [
        "Ġde",
        "ad"
      ],
      [
        "Ġqu",
        "ite"
      ],
      [
        "Ġknow",
        "s"
      ],
      [
        "Ġho",
        "ly"
      ],
      [
        "Ġsec",
        "ond"
      ],
      [
        "o",
        "int"
      ],
      [
        "t",
        "is"
      ],
      [
        "u",
        "ed"
      ],
      [
        "u",
        "le"
      ],
      [
        "Ġt",
        "ail"
      ],
      [
        "Ġt",
        "alk"
      ],
      [
        "he",
        "l"
      ],
      [
        "Ġs",
        "un"
      ],
      [
        "Ġh",
        "und"
      ],
      [
        "Ġm",
        "aid"
      ],
      [
        "ing",
        "er"
      ],
      [
        "Ġp",
        "an"
      ],
      [
        "Ġd",
        "a"
      ],
      [
        "Ġd",
        "ist"
      ],
      [
        "ĠA",
        "t"
      ],
      [
        "Ġe",
        "gg"
      ],
      [
        "Ġon",
        "es"
      ],
      [
        "ĠM",
        "ag"
      ],
      [
        "ĠP",
        "r"
      ],
      [
        "ol",
        "og"
      ],
      [
        "os",
        "h"
      ],
      [
        "Ġat",
        "t"
      ],
      [
        "ĠE",
        "x"
      ],
      [
        "Ġbl",
        "ood"
      ],
      [
        "Ġbl",
        "ue"
      ],
      [
        "Ġle",
        "g"
      ],
      [
        "Ġde",
        "c"
      ],
      [
        "Ġro",
        "ll"
      ],
      [
        "Ġgo",
        "ld"
      ],
      [
        "ock",
        "s"
      ],
      [
        "ious",
        "ly"
      ],
      [
        "ĠSh",
        "aun"
      ],
      [
        "oh",
        "n"
      ],
      [
        "m",
        "in"
      ],
      [
        "p",
        "or"
      ],
      [
        "u",
        "it"
      ],
      [
        "y",
        "g"
      ],
      [
        "Ġ",
        "id"
      ],
      [
        "Ġo",
        "cc"
      ],
      [
        "Ġs",
        "elf"
      ],
      [
        "Ġw",
        "ish"
      ],
      [
        "Ġw",
        "ait"
      ],
      [
        "re",
        "y"
      ],
      [
        "is",
        "on"
      ],
      [
        "Ġf",
        "o"
      ],
      [
        "Ġf",
        "oot"
      ],
      [
        "Ġp",
        "oss"
      ],
      [
        "en",
        "ing"
      ],
      [
        "Ġto",
        "ld"
      ],
      [
        "Ġg",
        "od"
      ],
      [
        "st",
        "e"
      ],
      [
        "Ġst",
        "and"
      ],
      [
        "os",
        "ed"
      ],
      [
        "Ġch",
        "ap"
      ],
      [
        "ak",
        "er"
      ],
      [
        "Ġnot",
        "hing"
      ],
      [
        "av",
        "ing"
      ],
      [
        "Ġle",
        "ad"
      ],
      [
        "Ġse",
        "a"
      ],
      [
        "ĠY",
        "our"
      ],
      [
        "iz",
        "z"
      ],
      [
        "Ġpres",
        "ent"
      ],
      [
        "b",
        "ed"
      ],
      [
        "i",
        "or"
      ],
      [
        "m",
        "y"
      ],
      [
        "t",
        "en"
      ],
      [
        "w",
        "here"
      ],
      [
        "Ġt",
        "ouch"
      ],
      [
        "Ġo",
        "l"
      ],
      [
        "Ġs",
        "im"
      ],
      [
        "Ġf",
        "act"
      ],
      [
        "Ġm",
        "ass"
      ],
      [
        "at",
        "ive"
      ],
      [
        "Ġc",
        "e"
      ],
      [
        "Ġc",
        "ast"
      ],
      [
        "Ġl",
        "ang"
      ],
      [
        "Ġd",
        "em"
      ],
      [
        "Ġto",
        "p"
      ],
      [
        "ĠB",
        "ar"
      ],
      [
        "ab",
        "les"
      ],
      [
        "ĠF",
        "inn"
      ],
      [
        "ĠThe",
        "n"
      ],
      [
        "Ġco",
        "ld"
      ],
      [
        "Ġex",
        "c"
      ],
      [
        "ian",
        "s"
      ],
      [
        "Ġpe",
        "ace"
      ],
      [
        "Ġword",
        "s"
      ],
      [
        "h",
        "ouse"
      ],
      [
        "p",
        "ro"
      ],
      [
        "u",
        "ct"
      ],
      [
        "Ġ",
        "6"
      ],
      [
        "Ġt",
        "ong"
      ],
      [
        "Ġw",
        "ood"
      ],
      [
        "Ġw",
        "onder"
      ],
      [
        "Ġb",
        "ook"
      ],
      [
        "Ġm",
        "ist"
      ],
      [
        "Ġp",
        "ubl"
      ],
      [
        "ar",
        "a"
      ],
      [
        "Ġhe",
        "n"
      ],
      [
        "Ġth",
        "y"
      ],
      [
        "Ġn",
        "umber"
      ],
      [
        "ir",
        "s"
      ],
      [
        "am",
        "ed"
      ],
      [
        "ĠS",
        "c"
      ],
      [
        "ĠP",
        "h"
      ],
      [
        "Ġme",
        "m"
      ],
      [
        "ĠG",
        "l"
      ],
      [
        "Ġqu",
        "ick"
      ],
      [
        "Ġlo",
        "v"
      ],
      [
        "Ġco",
        "ck"
      ],
      [
        "Ġwr",
        "ong"
      ],
      [
        "Ġres",
        "pect"
      ],
      [
        "T",
        "I"
      ],
      [
        "a",
        "ul"
      ],
      [
        "h",
        "ow"
      ],
      [
        "n",
        "er"
      ],
      [
        "Ġa",
        "ge"
      ],
      [
        "Ġo",
        "m"
      ],
      [
        "Ġw",
        "it"
      ],
      [
        "Ġb",
        "ir"
      ],
      [
        "Ġb",
        "ab"
      ],
      [
        "Ġm",
        "atter"
      ],
      [
        "Ġc",
        "ry"
      ],
      [
        "Ġc",
        "ount"
      ],
      [
        "ar",
        "r"
      ],
      [
        "as",
        "k"
      ],
      [
        "Ġn",
        "ice"
      ],
      [
        "om",
        "s"
      ],
      [
        "ĠS",
        "l"
      ],
      [
        "ell",
        "s"
      ],
      [
        "ĠO",
        "ld"
      ],
      [
        "Ġv",
        "is"
      ],
      [
        "ink",
        "s"
      ],
      [
        "Ġgo",
        "es"
      ],
      [
        "idd",
        "le"
      ],
      [
        "Ġmom",
        "ent"
      ],
      [
        "Ġmorn",
        "ing"
      ],
      [
        "a",
        "gh"
      ],
      [
        "a",
        "ud"
      ],
      [
        "b",
        "ody"
      ],
      [
        "e",
        "v"
      ],
      [
        "g",
        "ar"
      ],
      [
        "h",
        "or"
      ],
      [
        "w",
        "ard"
      ],
      [
        "y",
        "c"
      ],
      [
        "Ġ",
        "\""
      ],
      [
        "Ġs",
        "em"
      ],
      [
        "Ġb",
        "ound"
      ],
      [
        "Ġm",
        "akes"
      ],
      [
        "at",
        "or"
      ],
      [
        "at",
        "ure"
      ],
      [
        "Ġp",
        "op"
      ],
      [
        "Ġc",
        "ert"
      ],
      [
        "Ġth",
        "ings"
      ],
      [
        "ur",
        "ch"
      ],
      [
        "Ġe",
        "ff"
      ],
      [
        "id",
        "s"
      ],
      [
        "Ġas",
        "k"
      ],
      [
        "Ġst",
        "op"
      ],
      [
        "Ġst",
        "one"
      ],
      [
        "Ġre",
        "st"
      ],
      [
        "Ġso",
        "ft"
      ],
      [
        "Ġor",
        "der"
      ],
      [
        "Ġyour",
        "self"
      ],
      [
        "ĠY",
        "et"
      ],
      [
        "Ġpro",
        "per"
      ],
      [
        "te",
        "nd"
      ],
      [
        "fe",
        "ct"
      ],
      [
        "anc",
        "y"
      ],
      [
        "d",
        "own"
      ],
      [
        "h",
        "a"
      ],
      [
        "i",
        "res"
      ],
      [
        "i",
        "ence"
      ],
      [
        "l",
        "ers"
      ],
      [
        "l",
        "ings"
      ],
      [
        "Ġ",
        "0"
      ],
      [
        "Ġt",
        "en"
      ],
      [
        "Ġt",
        "um"
      ],
      [
        "Ġs",
        "oul"
      ],
      [
        "Ġw",
        "id"
      ],
      [
        "Ġh",
        "am"
      ],
      [
        "Ġp",
        "ip"
      ],
      [
        "Ġc",
        "are"
      ],
      [
        "on",
        "y"
      ],
      [
        "as",
        "y"
      ],
      [
        "Ġin",
        "v"
      ],
      [
        "Ġy",
        "ear"
      ],
      [
        "Ġbe",
        "aut"
      ],
      [
        "ĠM",
        "iss"
      ],
      [
        "us",
        "k"
      ],
      [
        "ĠL",
        "ike"
      ],
      [
        "Ġk",
        "new"
      ],
      [
        "Ġpl",
        "ain"
      ],
      [
        "Ġse",
        "ven"
      ],
      [
        "Ġbr",
        "ing"
      ],
      [
        "Ġex",
        "t"
      ],
      [
        "itt",
        "ing"
      ],
      [
        "Ġpro",
        "p"
      ],
      [
        "Ġthem",
        "selves"
      ],
      [
        "Ġstr",
        "ong"
      ],
      [
        "ĠMr",
        "s"
      ],
      [
        "Ġhund",
        "red"
      ],
      [
        ".",
        ","
      ],
      [
        "b",
        "o"
      ],
      [
        "e",
        "al"
      ],
      [
        "k",
        "ins"
      ],
      [
        "o",
        "es"
      ],
      [
        "o",
        "ff"
      ],
      [
        "u",
        "f"
      ],
      [
        "w",
        "s"
      ],
      [
        "Ġw",
        "a"
      ],
      [
        "ou",
        "red"
      ],
      [
        "Ġh",
        "ot"
      ],
      [
        "is",
        "es"
      ],
      [
        "ow",
        "ed"
      ],
      [
        "el",
        "ve"
      ],
      [
        "Ġe",
        "ither"
      ],
      [
        "ad",
        "dy"
      ],
      [
        "se",
        "y"
      ],
      [
        "Ġr",
        "a"
      ],
      [
        "Ġre",
        "f"
      ],
      [
        "her",
        "s"
      ],
      [
        "and",
        "er"
      ],
      [
        "ell",
        "e"
      ],
      [
        "ĠP",
        "er"
      ],
      [
        "Ġsh",
        "ort"
      ],
      [
        "Ġk",
        "iss"
      ],
      [
        "ĠG",
        "u"
      ],
      [
        "ack",
        "s"
      ],
      [
        "ĠE",
        "r"
      ],
      [
        "av",
        "en"
      ],
      [
        "ang",
        "er"
      ],
      [
        "iv",
        "ely"
      ],
      [
        "bl",
        "ed"
      ],
      [
        "Ġtr",
        "u"
      ],
      [
        "Ġar",
        "t"
      ],
      [
        "Ġcom",
        "p"
      ],
      [
        "oot",
        "h"
      ],
      [
        "Ġen",
        "ough"
      ],
      [
        "Ġboy",
        "s"
      ],
      [
        "b",
        "b"
      ],
      [
        "c",
        "on"
      ],
      [
        "e",
        "c"
      ],
      [
        "n",
        "t"
      ],
      [
        "r",
        "or"
      ],
      [
        "Ġ",
        "ur"
      ],
      [
        "Ġa",
        "st"
      ],
      [
        "Ġb",
        "all"
      ],
      [
        "Ġm",
        "oon"
      ],
      [
        "Ġl",
        "uck"
      ],
      [
        "Ġd",
        "ri"
      ],
      [
        "Ġin",
        "de"
      ],
      [
        "im",
        "s"
      ],
      [
        "ĠS",
        "ee"
      ],
      [
        "Ġr",
        "ing"
      ],
      [
        "ag",
        "es"
      ],
      [
        "ĠD",
        "an"
      ],
      [
        "em",
        "ent"
      ],
      [
        "Ġsp",
        "r"
      ],
      [
        "ast",
        "e"
      ],
      [
        "Ġbl",
        "ess"
      ],
      [
        "ie",
        "ce"
      ],
      [
        "og",
        "g"
      ],
      [
        "az",
        "e"
      ],
      [
        "Ġlook",
        "ing"
      ],
      [
        "Ġbel",
        "ie"
      ],
      [
        "Ġcall",
        "ed"
      ],
      [
        "Ġcont",
        "in"
      ],
      [
        "sw",
        "er"
      ],
      [
        "Ġfam",
        "ily"
      ],
      [
        "b",
        "ack"
      ],
      [
        "g",
        "u"
      ],
      [
        "h",
        "im"
      ],
      [
        "k",
        "es"
      ],
      [
        "r",
        "um"
      ],
      [
        "v",
        "y"
      ],
      [
        "Ġ",
        "/"
      ],
      [
        "Ġs",
        "at"
      ],
      [
        "re",
        "m"
      ],
      [
        "Ġm",
        "ess"
      ],
      [
        "Ġm",
        "other"
      ],
      [
        "or",
        "row"
      ],
      [
        "ar",
        "l"
      ],
      [
        "ar",
        "ry"
      ],
      [
        "Ġl",
        "y"
      ],
      [
        "Ġg",
        "ame"
      ],
      [
        "al",
        "th"
      ],
      [
        "Ġbe",
        "y"
      ],
      [
        "Ġr",
        "h"
      ],
      [
        "Ġr",
        "ub"
      ],
      [
        "ĠW",
        "as"
      ],
      [
        "Ġst",
        "ri"
      ],
      [
        "Ġv",
        "ar"
      ],
      [
        "Ġsp",
        "l"
      ],
      [
        "ud",
        "dy"
      ],
      [
        "Ġne",
        "ed"
      ],
      [
        "Ġcon",
        "c"
      ],
      [
        "Ġcom",
        "ing"
      ],
      [
        "sh",
        "ip"
      ],
      [
        "ĠAn",
        "n"
      ],
      [
        "Ġlad",
        "y"
      ],
      [
        "Ġfell",
        "ow"
      ],
      [
        "a",
        "ver"
      ],
      [
        "c",
        "ess"
      ],
      [
        "i",
        "ar"
      ],
      [
        "l",
        "t"
      ],
      [
        "m",
        "ore"
      ],
      [
        "s",
        "p"
      ],
      [
        "Ġ",
        "rom"
      ],
      [
        "Ġ",
        "est"
      ],
      [
        "Ġa",
        "v"
      ],
      [
        "Ġs",
        "in"
      ],
      [
        "Ġb",
        "us"
      ],
      [
        "Ġb",
        "ul"
      ],
      [
        "Ġh",
        "ol"
      ],
      [
        "Ġf",
        "ish"
      ],
      [
        "Ġf",
        "ather"
      ],
      [
        "Ġm",
        "al"
      ],
      [
        "Ġm",
        "ill"
      ],
      [
        "it",
        "er"
      ],
      [
        "Ġc",
        "up"
      ],
      [
        "Ġc",
        "orn"
      ],
      [
        "Ġl",
        "im"
      ],
      [
        "Ġto",
        "wn"
      ],
      [
        "Ġg",
        "e"
      ],
      [
        "st",
        "one"
      ],
      [
        "ad",
        "es"
      ],
      [
        "ter",
        "ed"
      ],
      [
        "ĠH",
        "ump"
      ],
      [
        "ill",
        "e"
      ],
      [
        "Ġst",
        "ory"
      ],
      [
        "un",
        "ch"
      ],
      [
        "all",
        "ed"
      ],
      [
        "ap",
        "t"
      ],
      [
        "ĠP",
        "ro"
      ],
      [
        "ul",
        "p"
      ],
      [
        "od",
        "e"
      ],
      [
        "Ġde",
        "p"
      ],
      [
        "Ġdo",
        "or"
      ],
      [
        "Ġro",
        "y"
      ],
      [
        "ĠK",
        "ing"
      ],
      [
        "ment",
        "s"
      ],
      [
        "Ġbro",
        "ther"
      ],
      [
        "Ġgir",
        "l"
      ],
      [
        "Ġheav",
        "en"
      ],
      [
        "ĠIr",
        "ish"
      ],
      [
        "?",
        ")"
      ],
      [
        "a",
        "el"
      ],
      [
        "i",
        "am"
      ],
      [
        "j",
        "ect"
      ],
      [
        "l",
        "ike"
      ],
      [
        "u",
        "h"
      ],
      [
        "w",
        "ith"
      ],
      [
        "Ġt",
        "it"
      ],
      [
        "Ġt",
        "ree"
      ],
      [
        "Ġo",
        "p"
      ],
      [
        "Ġw",
        "et"
      ],
      [
        "or",
        "g"
      ],
      [
        "Ġp",
        "ark"
      ],
      [
        "Ġc",
        "ut"
      ],
      [
        "ed",
        "d"
      ],
      [
        "Ġl",
        "ear"
      ],
      [
        "Ġd",
        "om"
      ],
      [
        "Ġn",
        "on"
      ],
      [
        "ic",
        "es"
      ],
      [
        "ac",
        "he"
      ],
      [
        "id",
        "ent"
      ],
      [
        "ver",
        "y"
      ],
      [
        "ĠM",
        "a"
      ],
      [
        "ill",
        "a"
      ],
      [
        "un",
        "c"
      ],
      [
        "ell",
        "a"
      ],
      [
        "Ġli",
        "v"
      ],
      [
        "Ġli",
        "ve"
      ],
      [
        "Ġv",
        "iew"
      ],
      [
        "ous",
        "ly"
      ],
      [
        "Ġdo",
        "ing"
      ],
      [
        "Ġtw",
        "elve"
      ],
      [
        "pp",
        "ing"
      ],
      [
        "ure",
        "d"
      ],
      [
        "Ġun",
        "t"
      ],
      [
        "eth",
        "ing"
      ],
      [
        "Ġear",
        "th"
      ],
      [
        "Ġrem",
        "ember"
      ],
      [
        "iver",
        "s"
      ],
      [
        "Ġwat",
        "ers"
      ],
      [
        "b",
        "el"
      ],
      [
        "p",
        "et"
      ],
      [
        "s",
        "es"
      ],
      [
        "in",
        "al"
      ],
      [
        "Ġw",
        "ays"
      ],
      [
        "Ġf",
        "ond"
      ],
      [
        "Ġm",
        "el"
      ],
      [
        "at",
        "he"
      ],
      [
        "it",
        "z"
      ],
      [
        "as",
        "c"
      ],
      [
        "Ġhe",
        "m"
      ],
      [
        "Ġhe",
        "ll"
      ],
      [
        "Ġn",
        "ation"
      ],
      [
        "Ġg",
        "ard"
      ],
      [
        "om",
        "en"
      ],
      [
        "ĠT",
        "ell"
      ],
      [
        "Ġfor",
        "t"
      ],
      [
        "se",
        "m"
      ],
      [
        "um",
        "e"
      ],
      [
        "Ġst",
        "ay"
      ],
      [
        "Ġv",
        "ir"
      ],
      [
        "Ġj",
        "oy"
      ],
      [
        "ick",
        "ing"
      ],
      [
        "aw",
        "l"
      ],
      [
        "Ġtr",
        "ou"
      ],
      [
        "ink",
        "ing"
      ],
      [
        "Ġqu",
        "est"
      ],
      [
        "Ġab",
        "ove"
      ],
      [
        "ĠWh",
        "ile"
      ],
      [
        "Ġun",
        "to"
      ],
      [
        "Ġar",
        "r"
      ],
      [
        "Ġgr",
        "ace"
      ],
      [
        "Ġcom",
        "es"
      ],
      [
        "Ġsay",
        "d"
      ],
      [
        "ĠU",
        "p"
      ],
      [
        "wh",
        "at"
      ],
      [
        "Ġspe",
        "ak"
      ],
      [
        "Ġret",
        "urn"
      ],
      [
        "Ġou",
        "ght"
      ],
      [
        "d",
        "en"
      ],
      [
        "i",
        "h"
      ],
      [
        "t",
        "ty"
      ],
      [
        "w",
        "ise"
      ],
      [
        "Ġs",
        "y"
      ],
      [
        "Ġb",
        "og"
      ],
      [
        "Ġb",
        "orn"
      ],
      [
        "re",
        "st"
      ],
      [
        "Ġf",
        "res"
      ],
      [
        "Ġp",
        "ort"
      ],
      [
        "Ġc",
        "oun"
      ],
      [
        "Ġd",
        "am"
      ],
      [
        "le",
        "m"
      ],
      [
        "Ġth",
        "ank"
      ],
      [
        "Ġg",
        "all"
      ],
      [
        "Ġg",
        "row"
      ],
      [
        "ow",
        "l"
      ],
      [
        "et",
        "her"
      ],
      [
        "ĠT",
        "ill"
      ],
      [
        "id",
        "ing"
      ],
      [
        "ter",
        "n"
      ],
      [
        "Ġas",
        "h"
      ],
      [
        "ĠB",
        "ur"
      ],
      [
        "Ġst",
        "art"
      ],
      [
        "ĠC",
        "o"
      ],
      [
        "ĠP",
        "at"
      ],
      [
        "Ġan",
        "c"
      ],
      [
        "ĠD",
        "on"
      ],
      [
        "ick",
        "ed"
      ],
      [
        "ĠE",
        "n"
      ],
      [
        "Ġkn",
        "own"
      ],
      [
        "ail",
        "s"
      ],
      [
        "Ġsay",
        "ing"
      ],
      [
        "Ġpri",
        "v"
      ],
      [
        "Ġpubl",
        "ic"
      ],
      [
        "E",
        "R"
      ],
      [
        "f",
        "ter"
      ],
      [
        "j",
        "oy"
      ],
      [
        "o",
        "ch"
      ],
      [
        "Ġt",
        "y"
      ],
      [
        "Ġt",
        "ub"
      ],
      [
        "Ġt",
        "aking"
      ],
      [
        "er",
        "g"
      ],
      [
        "Ġw",
        "ake"
      ],
      [
        "re",
        "es"
      ],
      [
        "Ġh",
        "oo"
      ],
      [
        "Ġh",
        "us"
      ],
      [
        "Ġh",
        "un"
      ],
      [
        "is",
        "c"
      ],
      [
        "Ġf",
        "ir"
      ],
      [
        "Ġf",
        "ol"
      ],
      [
        "es",
        "e"
      ],
      [
        "or",
        "k"
      ],
      [
        "Ġc",
        "op"
      ],
      [
        "Ġc",
        "ase"
      ],
      [
        "Ġl",
        "ess"
      ],
      [
        "Ġl",
        "aw"
      ],
      [
        "Ġl",
        "ord"
      ],
      [
        "Ġd",
        "ie"
      ],
      [
        "Ġd",
        "iff"
      ],
      [
        "Ġth",
        "ous"
      ],
      [
        "Ġg",
        "en"
      ],
      [
        "ĠA",
        "re"
      ],
      [
        "Ġe",
        "p"
      ],
      [
        "Ġe",
        "qu"
      ],
      [
        "ĠT",
        "H"
      ],
      [
        "ac",
        "ed"
      ],
      [
        "ĠC",
        "an"
      ],
      [
        "ĠC",
        "ome"
      ],
      [
        "ag",
        "ed"
      ],
      [
        "Ġher",
        "self"
      ],
      [
        "ĠD",
        "id"
      ],
      [
        "ĠG",
        "od"
      ],
      [
        "ick",
        "le"
      ],
      [
        "Ġal",
        "t"
      ],
      [
        "ĠY",
        "es"
      ],
      [
        "ĠWh",
        "ich"
      ],
      [
        "Ġco",
        "nd"
      ],
      [
        "Ġex",
        "pl"
      ],
      [
        "Ġpro",
        "v"
      ],
      [
        "Ġcom",
        "ple"
      ],
      [
        "Ġlet",
        "ter"
      ],
      [
        "Ġad",
        "v"
      ],
      [
        "ov",
        "ed"
      ],
      [
        "Ġcert",
        "ain"
      ],
      [
        "d",
        "om"
      ],
      [
        "e",
        "x"
      ],
      [
        "e",
        "en"
      ],
      [
        "p",
        "ot"
      ],
      [
        "r",
        "ick"
      ],
      [
        "u",
        "ld"
      ],
      [
        "w",
        "ord"
      ],
      [
        "Ġ",
        "nd"
      ],
      [
        "er",
        "ies"
      ],
      [
        "Ġh",
        "orn"
      ],
      [
        "Ġf",
        "ield"
      ],
      [
        "Ġm",
        "ut"
      ],
      [
        "it",
        "ing"
      ],
      [
        "Ġc",
        "ow"
      ],
      [
        "Ġc",
        "oo"
      ],
      [
        "Ġc",
        "ross"
      ],
      [
        "Ġl",
        "ot"
      ],
      [
        "Ġl",
        "amp"
      ],
      [
        "Ġd",
        "augh"
      ],
      [
        "as",
        "p"
      ],
      [
        "le",
        "ct"
      ],
      [
        "al",
        "m"
      ],
      [
        "ĠI",
        "re"
      ],
      [
        "Ġfor",
        "m"
      ],
      [
        "Ġu",
        "se"
      ],
      [
        "and",
        "y"
      ],
      [
        "ĠC",
        "on"
      ],
      [
        "ri",
        "pt"
      ],
      [
        "Ġli",
        "f"
      ],
      [
        "Ġso",
        "c"
      ],
      [
        "ĠF",
        "in"
      ],
      [
        "Ġj",
        "o"
      ],
      [
        "Ġsu",
        "ck"
      ],
      [
        "Ġde",
        "ath"
      ],
      [
        "ib",
        "b"
      ],
      [
        "Ġpro",
        "f"
      ],
      [
        "ump",
        "s"
      ],
      [
        "att",
        "le"
      ],
      [
        "Ġgiv",
        "en"
      ],
      [
        "O",
        "N"
      ],
      [
        "b",
        "ut"
      ],
      [
        "b",
        "our"
      ],
      [
        "h",
        "old"
      ],
      [
        "i",
        "ol"
      ],
      [
        "o",
        "il"
      ],
      [
        "r",
        "is"
      ],
      [
        "s",
        "ide"
      ],
      [
        "Ġs",
        "it"
      ],
      [
        "Ġs",
        "ag"
      ],
      [
        "Ġs",
        "ave"
      ],
      [
        "Ġw",
        "atch"
      ],
      [
        "Ġb",
        "ag"
      ],
      [
        "ou",
        "g"
      ],
      [
        "Ġh",
        "ost"
      ],
      [
        "Ġh",
        "ang"
      ],
      [
        "Ġm",
        "ir"
      ],
      [
        "Ġm",
        "ot"
      ],
      [
        "ing",
        "ly"
      ],
      [
        "Ġp",
        "in"
      ],
      [
        "Ġp",
        "os"
      ],
      [
        "Ġc",
        "am"
      ],
      [
        "al",
        "ing"
      ],
      [
        "ĠT",
        "e"
      ],
      [
        "us",
        "ed"
      ],
      [
        "ent",
        "ion"
      ],
      [
        "ĠP",
        "ar"
      ],
      [
        "Ġso",
        "d"
      ],
      [
        "ee",
        "ch"
      ],
      [
        "ĠE",
        "l"
      ],
      [
        "Ġbut",
        "t"
      ],
      [
        "ost",
        "er"
      ],
      [
        "Ġro",
        "ck"
      ],
      [
        "Ġar",
        "ch"
      ],
      [
        "ĠK",
        "n"
      ],
      [
        "Ġpr",
        "im"
      ],
      [
        "ark",
        "s"
      ],
      [
        "air",
        "s"
      ],
      [
        "inn",
        "y"
      ],
      [
        "inn",
        "ing"
      ],
      [
        "for",
        "m"
      ],
      [
        "Ġbre",
        "ath"
      ],
      [
        "rie",
        "f"
      ],
      [
        "ubl",
        "in"
      ],
      [
        "ĠNe",
        "ver"
      ],
      [
        "ĠOn",
        "ly"
      ],
      [
        "Ġcle",
        "an"
      ],
      [
        "Ġod",
        "d"
      ],
      [
        "Ġgent",
        "le"
      ],
      [
        "g",
        "in"
      ],
      [
        "g",
        "ing"
      ],
      [
        "l",
        "i"
      ],
      [
        "s",
        "y"
      ],
      [
        "w",
        "ed"
      ],
      [
        "z",
        "en"
      ],
      [
        "Ġ",
        "\\"
      ],
      [
        "Ġt",
        "im"
      ],
      [
        "Ġt",
        "all"
      ],
      [
        "Ġt",
        "aken"
      ],
      [
        "Ġs",
        "ac"
      ],
      [
        "Ġs",
        "ake"
      ],
      [
        "Ġs",
        "ort"
      ],
      [
        "er",
        "v"
      ],
      [
        "Ġw",
        "in"
      ],
      [
        "Ġw",
        "oo"
      ],
      [
        "Ġw",
        "eep"
      ],
      [
        "Ġf",
        "ut"
      ],
      [
        "Ġf",
        "em"
      ],
      [
        "Ġp",
        "ink"
      ],
      [
        "Ġc",
        "ity"
      ],
      [
        "en",
        "ess"
      ],
      [
        "Ġd",
        "ar"
      ],
      [
        "as",
        "on"
      ],
      [
        "le",
        "ep"
      ],
      [
        "el",
        "ing"
      ],
      [
        "om",
        "ing"
      ],
      [
        "ĠS",
        "m"
      ],
      [
        "Ġwith",
        "in"
      ],
      [
        "ĠH",
        "ave"
      ],
      [
        "Ġr",
        "u"
      ],
      [
        "Ġre",
        "ver"
      ],
      [
        "Ġli",
        "ft"
      ],
      [
        "th",
        "y"
      ],
      [
        "Ġv",
        "an"
      ],
      [
        "Ġch",
        "ang"
      ],
      [
        "Ġch",
        "ange"
      ],
      [
        "ĠG",
        "o"
      ],
      [
        "ĠG",
        "ood"
      ],
      [
        "ak",
        "s"
      ],
      [
        "ak",
        "ed"
      ],
      [
        "Ġro",
        "se"
      ],
      [
        "ĠJ",
        "ohn"
      ],
      [
        "Ġun",
        "c"
      ],
      [
        "Ġno",
        "se"
      ],
      [
        "Ġag",
        "es"
      ],
      [
        "Ġfe",
        "et"
      ],
      [
        "anc",
        "es"
      ],
      [
        "Ġbro",
        "ad"
      ],
      [
        "get",
        "her"
      ],
      [
        "enc",
        "y"
      ],
      [
        "a",
        "res"
      ],
      [
        "f",
        "ell"
      ],
      [
        "g",
        "n"
      ],
      [
        "u",
        "y"
      ],
      [
        "Ġs",
        "ong"
      ],
      [
        "Ġb",
        "on"
      ],
      [
        "Ġh",
        "ung"
      ],
      [
        "Ġf",
        "at"
      ],
      [
        "Ġm",
        "od"
      ],
      [
        "Ġof",
        "ten"
      ],
      [
        "it",
        "ter"
      ],
      [
        "ing",
        "d"
      ],
      [
        "Ġp",
        "ress"
      ],
      [
        "ar",
        "p"
      ],
      [
        "en",
        "y"
      ],
      [
        "Ġd",
        "uck"
      ],
      [
        "Ġd",
        "ire"
      ],
      [
        "Ġto",
        "t"
      ],
      [
        "as",
        "ed"
      ],
      [
        "Ġin",
        "st"
      ],
      [
        "le",
        "e"
      ],
      [
        "ro",
        "ll"
      ],
      [
        "Ġn",
        "ames"
      ],
      [
        "al",
        "y"
      ],
      [
        "ĠA",
        "y"
      ],
      [
        "Ġfor",
        "ty"
      ],
      [
        "am",
        "ent"
      ],
      [
        "ĠM",
        "ich"
      ],
      [
        "Ġr",
        "iver"
      ],
      [
        "Ġst",
        "ep"
      ],
      [
        "Ġre",
        "ally"
      ],
      [
        "ap",
        "er"
      ],
      [
        "ĠL",
        "ook"
      ],
      [
        "ĠL",
        "ord"
      ],
      [
        "ain",
        "ed"
      ],
      [
        "ip",
        "per"
      ],
      [
        "Ġsp",
        "ir"
      ],
      [
        "ist",
        "s"
      ],
      [
        "ud",
        "s"
      ],
      [
        "Ġbl",
        "ank"
      ],
      [
        "Ġse",
        "ver"
      ],
      [
        "ass",
        "es"
      ],
      [
        "Ġal",
        "so"
      ],
      [
        "ĠJ",
        "ust"
      ],
      [
        "ib",
        "ly"
      ],
      [
        "^^",
        "^"
      ],
      [
        "Ġplay",
        "ing"
      ],
      [
        "Ġvo",
        "ice"
      ],
      [
        "Ġgener",
        "al"
      ],
      [
        "Ġlang",
        "u"
      ],
      [
        "Ġtong",
        "ue"
      ],
      [
        "Ġbelie",
        "ve"
      ],
      [
        "Ġbey",
        "ond"
      ],
      [
        "Ġthous",
        "and"
      ],
      [
        ".",
        ")"
      ],
      [
        "a",
        "im"
      ],
      [
        "b",
        "t"
      ],
      [
        "b",
        "re"
      ],
      [
        "f",
        "all"
      ],
      [
        "i",
        "ant"
      ],
      [
        "m",
        "as"
      ],
      [
        "Ġ",
        "ll"
      ],
      [
        "Ġ",
        "iv"
      ],
      [
        "he",
        "e"
      ],
      [
        "Ġs",
        "ou"
      ],
      [
        "Ġs",
        "ight"
      ],
      [
        "Ġw",
        "ife"
      ],
      [
        "Ġb",
        "rown"
      ],
      [
        "Ġb",
        "right"
      ],
      [
        "Ġh",
        "ill"
      ],
      [
        "Ġf",
        "ive"
      ],
      [
        "Ġp",
        "u"
      ],
      [
        "Ġp",
        "un"
      ],
      [
        "Ġc",
        "ent"
      ],
      [
        "an",
        "es"
      ],
      [
        "an",
        "ch"
      ],
      [
        "en",
        "ch"
      ],
      [
        "en",
        "ny"
      ],
      [
        "Ġl",
        "ate"
      ],
      [
        "Ġd",
        "ut"
      ],
      [
        "Ġd",
        "ust"
      ],
      [
        "Ġd",
        "are"
      ],
      [
        "Ġn",
        "g"
      ],
      [
        "st",
        "own"
      ],
      [
        "el",
        "ess"
      ],
      [
        "ĠI",
        "m"
      ],
      [
        "ut",
        "ion"
      ],
      [
        "om",
        "p"
      ],
      [
        "Ġe",
        "ars"
      ],
      [
        "ĠT",
        "om"
      ],
      [
        "ĠS",
        "ome"
      ],
      [
        "ĠM",
        "or"
      ],
      [
        "ĠM",
        "on"
      ],
      [
        "se",
        "e"
      ],
      [
        "ill",
        "ing"
      ],
      [
        "ent",
        "ly"
      ],
      [
        "Ġre",
        "al"
      ],
      [
        "ĠC",
        "r"
      ],
      [
        "ell",
        "ed"
      ],
      [
        "Ġli",
        "p"
      ],
      [
        "ab",
        "l"
      ],
      [
        "ab",
        "it"
      ],
      [
        "Ġyour",
        "s"
      ],
      [
        "Ġj",
        "ack"
      ],
      [
        "ip",
        "e"
      ],
      [
        "ct",
        "or"
      ],
      [
        "Ġour",
        "s"
      ],
      [
        "Ġbl",
        "ow"
      ],
      [
        "Ġdo",
        "g"
      ],
      [
        "Ġcon",
        "tr"
      ],
      [
        "Ġen",
        "g"
      ],
      [
        "Ġlet",
        "ters"
      ],
      [
        "Ġpre",
        "c"
      ],
      [
        "iel",
        "ds"
      ],
      [
        "Ġcar",
        "ry"
      ],
      [
        "cher",
        "s"
      ],
      [
        "Ġfeel",
        "ing"
      ],
      [
        "Ġnat",
        "ural"
      ],
      [
        "Ġhum",
        "an"
      ],
      [
        "Ġdur",
        "ing"
      ],
      [
        "Ġlov",
        "ely"
      ],
      [
        "0",
        "0"
      ],
      [
        "h",
        "r"
      ],
      [
        "h",
        "and"
      ],
      [
        "k",
        "ers"
      ],
      [
        "p",
        "ers"
      ],
      [
        "u",
        "ke"
      ],
      [
        "Ġt",
        "ip"
      ],
      [
        "Ġs",
        "um"
      ],
      [
        "Ġs",
        "us"
      ],
      [
        "Ġs",
        "umm"
      ],
      [
        "er",
        "al"
      ],
      [
        "Ġw",
        "ise"
      ],
      [
        "Ġb",
        "as"
      ],
      [
        "Ġb",
        "row"
      ],
      [
        "Ġb",
        "urn"
      ],
      [
        "Ġh",
        "ay"
      ],
      [
        "Ġh",
        "ind"
      ],
      [
        "Ġf",
        "ly"
      ],
      [
        "ll",
        "s"
      ],
      [
        "Ġm",
        "at"
      ],
      [
        "Ġm",
        "ix"
      ],
      [
        "Ġm",
        "ount"
      ],
      [
        "Ġc",
        "ou"
      ],
      [
        "Ġc",
        "ool"
      ],
      [
        "on",
        "ed"
      ],
      [
        "Ġd",
        "im"
      ],
      [
        "Ġth",
        "ick"
      ],
      [
        "Ġn",
        "one"
      ],
      [
        "Ġg",
        "ay"
      ],
      [
        "el",
        "d"
      ],
      [
        "ur",
        "t"
      ],
      [
        "ot",
        "e"
      ],
      [
        "ot",
        "ch"
      ],
      [
        "ĠT",
        "ip"
      ],
      [
        "ĠS",
        "ch"
      ],
      [
        "id",
        "dy"
      ],
      [
        "ĠH",
        "ar"
      ],
      [
        "il",
        "ing"
      ],
      [
        "ĠC",
        "ar"
      ],
      [
        "ell",
        "ing"
      ],
      [
        "ul",
        "s"
      ],
      [
        "ĠL",
        "a"
      ],
      [
        "ĠL",
        "iv"
      ],
      [
        "ĠF",
        "ather"
      ],
      [
        "Ġan",
        "swer"
      ],
      [
        "Ġor",
        "d"
      ],
      [
        "ore",
        "d"
      ],
      [
        "ol",
        "es"
      ],
      [
        "Ġat",
        "e"
      ],
      [
        "if",
        "ied"
      ],
      [
        "ig",
        "s"
      ],
      [
        "Ġv",
        "al"
      ],
      [
        "Ġab",
        "s"
      ],
      [
        "pp",
        "ed"
      ],
      [
        "Ġbr",
        "ought"
      ],
      [
        "Ġgr",
        "ass"
      ],
      [
        "ug",
        "s"
      ],
      [
        "Ġpe",
        "op"
      ],
      [
        "Ġdr",
        "aw"
      ],
      [
        "Ġad",
        "m"
      ],
      [
        "aun",
        "t"
      ],
      [
        "Ġlook",
        "ed"
      ],
      [
        "Ġbu",
        "y"
      ],
      [
        "iet",
        "y"
      ],
      [
        "imp",
        "ly"
      ],
      [
        "Ġmil",
        "k"
      ],
      [
        "Ġsom",
        "ething"
      ],
      [
        "==",
        "=="
      ],
      [
        "N",
        "D"
      ],
      [
        "a",
        "e"
      ],
      [
        "b",
        "ing"
      ],
      [
        "b",
        "and"
      ],
      [
        "f",
        "r"
      ],
      [
        "i",
        "ally"
      ],
      [
        "l",
        "ight"
      ],
      [
        "u",
        "gh"
      ],
      [
        "w",
        "er"
      ],
      [
        "w",
        "as"
      ],
      [
        "in",
        "ts"
      ],
      [
        "Ġs",
        "ed"
      ],
      [
        "Ġs",
        "ow"
      ],
      [
        "Ġs",
        "av"
      ],
      [
        "Ġs",
        "igh"
      ],
      [
        "Ġh",
        "all"
      ],
      [
        "at",
        "a"
      ],
      [
        "or",
        "se"
      ],
      [
        "Ġp",
        "ill"
      ],
      [
        "Ġl",
        "ed"
      ],
      [
        "Ġl",
        "ap"
      ],
      [
        "Ġl",
        "ass"
      ],
      [
        "Ġd",
        "ry"
      ],
      [
        "Ġto",
        "gether"
      ],
      [
        "Ġhe",
        "ro"
      ],
      [
        "Ġth",
        "row"
      ],
      [
        "Ġth",
        "anks"
      ],
      [
        "Ġn",
        "ay"
      ],
      [
        "Ġy",
        "es"
      ],
      [
        "ic",
        "ular"
      ],
      [
        "ow",
        "ers"
      ],
      [
        "et",
        "y"
      ],
      [
        "Ġhis",
        "t"
      ],
      [
        "ur",
        "r"
      ],
      [
        "ac",
        "y"
      ],
      [
        "Ġbe",
        "ar"
      ],
      [
        "Ġwh",
        "ate"
      ],
      [
        "ĠM",
        "ad"
      ],
      [
        "ĠH",
        "on"
      ],
      [
        "ĠH",
        "igh"
      ],
      [
        "ĠB",
        "ig"
      ],
      [
        "Ġli",
        "ves"
      ],
      [
        "Ġme",
        "ans"
      ],
      [
        "Ġso",
        "ld"
      ],
      [
        "ĠF",
        "m"
      ],
      [
        "ĠF",
        "r"
      ],
      [
        "od",
        "s"
      ],
      [
        "ĠE",
        "ar"
      ],
      [
        "ood",
        "s"
      ],
      [
        "Ġlo",
        "c"
      ],
      [
        "Ġgr",
        "ound"
      ],
      [
        "itt",
        "en"
      ],
      [
        "Ġpro",
        "d"
      ],
      [
        "Ġcom",
        "mon"
      ],
      [
        "up",
        "s"
      ],
      [
        "inn",
        "er"
      ],
      [
        "ail",
        "ing"
      ],
      [
        "Ġunder",
        "stand"
      ],
      [
        "Ġstr",
        "a"
      ],
      [
        "gg",
        "est"
      ],
      [
        "ett",
        "es"
      ],
      [
        "Ġdis",
        "c"
      ],
      [
        "Ġturn",
        "ed"
      ],
      [
        "Ġnat",
        "ure"
      ],
      [
        "ĠWill",
        "ingd"
      ],
      [
        "rip",
        "es"
      ],
      [
        "Ġhapp",
        "y"
      ],
      [
        "Ġcount",
        "ry"
      ],
      [
        "Ġroy",
        "al"
      ],
      [
        "ĠIre",
        "land"
      ],
      [
        "ĠWillingd",
        "one"
      ],
      [
        "3",
        "2"
      ],
      [
        "b",
        "ow"
      ],
      [
        "b",
        "ox"
      ],
      [
        "f",
        "oot"
      ],
      [
        "h",
        "is"
      ],
      [
        "p",
        "o"
      ],
      [
        "s",
        "ch"
      ],
      [
        "w",
        "r"
      ],
      [
        "Ġt",
        "ears"
      ],
      [
        "Ġa",
        "ye"
      ],
      [
        "Ġs",
        "ad"
      ],
      [
        "er",
        "d"
      ],
      [
        "re",
        "en"
      ],
      [
        "Ġf",
        "il"
      ],
      [
        "it",
        "al"
      ],
      [
        "it",
        "ty"
      ],
      [
        "Ġc",
        "ause"
      ],
      [
        "Ġl",
        "ic"
      ],
      [
        "Ġl",
        "ine"
      ],
      [
        "Ġl",
        "au"
      ],
      [
        "Ġd",
        "umb"
      ],
      [
        "as",
        "es"
      ],
      [
        "Ġth",
        "us"
      ],
      [
        "ro",
        "g"
      ],
      [
        "Ġfor",
        "th"
      ],
      [
        "am",
        "an"
      ],
      [
        "ĠM",
        "ount"
      ],
      [
        "ĠH",
        "ear"
      ],
      [
        "ĠB",
        "ro"
      ],
      [
        "ce",
        "pt"
      ],
      [
        "ĠF",
        "irst"
      ],
      [
        "ol",
        "o"
      ],
      [
        "Ġwhe",
        "ther"
      ],
      [
        "ess",
        "es"
      ],
      [
        "ĠN",
        "ol"
      ],
      [
        "em",
        "pt"
      ],
      [
        "ud",
        "ge"
      ],
      [
        "Ġsu",
        "per"
      ],
      [
        "Ġsu",
        "ggest"
      ],
      [
        "Ġtr",
        "uth"
      ],
      [
        "Ġam",
        "b"
      ],
      [
        "pl",
        "ace"
      ],
      [
        "Ġper",
        "fect"
      ],
      [
        "Ġwor",
        "k"
      ],
      [
        "Ġwor",
        "th"
      ],
      [
        "Ġpre",
        "tty"
      ],
      [
        "Ġany",
        "thing"
      ],
      [
        "ĠSt",
        "reet"
      ],
      [
        "wh",
        "o"
      ],
      [
        "Ġother",
        "s"
      ],
      [
        "iz",
        "ed"
      ],
      [
        "ĠCh",
        "rist"
      ],
      [
        "umm",
        "y"
      ],
      [
        "ĠShe",
        "m"
      ],
      [
        "ipp",
        "ing"
      ],
      [
        "Ġimp",
        "ro"
      ],
      [
        "Ġsch",
        "ool"
      ],
      [
        "Ġfa",
        "ith"
      ],
      [
        "Ġgard",
        "en"
      ],
      [
        "Ġfres",
        "h"
      ],
      [
        "a",
        "i"
      ],
      [
        "a",
        "j"
      ],
      [
        "d",
        "r"
      ],
      [
        "h",
        "y"
      ],
      [
        "h",
        "ib"
      ],
      [
        "h",
        "aps"
      ],
      [
        "i",
        "ers"
      ],
      [
        "p",
        "os"
      ],
      [
        "r",
        "al"
      ],
      [
        "s",
        "k"
      ],
      [
        "s",
        "he"
      ],
      [
        "Ġt",
        "ear"
      ],
      [
        "he",
        "t"
      ],
      [
        "in",
        "ous"
      ],
      [
        "Ġw",
        "o"
      ],
      [
        "Ġw",
        "is"
      ],
      [
        "Ġw",
        "an"
      ],
      [
        "Ġb",
        "a"
      ],
      [
        "Ġb",
        "ill"
      ],
      [
        "Ġb",
        "and"
      ],
      [
        "Ġh",
        "y"
      ],
      [
        "Ġh",
        "ours"
      ],
      [
        "Ġh",
        "oney"
      ],
      [
        "Ġm",
        "ud"
      ],
      [
        "Ġm",
        "ere"
      ],
      [
        "Ġm",
        "ort"
      ],
      [
        "it",
        "ude"
      ],
      [
        "Ġp",
        "ee"
      ],
      [
        "Ġp",
        "ant"
      ],
      [
        "Ġp",
        "uff"
      ],
      [
        "an",
        "y"
      ],
      [
        "Ġto",
        "wards"
      ],
      [
        "Ġth",
        "ro"
      ],
      [
        "Ġg",
        "a"
      ],
      [
        "et",
        "e"
      ],
      [
        "ur",
        "k"
      ],
      [
        "ur",
        "y"
      ],
      [
        "ay",
        "ed"
      ],
      [
        "ĠS",
        "k"
      ],
      [
        "Ġwh",
        "il"
      ],
      [
        "Ġst",
        "re"
      ],
      [
        "il",
        "ity"
      ],
      [
        "Ġre",
        "pe"
      ],
      [
        "Ġli",
        "ber"
      ],
      [
        "ĠO",
        "l"
      ],
      [
        "Ġso",
        "re"
      ],
      [
        "Ġsh",
        "ad"
      ],
      [
        "ĠL",
        "uc"
      ],
      [
        "ĠD",
        "el"
      ],
      [
        "Ġv",
        "en"
      ],
      [
        "our",
        "n"
      ],
      [
        "em",
        "an"
      ],
      [
        "Ġse",
        "nd"
      ],
      [
        "Ġne",
        "ck"
      ],
      [
        "Ġtw",
        "enty"
      ],
      [
        "are",
        "st"
      ],
      [
        "Ġro",
        "ad"
      ],
      [
        "Ġlo",
        "ck"
      ],
      [
        "ĠK",
        "ev"
      ],
      [
        "Ġkn",
        "ock"
      ],
      [
        "Ġwould",
        "n"
      ],
      [
        "ok",
        "ing"
      ],
      [
        "ĠAn",
        "na"
      ],
      [
        "idd",
        "en"
      ],
      [
        "udd",
        "le"
      ],
      [
        "Ġsec",
        "ret"
      ],
      [
        "Ġget",
        "ting"
      ],
      [
        "Ġfoll",
        "ow"
      ],
      [
        "eng",
        "th"
      ],
      [
        "ĠHo",
        "ly"
      ],
      [
        "Ġque",
        "en"
      ],
      [
        "lo",
        "ad"
      ],
      [
        "Ġhon",
        "our"
      ],
      [
        "ĠTw",
        "o"
      ],
      [
        "Ġeff",
        "ect"
      ],
      [
        "ĠTH",
        "E"
      ],
      [
        "Ġwhate",
        "ver"
      ],
      [
        "-",
        "^"
      ],
      [
        "U",
        "T"
      ],
      [
        "b",
        "a"
      ],
      [
        "b",
        "or"
      ],
      [
        "d",
        "o"
      ],
      [
        "e",
        "g"
      ],
      [
        "e",
        "h"
      ],
      [
        "e",
        "ks"
      ],
      [
        "h",
        "am"
      ],
      [
        "m",
        "ar"
      ],
      [
        "p",
        "ar"
      ],
      [
        "p",
        "ass"
      ],
      [
        "t",
        "ime"
      ],
      [
        "u",
        "ous"
      ],
      [
        "v",
        "al"
      ],
      [
        "w",
        "ing"
      ],
      [
        "Ġ",
        "?"
      ],
      [
        "Ġ",
        "X"
      ],
      [
        "Ġt",
        "ale"
      ],
      [
        "Ġa",
        "le"
      ],
      [
        "in",
        "ing"
      ],
      [
        "Ġs",
        "el"
      ],
      [
        "Ġs",
        "ent"
      ],
      [
        "Ġs",
        "ense"
      ],
      [
        "Ġw",
        "ide"
      ],
      [
        "Ġb",
        "oot"
      ],
      [
        "is",
        "y"
      ],
      [
        "is",
        "ters"
      ],
      [
        "Ġf",
        "ast"
      ],
      [
        "Ġm",
        "es"
      ],
      [
        "es",
        "c"
      ],
      [
        "at",
        "ely"
      ],
      [
        "or",
        "a"
      ],
      [
        "Ġc",
        "ul"
      ],
      [
        "Ġc",
        "rown"
      ],
      [
        "Ġth",
        "irty"
      ],
      [
        "ro",
        "om"
      ],
      [
        "Ġn",
        "in"
      ],
      [
        "Ġn",
        "ine"
      ],
      [
        "Ġg",
        "n"
      ],
      [
        "ic",
        "an"
      ],
      [
        "al",
        "is"
      ],
      [
        "ĠI",
        "I"
      ],
      [
        "im",
        "ent"
      ],
      [
        "ur",
        "g"
      ],
      [
        "Ġe",
        "h"
      ],
      [
        "ĠT",
        "ake"
      ],
      [
        "ĠS",
        "ure"
      ],
      [
        "Ġwh",
        "is"
      ],
      [
        "id",
        "ence"
      ],
      [
        "um",
        "ent"
      ],
      [
        "ĠH",
        "ill"
      ],
      [
        "ĠB",
        "re"
      ],
      [
        "ĠB",
        "et"
      ],
      [
        "Ġst",
        "ar"
      ],
      [
        "Ġst",
        "ock"
      ],
      [
        "ion",
        "al"
      ],
      [
        "ĠC",
        "he"
      ],
      [
        "ag",
        "on"
      ],
      [
        "ag",
        "ue"
      ],
      [
        "Ġli",
        "ving"
      ],
      [
        "Ġli",
        "ps"
      ],
      [
        "ab",
        "out"
      ],
      [
        "Ġsh",
        "irt"
      ],
      [
        "ĠD",
        "ublin"
      ],
      [
        "Ġch",
        "rist"
      ],
      [
        "Ġsu",
        "it"
      ],
      [
        "Ġpl",
        "ed"
      ],
      [
        "ĠR",
        "o"
      ],
      [
        "Ġle",
        "aves"
      ],
      [
        "Ġdo",
        "om"
      ],
      [
        "Ġfl",
        "ash"
      ],
      [
        "Ġar",
        "ms"
      ],
      [
        "Ġco",
        "ver"
      ],
      [
        "Ġpr",
        "inc"
      ],
      [
        "Ġsw",
        "ear"
      ],
      [
        "ail",
        "ed"
      ],
      [
        "ach",
        "ing"
      ],
      [
        "Ġen",
        "c"
      ],
      [
        "app",
        "ed"
      ],
      [
        "ann",
        "y"
      ],
      [
        "Ġear",
        "ly"
      ],
      [
        "Ġbel",
        "ow"
      ],
      [
        "Ġser",
        "v"
      ],
      [
        "igg",
        "er"
      ],
      [
        "Ġgir",
        "ls"
      ],
      [
        "ĠGre",
        "at"
      ],
      [
        "Ġsor",
        "ry"
      ],
      [
        "Ġtry",
        "ing"
      ],
      [
        "Ġunt",
        "il"
      ],
      [
        "E",
        "N"
      ],
      [
        "I",
        "S"
      ],
      [
        "b",
        "ell"
      ],
      [
        "c",
        "ome"
      ],
      [
        "f",
        "ar"
      ],
      [
        "f",
        "ort"
      ],
      [
        "g",
        "an"
      ],
      [
        "i",
        "ot"
      ],
      [
        "i",
        "qu"
      ],
      [
        "l",
        "og"
      ],
      [
        "m",
        "ay"
      ],
      [
        "n",
        "ight"
      ],
      [
        "p",
        "ed"
      ],
      [
        "r",
        "s"
      ],
      [
        "u",
        "ce"
      ],
      [
        "u",
        "cc"
      ],
      [
        "v",
        "ol"
      ],
      [
        "y",
        "er"
      ],
      [
        "y",
        "ed"
      ],
      [
        "Ġ",
        "ut"
      ],
      [
        "he",
        "art"
      ],
      [
        "Ġo",
        "bl"
      ],
      [
        "Ġs",
        "ens"
      ],
      [
        "Ġw",
        "el"
      ],
      [
        "Ġb",
        "er"
      ],
      [
        "Ġb",
        "al"
      ],
      [
        "Ġb",
        "oo"
      ],
      [
        "Ġb",
        "ody"
      ],
      [
        "Ġh",
        "os"
      ],
      [
        "Ġf",
        "ig"
      ],
      [
        "or",
        "r"
      ],
      [
        "or",
        "um"
      ],
      [
        "Ġp",
        "ul"
      ],
      [
        "Ġp",
        "ict"
      ],
      [
        "Ġc",
        "ant"
      ],
      [
        "Ġc",
        "row"
      ],
      [
        "Ġc",
        "aught"
      ],
      [
        "Ġc",
        "aus"
      ],
      [
        "ed",
        "ly"
      ],
      [
        "Ġl",
        "oo"
      ],
      [
        "Ġl",
        "aid"
      ],
      [
        "Ġl",
        "oose"
      ],
      [
        "Ġd",
        "ee"
      ],
      [
        "Ġd",
        "ub"
      ],
      [
        "Ġd",
        "ress"
      ],
      [
        "ro",
        "d"
      ],
      [
        "ĠA",
        "fter"
      ],
      [
        "ac",
        "hed"
      ],
      [
        "ac",
        "hes"
      ],
      [
        "Ġu",
        "l"
      ],
      [
        "ĠM",
        "ook"
      ],
      [
        "ĠW",
        "all"
      ],
      [
        "Ġst",
        "ream"
      ],
      [
        "ĠC",
        "ol"
      ],
      [
        "ri",
        "er"
      ],
      [
        "ell",
        "es"
      ],
      [
        "ag",
        "ain"
      ],
      [
        "ĠO",
        "ut"
      ],
      [
        "Ġsh",
        "ip"
      ],
      [
        "ĠF",
        "e"
      ],
      [
        "Ġk",
        "ick"
      ],
      [
        "ee",
        "k"
      ],
      [
        "est",
        "y"
      ],
      [
        "Ġj",
        "olly"
      ],
      [
        "Ġch",
        "urch"
      ],
      [
        "Ġsp",
        "eech"
      ],
      [
        "od",
        "ge"
      ],
      [
        "ĠE",
        "s"
      ],
      [
        "ĠE",
        "very"
      ],
      [
        "bl",
        "in"
      ],
      [
        "Ġcon",
        "st"
      ],
      [
        "ĠJ",
        "er"
      ],
      [
        "Ġqu",
        "ar"
      ],
      [
        "Ġqu",
        "iet"
      ],
      [
        "ook",
        "ing"
      ],
      [
        "Ġar",
        "m"
      ],
      [
        "Ġcl",
        "ass"
      ],
      [
        "Ġcl",
        "ose"
      ],
      [
        "ib",
        "us"
      ],
      [
        "Ġpo",
        "ck"
      ],
      [
        "Ġfe",
        "ed"
      ],
      [
        "oll",
        "ow"
      ],
      [
        "Ġsl",
        "ow"
      ],
      [
        "ĠAn",
        "g"
      ],
      [
        "Ġstr",
        "uck"
      ],
      [
        "Ġsm",
        "all"
      ],
      [
        "ĠSt",
        "r"
      ],
      [
        "Ġtell",
        "ing"
      ],
      [
        "Ġlook",
        "s"
      ],
      [
        "Ġel",
        "se"
      ],
      [
        "Ġpart",
        "s"
      ],
      [
        "ett",
        "le"
      ],
      [
        "Ġthink",
        "ing"
      ],
      [
        "ren",
        "ch"
      ],
      [
        "ific",
        "ation"
      ],
      [
        "Ġpap",
        "er"
      ],
      [
        "Ġgold",
        "en"
[...]
